#version: 0.2 - Trained by `huggingface/tokenizers`
Ġ c
Ġ p
r a
i n
Ġ 1
Ġ m
Ġ s
0 0
r e
l a
a n
c o
Ġ b
t e
a l
a r
Ġ 2
e s
e r
Ġ d
o r
Ġ l
m l
Ġ f
Ġ t
o l
o n
c a
Ġ a
i s
Ġ 3
h o
t a
r o
e n
Ġ 5
Ġ n
u n
Ġ g
h a
i l
m a
t o
m p
e l
Ġ v
e i
a b
5 0
r i
Ġ 4
a s
Ġ5 00
d a
t i
c h
v e
Ġl i
Ġ re
d o
Ġc o
Ġm a
Ġ un
ra n
Ġ in
i a
Ġ h
e t
Ġc a
Ġ la
p a
Ġ e
q u
i c
Ġp o
i t
b is
Ġ2 00
u l
i o
u t
g o
s a
Ġ 8
bis c
j a
la s
d e
u s
Ġ k
Ġ o
i g
i d
Ġ i
l e
o s
d es
k g
Ġ 7
v a
Ġ 6
g r
co n
o m
Ġd e
Ġ ro
Ġ al
re s
s ab
Ġ 9
l o
b a
re m
g u
en t
a t
Ġ j
Ġ1 2
ma c
u p
Ġ x
in a
Ġ1 00
Ġs e
4 0
in ha
l i
Ġm ar
Ġt ra
g a
Ġ4 00
u m
p o
in ho
Ġc ol
p an
ra l
ho c
p e
c e
i m
Ġs a
Ġd o
ca o
Ġc on
re f
o d
ei te
Ġli q
Ġ es
u c
Ġ ar
u r
Ġm o
n e
Ġ r
Ġb a
er o
Ġf r
Ġp las
Ġ3 00
te r
Ġ2 50
Ġp ro
Ġt o
Ġ w
Ġp a
x a
Ġn es
Ġc ar
e m
c r
2 0
Ġ qu
z a
3 0
Ġ5 0
ch in
con d
an d
ol e
s h
Ġn at
Ġ y
e d
Ġ an
m ol
Ġa m
Ġd ent
a c
an te
Ġc r
Ġ1 0
Ġ3 0
e la
Ġ2 5
Ġp er
c t
f e
es c
Ġi pan
li mp
1 0
or t
Ġa z
u a
Ġv er
Ġb r
Ġt ri
m o
on a
e b
s o
8 0
Ġc h
Ġ9 0
Ġ1 50
Ġ or
d or
Ġp et
Ġs an
Ġ2 0
6 0
Ġs o
co l
mol ho
Ġnes t
s e
Ġtra d
s t
Ġ3 50
Ġs h
x t
1 2
il ho
in e
Ġv i
des od
ran go
Ġ -
ole o
a z
Ġ q
Ġl t
s al
Ġb ab
ar ra
in t
Ġin f
Ġ 0
m b
s u
Ġf lo
Ġ ra
d er
Ġla v
k it
7 0
Ġ3 3
i ca
Ġn e
Ġ u
c ha
a o
Ġco co
i co
gu a
Ġh id
is t
Ġb o
u ra
Ġp al
a m
Ġun d
i p
Ġ ri
c k
Ġbab y
u x
l eite
su co
i ra
ei ra
g g
ra cao
io g
Ġm ul
j o
ri g
Ġnest le
Ġc rem
f a
a mp
Ġc hoc
s and
Ġ 00
Ġp t
u ro
c hoc
qu e
ca fe
an da
k i
Ġm in
Ġy pe
i z
ut il
Ġ te
Ġt p
Ġ1 5
i x
Ġ Ċ
i on
Ġs al
i v
p ol
Ġ4 0
is o
ei a
in f
an o
Ġ z
Ġs ua
Ġaz ul
us o
Ġp re
Ġc e
p el
i r
on e
Ġn o
Ġc as
s ha
Ġc x
m ar
Ġma ra
Ġ2 6
f il
in o
a mac
Ġre g
i la
Ġre ch
Ġ el
Ġ8 5
Ġmo rango
f r
Ġl o
des inf
Ġw a
Ġli mp
l t
Ġs up
Ġin te
Ġp r
c m
u d
t d
ha v
g el
Ġm an
2 4
ref rig
Ġc xa
l u
c er
Ġq td
Ġc ho
c ho
ra s
ra t
Ġf or
Ġg o
Ġplas util
Ġc las
Ġca mp
ma o
Ġsa d
a gua
a d
es m
Ġa c
Ġor ig
Ġb ar
2 5
rem e
m e
Ġin t
te mp
Ġv e
Ġn i
c al
ro z
s or
Ġi ta
Ġ6 0
Ġm on
Ġsua ve
1 5
Ġa er
Ġcol or
Ġla c
Ġca p
v o
Ġc ab
Ġ12 0
Ġp as
Ġper f
Ġl e
Ġlav anda
Ġmul ti
Ġd es
Ġb on
en ta
Ġ2 4
b eb
u pa
ol o
l or
co la
9 0
Ġp e
Ġclas s
Ġplas t
c an
a do
Ġl eite
i to
Ġc or
ma s
Ġn ut
Ġ7 50
Ġa d
Ġe xt
p ra
er m
ve ja
Ġ33 40
Ġp to
Ġb ran
Ġp l
er s
es p
Ġli mao
Ġf go
Ġd a
Ġm l
ba la
o ki
Ġro upa
Ġd esc
Ġan ti
t int
is s
Ġs ol
Ġ8 0
b o
Ġ2 3
Ġsad ia
Ġb co
g e
Ġd el
c u
Ġbr il
Ġver de
Ġu va
gg i
7 5
Ġpro te
Ġb an
ab s
Ġc la
b om
co r
Ġro sa
ter g
Ġf res
re e
Ġm or
n a
i do
ar o
Ġe m
5 00
Ġt om
es a
c reme
i b
Ġnat u
Ġd i
co mp
f or
de terg
ol d
g ela
ei t
i ta
Ġb i
id s
il ha
pol pa
Ġ3 7
pa o
po te
ve la
in g
k a
2 2
Ġg al
Ġver m
Ġg ran
ga te
1 3
h t
ch e
in i
a ra
co po
Ġ oleo
Ġp ent
Ġro s
u ri
Ġ1 70
Ġ7 0
ref res
f ar
Ġm as
is co
al e
u ta
f ei
Ġcol gate
ve te
Ġli g
Ġreg ina
ol l
an t
Ġs t
en te
Ġcar ne
ar d
i te
Ġ [
Ġla ran
f er
or r
en a
c ia
Ġ ter
Ġl ine
c i
Ġk ids
f o
ei ro
Ġinte g
Ġpl us
Ġm e
Ġpal m
Ġse da
Ġa ero
t al
Ġfr ut
Ġd an
t an
Ġs p
refres co
k er
Ġqu ero
ro s
or i
Ġmara ta
Ġ1 6
Ġg ra
sor vete
Ġdent al
Ġp ira
Ġin st
g an
Ġp ol
Ġb om
Ġdo ve
Ġba ud
1 4
Ġ3 5
n o
Ġc al
Ġ6 00
pan o
a p
Ġsan it
Ġg el
Ġm en
Ġco mp
an a
Ġw h
Ġs ab
Ġp ra
ce re
Ġ um
2 6
Ġg old
c ar
Ġv ig
Ġtra t
Ġdo ce
Ġcon g
al ha
Ġ ho
Ġh ig
t on
far inha
Ġfres h
g re
er v
Ġlaran ja
cer veja
Ġve ja
sab ao
Ġp ed
f ral
Ġc le
Ġper d
Ġmar co
Ġ9 00
gela t
y a
Ġb l
Ġbon i
Ġ1 40
o la
1 00
Ġz ero
co ol
e ta
e ca
v os
y s
j u
cola te
Ġo et
Ġpa ra
ta ta
Ġi mp
ar roz
Ġvi ta
ch up
r y
Ġv d
pa pel
Ġc l
ic e
Ġpre to
Ġ1 80
Ġco m
m ist
Ġsup er
Ġj o
Ġg re
Ġ1 4
Ġvig or
Ġa p
Ġre f
m on
esp on
n s
Ġe x
rem o
k e
pra to
ro t
v ina
Ġprote x
z on
se ve
i da
v eia
ma ion
s et
Ġb io
2 00
Ġf em
Ġne ut
Ġlig ht
a da
es e
espon ja
Ġl iso
Ġma x
Ġoet ker
la va
8 9
or ta
cho s
Ġflo ral
1 1
Ġc ha
Ġce re
co co
Ġma ca
Ġd u
m an
t ra
Ġlac te
ve a
Ġse ara
ba tata
Ġel seve
Ġg a
m g
ca u
Ġf lor
arra fa
az eit
te l
Ġa ba
Ġ4 50
i um
b r
Ġcho colate
la r
in al
Ġv de
Ġre d
col or
la n
co s
Ġto p
9 5
Ġp inho
Ġ2 30
vina gre
to s
Ġto ya
Ġni vea
es co
x o
Ġs u
Ġp rem
b an
ja o
Ġmulti uso
1 6
Ġes t
Ġb ras
Ġma ggi
Ġbran co
Ġs ta
cere al
azeit ona
re la
f t
Ġd r
Ġ en
im enta
Ġp res
to alha
g arrafa
Ġa ma
Ġb as
Ġnut ri
er va
Ġs c
f f
Ġs en
d eira
Ġ3 25
Ġd up
Ġwa fer
sa co
Ġcon c
3 4
Ġes p
Ġcamp il
Ġneut ro
1 8
b i
Ġe con
cal do
Ġ uso
Ġm ol
Ġ1 8
v en
el y
Ġfr uta
p s
Ġca chos
Ġm ed
uc ar
Ġmar ia
Ġco la
Ġm el
ga d
un d
Ġc it
Ġtrad ic
3 2
Ġter m
x i
Ġs il
uri el
Ġf la
Ġla r
an ha
4 4
Ġp ante
Ġri der
Ġp ri
Ġm ic
i ab
v inho
la do
Ġ3 40
Ġsal on
s en
Ġt an
Ġla m
Ġh u
Ġm ilho
Ġcon d
ct ar
p t
Ġf erm
el l
Ġma g
o o
Ġ ice
Ġext ra
h er
Ġre x
Ġpro t
iss in
Ġv it
i po
Ġf le
Ġo x
gu r
Ġh e
Ġn a
el o
Ġpante ne
Ġp ar
en do
Ġt res
Ġni ely
mar g
i xa
i za
Ġv id
Ġm uriel
la c
Ġ3 60
k ar
al te
or te
c j
Ġj as
Ġ4 5
Ġl ux
Ġm ix
Ġaba ca
l es
Ġin v
Ġc ra
Ġac ti
p p
Ġk it
in set
re n
is ta
ei jo
Ġb arra
ca t
az eite
3 8
en d
Ġn issin
Ġb uc
fral da
Ġnatu ral
d et
m in
Ġto tal
t or
Ġlacte a
Ġp ct
Ġorig inal
Ġs ho
Ġse mo
a la
ma x
m ilho
ca der
Ġf ort
p ic
Ġa s
Ġinteg ral
mas sa
Ġan iv
i f
ion al
Ġ ha
Ġp an
l en
Ġb e
c d
Ġ ol
Ġf d
Ġd ia
Ġum ed
Ġes c
Ġb et
Ġs on
p orta
Ġh i
p as
Ġal um
ig ree
Ġcr ist
fr ut
Ġp ei
3 5
Ġal ho
i an
6 4
Ġ7 89
w a
Ġ3 20
sha m
ip er
z z
ci al
oll y
4 00
Ġ1 30
Ġri ch
ti m
ac hoc
Ġf ran
Ġt ur
Ġgre go
esco va
Ġprem ium
c es
Ġd ori
io gur
Ġsan remo
Ġjas m
is k
Ġnatu re
Ġt ix
Ġy oki
Ġabaca xi
Ġtix an
o vo
an ge
maion ese
Ġmas c
Ġ hav
is h
Ġpro f
i ve
y ne
Ġcla ra
Ġg aro
ra da
Ġh iper
Ġ1 7
mas c
Ġcra ck
Ġ7 5
t ar
Ġk g
Ġso ft
b er
e z
Ġb olo
f d
l ing
Ġs os
Ġca m
Ġs orr
Ġgaro to
Ġf rango
ila r
Ġ2 8
Ġdo g
Ġmin i
Ġjo h
Ġtradic ional
Ġb ri
Ġa des
Ġpa pel
es t
Ġc d
Ġp h
Ġclass ic
Ġo vos
Ġv al
b ol
l te
Ġf a
sha mp
al ia
g ol
Ġbaud uc
u to
limp a
esm alte
Ġmul t
Ġg u
Ġba un
Ġmon ange
en to
Ġl v
Ġ ja
Ġs li
iz za
Ġgo ta
Ġmin u
c l
e ma
Ġc an
cer v
ila n
Ġp la
al ip
Ġsorr iso
Ġco po
Ġma is
one te
Ġb eb
Ġhid ra
Ġm us
Ġn ad
Ġn inho
las t
Ġsemo la
Ġrich es
Ġes pa
Ġpal mol
h e
ar io
Ġli xo
Ġre al
Ġes f
b re
Ġco s
ra m
Ġlimp ol
Ġ26 26
is que
re am
1 7
6 5
Ġqu e
Ġg l
il l
pe d
Ġte x
ggi es
k o
Ġa o
Ġmar cia
Ġr oll
em me
Ġbauduc co
v in
ran a
Ġbar b
Ġtan g
Ġc ro
Ġpo te
Ġverm el
Ġt al
en g
e xt
Ġ2 2
Ġbras frut
Ġm c
Ġbril h
cu ja
Ġgal inha
ti co
n orr
v as
Ġcon f
p h
Ġ2 40
Ġmar ilan
Ġvi r
te n
Ġtra mon
Ġtri p
Ġtri gol
Ġbril ux
Ġb ol
gel eia
b olo
alip to
de o
u b
Ġflo res
Ġar roz
Ġmara cuja
Ġo mo
Ġhid rat
Ġminu ano
Ġp es
Ġnad ir
Ġbr in
Ġt ab
Ġg la
Ġest rela
Ġfruta s
ref r
Ġk norr
Ġf at
fei jao
Ġdan one
Ġs or
er g
Ġar isco
Ġor g
i ch
Ġita lac
Ġhu ggies
Ġa uro
Ġcle an
ti ca
v ia
al im
Ġcr f
2 3
6 6
Ġca re
Ġtres emme
d r
Ġp ic
Ġv an
Ġma t
Ġ ul
Ġrex ona
Ġal yne
Ġtramon t
Ġsab or
u ca
Ġb ig
Ġlo uro
Ġco z
4 5
l s
Ġad ul
Ġt ran
oki es
Ġauro ra
Ġl te
Ġplas v
ns on
Ġ ole
is a
Ġse m
Ġita mb
io ca
Ġf ac
Ġso ja
ado c
on ia
Ġped igree
ch ic
Ġca es
Ġcar m
Ġ1 10
Ġ8 00
Ġbeb e
c p
on i
Ġgo iab
Ġsli m
ha s
Ġx ux
Ġt a
ante ig
Ġplasv ale
ra o
Ġm il
co xa
Ġma xt
an ti
Ġtrigol ino
Ġc u
gelat ina
Ġg d
Ġ1 9
Ġpr int
Ġa b
ca p
ac ucar
or d
Ġxux inha
p al
al cool
Ġcamp o
o x
p c
s p
Ġa co
Ġ3 6
r f
Ġa t
Ġho t
Ġjoh nson
m y
Ġb ca
Ġpalmol ive
Ġlam en
ra do
Ġb rot
Ġch ur
Ġca ju
Ġ2 60
Ġecon om
p rot
Ġf in
gu ard
Ġ12 5
Ġcrist al
Ġlac ta
Ġgran ado
Ġar gan
Ġm and
n y
Ġitamb e
d t
Ġpa mp
3 6
la da
Ġvid ro
Ġ erva
g ran
t ro
Ġfr isco
i ante
Ġ1 75
gu ar
Ġtri fil
col her
Ġsen s
Ġo ral
Ġcon dor
is se
Ġbet tan
Ġb lu
Ġb el
Ġt to
Ġcol g
Ġra d
il e
Ġm d
ve x
3 7
a is
Ġ3 8
ac u
Ġcle ar
Ġperd ig
Ġcas t
s b
cu eca
a veia
Ġin tim
Ġmaxt on
Ġqu ad
Ġfran c
v el
Ġban ho
v al
in z
m es
Ġpre d
ipo ca
Ġbettan in
Ġl olly
Ġflo cos
Ġj um
Ġr f
Ġcit r
Ġs b
Ġde c
Ġ1 60
Ġbo v
Ġpo w
1 9
Ġclass ico
Ġf o
Ġh ell
Ġhi kar
sal s
Ġmon ica
Ġwh ite
Ġa veia
Ġh ar
cat chup
re l
Ġ ur
Ġre s
m m
Ġli za
Ġpr on
Ġhikar i
Ġ3 9
la mp
Ġgoiab a
Ġb la
Ġc eb
Ġel e
Ġcam om
4 8
Ġar t
Ġbo x
Ġpira can
Ġ9 6
Ġte mp
do ce
Ġr isque
in k
Ġ3 30
Ġipan ema
isk as
es ta
Ġla ct
Ġc p
u ma
n es
iz ena
an ta
Ġch e
Ġbrin ort
7 2
ve j
Ġc up
Ġh er
v an
anda ia
Ġro up
Ġp il
las anha
sor v
Ġperdig ao
Ġintim us
os o
Ġca fe
os e
Ġ3 2
Ġse c
ran te
ma te
it ta
Ġbla ck
Ġe uc
Ġpamp ers
Ġp uro
Ġh y
Ġf ar
pra y
b al
Ġqu al
sal g
Ġbran ca
al ho
Ġde f
fr uta
Ġcrack er
Ġb is
3 00
Ġco ca
jo u
i va
Ġpo mar
Ġam endo
Ġcos ta
v er
q j
qu ei
Ġma guar
Ġbi jou
Ġmol ho
t r
Ġf ri
Ġbr ilho
al vej
Ġin ox
Ġst ri
Ġ5 7
Ġk ib
Ġ2 80
Ġban ana
Ġpri ma
at um
Ġ5 40
l in
Ġj andaia
fil e
Ġorig em
Ġgu ar
Ġp q
Ġm id
Ġpei to
Ġvan ish
Ġsa zon
wa ys
Ġf er
Ġ4 8
d y
da o
Ġcol o
anteig a
mar t
Ġc ream
ca m
Ġre fil
Ġwa f
Ġb ra
Ġ2 10
il on
Ġf az
Ġlimp pano
Ġsan ta
sal gad
Ġal mo
ne ctar
Ġriches ter
f it
Ġbrot h
Ġf ilho
1 50
w h
Ġro y
ri a
Ġg r
Ġg ua
sab onete
c inha
o vos
Ġqu eijo
Ġcamom ila
Ġno vex
oki e
ta mp
ti ra
Ġman ga
Ġe mb
ei xa
ros as
Ġstri ke
Ġp imenta
s ol
m ini
Ġb c
Ġa cao
Ġ26 9
ab el
Ġal cool
pe ra
g ra
Ġ2 7
Ġma izena
Ġmar iza
Ġroy al
Ġm enta
ga u
min gau
Ġma e
Ġman cha
Ġme ga
s ard
g ar
i cao
Ġm r
Ġt r
Ġvir rosas
Ġt ro
ca s
2 8
uri f
Ġmaguar y
Ġce pera
Ġp c
fei to
Ġblu e
go dao
Ġeconom ico
ra co
lu b
Ġ8 8
Ġo der
Ġa ca
Ġnes fit
m s
Ġg er
Ġal ways
bis co
Ġ5 5
Ġf anta
Ġar cor
ce ra
Ġhe inz
i e
la la
od ka
Ġca la
Ġm esa
Ġnes cau
erv ilha
to x
Ġgla de
Ġkib on
x e
Ġb ona
Ġfor oni
len co
Ġfranc is
Ġle ao
en e
Ġam alia
erv as
Ġs ha
p ro
Ġoder ich
Ġbroth ers
t s
Ġa gua
v odka
Ġra lado
2 50
9 4
Ġwa w
Ġbom ba
Ġvita m
co t
Ġ37 44
Ġpira que
pp y
tor rada
lor o
Ġul tra
Ġpo p
Ġwh iskas
iogur te
Ġvermel ho
u ti
Ġse ca
Ġba w
Ġtri go
Ġne ctar
j arra
o to
Ġe ven
im o
Ġv is
Ġco okies
Ġor gan
Ġadul to
Ġ up
Ġsa che
Ġse co
Ġimp ala
v ita
Ġ1 15
20 7
Ġam ar
Ġsor ti
qu a
Ġpas t
Ġson ho
Ġpred il
p urif
desod or
Ġtur ma
Ġ (
iv ers
Ġ4 80
Ġsua v
c le
t us
Ġde tox
Ġm i
e te
v ho
Ġs ort
Ġmic ro
b arra
f ort
to p
car ne
p er
Ġa la
fa ca
Ġm abel
Ġmus c
Ġbona re
p g
for ma
Ġl is
Ġsp ort
na ta
marg ar
id as
bala o
Ġf ree
as sa
shamp oo
Ġf ra
amac iante
p imenta
Ġl ed
ut y
Ġros ca
Ġpil sen
u re
p ilha
Ġpow er
bisco ito
f lo
p last
ito s
Ġn ac
so pao
Ġga to
Ġox ig
Ġcopo b
Ġfla mb
p ir
re quei
Ġla ta
Ġvi da
et te
i ona
m el
Ġg ur
Ġ6 5
br il
ca ixa
Ġa v
Ġsho y
Ġf l
p res
Ġf un
Ġt io
Ġsb p
Ġbaun ilha
4 2
Ġse pt
Ġri c
cr m
Ġbri gad
re lo
Ġd ura
os to
in h
can eca
Ġdi et
Ġesf re
3 1
Ġgra os
Ġline a
Ġnut r
so ura
en o
ma ma
Ġt or
do s
Ġdu o
y l
bol inho
Ġros as
Ġpara f
Ġde ck
Ġan t
Ġ2 20
go ma
6 00
Ġs pray
os so
Ġfort ale
f erm
Ġ3 4
Ġ on
3 9
Ġb ro
Ġt am
Ġtra lala
b on
u ch
so pa
Ġve g
Ġ1 1
Ġ3 95
Ġce ram
pas ta
raco es
8 5
Ġar g
con feito
Ġcrem oso
Ġinte n
il i
ha mb
Ġfilho te
m anteiga
t y
Ġd ona
ri o
en x
Ġen erg
m al
Ġm is
Ġt u
n ut
Ġb d
Ġre t
Ġpla x
w ny
Ġa a
ti vo
Ġfle x
Ġhy d
Ġco ala
Ġpo m
t c
Ġp v
Ġba mb
Ġpas s
Ġc lub
Ġt on
Ġes pe
re t
Ġf it
Ġcas tan
Ġa j
Ġma c
ga do
Ġhidra ta
i mp
Ġs uc
Ġpal ha
ic k
Ġre con
es s
ei r
qu inha
Ġdu bom
Ġ8 4
Ġca cau
Ġpet ry
u z
Ġx g
Ġar te
lamp ada
arra o
o k
Ġh orte
Ġcon s
Ġfor te
Ġban h
gar fo
Ġc er
am endo
Ġeuc alipto
pir ul
Ġco t
Ġle gu
Ġgl ic
Ġespa g
cam is
Ġl um
Ġha va
Ġcrem e
Ġbe a
Ġb al
ti t
Ġcro c
Ġ4 1
cle an
u al
Ġc if
Ġg ela
Ġcas a
Ġas sa
il eia
Ġr s
Ġr u
Ġt ut
Ġfac il
Ġpomar ola
p izza
ti va
Ġp rat
Ġre p
Ġdo wny
Ġ3 80
Ġmo ran
Ġcopob ras
Ġp izza
Ġs ur
Ġac qua
Ġda fruta
lo c
Ġbrilh ante
i ro
Ġf c
Ġal k
tel la
ta s
Ġo re
ian ca
Ġl em
os tar
Ġpe q
f da
un t
Ġca t
Ġno od
Ġcom fort
Ġs te
gran ola
Ġp on
h id
k et
Ġal c
Ġjohnson s
b e
Ġo val
ras co
ol ha
ab as
pa p
Ġsa o
Ġso coco
for m
Ġdes n
tint ura
Ġcal ca
Ġ one
Ġ4 2
Ġfr uc
ostar da
sa p
ki es
tal co
camis eta
q jo
p us
Ġc ia
et al
Ġfr util
Ġpol pa
Ġacti via
ivers os
Ġpo uch
Ġto mate
Ġb u
Ġd is
is kies
ti c
Ġmar il
se go
8 4
ma t
Ġu ht
Ġjum b
Ġhorte la
e x
ra to
Ġma my
pe te
Ġra inha
al godao
Ġh ileia
ar ia
uc ilon
Ġan tar
con j
po ko
Ġalmo f
Ġmamy poko
Ġcl ose
Ġshoy u
o sa
Ġs w
lo w
Ġv acu
Ġvacu o
Ġ4 20
Ġama relo
Ġsa ms
Ġpr in
ju ba
Ġp ela
cal cinha
Ġdi ario
Ġhe ad
qu eijo
d as
er ina
Ġesfre bom
Ġconf ianca
sard inha
et s
Ġmar ine
Ġtra m
Ġjasm ine
Ġlegu mes
mp om
Ġcar t
Ġp bolo
co a
ic ia
amendo im
l us
co ca
ti ve
Ġro se
Ġte n
x eira
m il
an e
mac arrao
pe ka
gu lar
vas soura
Ġhar pic
Ġbrigad eiro
g em
iogur t
s el
Ġm go
Ġg io
Ġwa y
Ġfor ca
temp ero
co okie
Ġ7 00
uc ha
so b
Ġsa lada
eb o
Ġm int
Ġb ord
Ġam er
lan c
Ġfortale za
Ġbea uty
Ġ ral
Ġli v
Ġam ant
Ġgua rana
p ente
Ġm inho
Ġs v
Ġs cot
Ġk ar
gu ete
Ġqual y
Ġvis con
un a
Ġdental clean
p ipoca
res c
Ġpas sa
Ġgela t
Ġpron to
Ġu z
ext rato
h ar
Ġma ci
ac k
ber t
has te
a k
Ġsa peka
Ġqu a
Ġg ar
Ġ4 6
Ġcar ref
chup eta
Ġp it
Ġpa ul
Ġcho w
cl g
Ġespe cial
Ġp esa
Ġpo mpom
go iab
Ġ2 70
Ġto que
p is
sa la
Ġbo zz
Ġcere ais
Ġd ar
Ġliv re
2 1
Ġp en
Ġn u
Ġcap ri
Ġ2 1
Ġ2 75
Ġqu im
Ġpiracan juba
Ġaca i
m or
Ġr sa
Ġjo ao
d ent
ro do
Ġarte k
i pa
ic ha
Ġy ara
m esa
Ġam eixa
Ġl iss
Ġch ar
Ġa uto
2 9
ca es
ic le
Ġpo s
Ġmo ca
Ġch i
Ġpet y
Ġfaz end
en de
Ġroll on
Ġfrutil ita
Ġ4 13
Ġtrip la
Ġalk lin
pa te
Ġpesa da
Ġ ervas
7 7
Ġf e
van na
Ġt ar
6 8
Ġb ul
ja x
Ġfle is
Ġl n
ped ra
Ġbord on
Ġparaf uso
Ġmis to
pa ck
Ġk el
Ġjasm im
g io
Ġtri k
Ġ1 3
co lo
ta pete
Ġz oo
Ġter ra
Ġb at
Ġf ab
f esta
Ġrad ium
Ġv a
Ġre nata
Ġpo der
Ġcere ja
goiab ada
Ġbd j
Ġmaci ez
4 6
Ġs and
Ġsa u
Ġph ebo
Ġl on
ic al
cal ca
Ġore o
Ġp p
Ġs mart
Ġno t
Ġlacte o
ur g
Ġval le
in io
Ġf ini
Ġne g
Ġhidrata cao
Ġcomp le
ian as
sals icha
nut ri
Ġal o
Ġar o
Ġbozz ano
Ġb lanc
g on
s on
te x
sel eta
2 10
uc c
Ġfr u
Ġq jo
Ġcla ro
p im
Ġp ink
pirul ito
Ġca ip
li xeira
Ġw y
Ġlo uca
for d
an i
ei to
Ġk ol
Ġanti ba
Ġc in
Ġt int
Ġg ill
Ġs k
Ġdo c
Ġre a
Ġfab er
Ġ6 6
ket chup
Ġgio vanna
s up
Ġan at
Ġflo ppy
Ġme u
d i
ve is
Ġsol ido
Ġcom um
adoc ante
Ġbox er
Ġf lu
ip s
Ġwy da
Ġp ia
Ġb or
Ġpes sego
Ġfleis ch
Ġm ei
Ġli fe
Ġped ro
Ġox ford
Ġp im
Ġvit al
Ġca ref
Ġbar r
Ġa do
Ġbom bril
chic le
Ġd iv
Ġgran o
cader no
Ġbol on
Ġkit ano
ti gela
Ġin sp
Ġe co
Ġpro a
cond ic
Ġ1 90
ia t
Ġceb ola
f rig
on inho
en s
na ga
Ġcab elo
pan ela
Ġalum inio
7 4
Ġp ul
ti on
4 50
Ġcol onia
Ġpira c
Ġtut ti
n d
n i
Ġfr iskies
fei jo
Ġ2 9
it al
Ġsol u
Ġcitr us
Ġrecon st
f res
Ġp el
Ġespa guete
Ġcrf h
Ġroup as
Ġman a
Ġchur rasco
7 8
col ori
gg io
br in
k en
m er
ilho s
Ġ23 34
22 3
t il
Ġd ul
Ġk im
Ġcr t
pc s
Ġma cia
Ġpres to
u la
Ġre c
der s
Ġpan as
Ġfruc tus
feijo ada
Ġp ente
Ġv m
ve ra
Ġg om
Ġk ane
Ġj u
Ġnutri cao
v es
Ġco pa
Ġmag ist
re q
Ġk alipto
Ġcot ton
Ġhava ianas
ri m
Ġra p
ipa va
Ġproa uto
Ġpv c
colori f
e za
co m
ga o
Ġita ipava
f rango
ma ca
sa o
Ġric ca
Ġ12 7
5 5
Ġpaul ista
un to
Ġpra ta
b ar
m ostarda
Ġl ist
Ġf ix
Ġ4 4
le x
Ġbuc al
Ġinsp ira
Ġne ve
Ġbas ic
Ġvitam ina
9 00
Ġmo ido
Ġbon itta
Ġhyd rat
Ġf est
Ġin g
Ġpal ito
Ġprima vera
Ġp ero
io s
t in
Ġs l
Ġi i
Ġam ori
Ġbras il
Ġlem e
c el
Ġa fa
fres h
d ro
Ġri co
Ġ23 32
u lado
Ġ iso
Ġl inha
Ġli las
Ġa jax
Ġhell man
col onia
Ġcha mp
Ġinv is
Ġs top
Ġm ista
Ġfor ma
Ġson o
Ġbolon h
Ġcarref o
Ġalo e
d iversos
Ġf il
Ġo uro
Ġse mp
Ġq j
mb o
dr c
ca bo
des c
Ġel et
Ġgur t
9 8
Ġc loro
Ġ1 14
Ġbr isa
lu va
Ġ37 45
Ġgra o
Ġpara mo
a ma
od y
Ġtrad icao
Ġhydrat ta
f os
Ġam o
Ġcho co
dro ps
Ġso cial
cho m
Ġnut ry
Ġtro pic
Ġkane chom
Ġb em
Ġga la
m ucilon
ba u
Ġre gular
cha ca
Ġ35 5
Ġbio color
alvej ante
Ġminho to
Ġp ipoca
te la
Ġd b
rat ina
Ġfar max
ca chaca
Ġdo ura
Ġbo om
ces to
Ġm al
Ġt od
Ġinte ns
b lu
Ġp g
Ġb j
Ġt d
Ġn yl
Ġba k
ban y
p en
t is
Ġsal g
Ġlo u
Ġdi za
co bert
Ġf i
Ġa da
Ġh el
Ġo vo
v ol
Ġal g
Ġviscon ti
colorif ico
0 1
Ġt ipo
Ġpra festa
pro te
Ġcon tr
con e
bom bom
Ġdan oninho
Ġm ela
Ġs ul
Ġno vo
z e
Ġpa o
Ġparamo unt
b ab
Ġt ap
Ġla s
ce o
ona ceo
jo go
Ġt w
Ġconf ort
sand alia
Ġal bany
se c
Ġdel rio
t ri
x g
ra de
Ġtod dy
p ino
u do
do g
Ġma deira
Ġtri dent
Ġle v
ul o
Ġpa to
Ġman t
Ġn osso
am end
nes cafe
de ga
Ġ7 6
Ġcaref ree
3 3
Ġca che
can ela
Ġgra f
Ġinv ic
mal low
1 80
3 50
Ġm ent
Ġt he
Ġbo la
Ġgre nd
sb t
tamp a
Ġd ol
Ġk en
Ġcup u
ab o
Ġmo v
Ġ0 5
io la
Ġmen ina
Ġtop z
Ġdup e
Ġnyl on
em b
fil tro
Ġno ite
Ġgran de
Ġcal da
requei j
sap onaceo
Ġc t
Ġs ka
el la
Ġin d
Ġpas coa
Ġcla ud
j er
re g
on o
il o
Ġken ko
n ack
Ġp ure
Ġf u
to m
Ġ4 3
Ġ4 30
Ġho m
pal m
Ġli m
Ġsa ch
Ġvi ol
Ġpas c
Ġamer ic
Ġgrend ha
Ġmo fo
Ġle g
ido s
ib ra
Ġbas e
Ġbamb u
Ġkim imo
Ġtropic al
Ġn or
Ġk o
Ġdel ine
Ġr olo
Ġ25 66
Ġch ips
Ġsup reme
5 6
g et
t to
in ga
Ġ5 6
and y
Ġf do
Ġg ros
Ġun iv
Ġes sen
ne u
Ġama zon
Ġceram idas
d el
Ġba g
Ġan g
esp um
Ġgal o
b l
Ġt os
Ġcrem er
Ġcala bre
Ġco racoes
Ġam or
Ġor to
Ġfazend inha
fos for
Ġclaud ia
in om
Ġs m
j g
Ġo dor
9 2
Ġ5 20
ti z
Ġma te
fil ez
Ġpei xe
Ġqua ker
fosfor o
ix o
Ġol iv
d inho
Ġhu gg
u el
Ġpol if
Ġap ti
margar ina
Ġlas anha
ab a
Ġ6 8
Ġv ale
Ġco res
um e
Ġ10 6
ua u
Ġk a
lo ff
Ġol iva
Ġnature za
Ġhellman ns
ta ca
qu eira
mama d
n az
Ġo ce
Ġ uau
Ġla va
Ġdup lo
Ġg at
Ġmas ter
m eia
am ido
Ġcat up
Ġf as
Ġca ch
qu i
Ġcap ilar
Ġsu isse
Ġad ria
man n
bi e
Ġcoz inha
Ġcala b
blu sa
Ġcupu acu
n u
Ġp or
Ġsh cond
Ġpas tel
Ġtramont ina
Ġv ol
pe tit
Ġsho ul
Ġa g
Ġre pa
li xa
ferm ento
k ura
aro ma
Ġ789 60
Ġele f
lus tra
Ġp ta
Ġs el
en xa
Ġto q
Ġcit y
Ġbar bie
comp osto
Ġgal lo
p ar
va zon
ado s
Ġ14 4
Ġna pol
Ġfort al
1 20
Ġma m
isk y
Ġchur r
p i
re ga
en da
gu er
rel la
h i
t v
co x
Ġl eit
Ġa st
ti a
Ġbab osa
Ġat um
Ġ +
Ġg erm
Ġ16 5
ca f
Ġdes eng
Ġcalabre sa
ra ta
Ġtran s
Ġfun do
brin q
inom oto
Ġl una
qu eiro
des o
Ġtar get
c aro
il la
ne y
Ġcu ida
Ġdul eit
m ant
Ġs g
ca d
Ġal ta
Ġme zz
Ġhom em
Ġf am
Ġang lo
b lo
Ġs im
Ġdoc ile
Ġdol ce
Ġmel itta
ir y
temp o
uti en
er ry
Ġno v
pal ito
v ilho
Ġt b
Ġt ort
Ġg us
Ġscot ch
b one
p es
Ġa vela
Ġros q
Ġdu coco
bal de
Ġamendo as
re ia
Ġimp er
w e
Ġv do
Ġre ino
ba cia
Ġ100 0
Ġdo y
Ġcolor s
Ġ8 50
Ġem s
Ġum id
Ġbolonh esa
2 7
s mart
Ġv g
Ġpro mo
Ġbaud u
cere ais
Ġfla k
Ġru ff
Ġsur f
Ġdis ney
f io
in os
re x
Ġa sa
fa da
Ġ26 223
Ġtro p
Ġnood les
Ġsw ell
2 24
as y
Ġto t
Ġmed io
Ġlar go
ica ra
v i
Ġ4 14
so utien
ros quinha
Ġpra to
Ġc ct
Ġa ct
Ġra so
Ġbarb e
Ġb rig
ran o
Ġcar n
ical do
Ġshoul ders
Ġl in
Ġko b
y gon
Ġ5 1
Ġmo veis
Ġsu fresh
Ġpan el
Ġpassa tempo
Ġska la
Ġmezz ani
g tc
Ġb x
Ġal im
Ġado c
Ġthe oto
Ġso lar
wh isky
bab y
Ġt in
Ġg ira
Ġpra ti
Ġred on
Ġur b
u va
Ġg ts
Ġ4 60
Ġpro cao
al iz
ha ir
Ġlimp eza
Ġvita rella
Ġacti ve
Ġpety an
Ġcuida do
Ġp iso
Ġplas tico
Ġvi ena
Ġpiracan j
Ġsach et
9 9
m ix
co okies
Ġca ram
Ġy o
Ġso c
que tel
Ġk icaldo
Ġal f
Ġho ra
Ġb b
Ġre tan
Ġma d
ucha ua
u ba
re to
la pis
Ġpic ante
Ġgus to
Ġne w
Ġgra v
Ġt il
Ġe asy
gu m
Ġche ese
2 20
Ġs un
Ġbi q
b ic
Ġd or
ei j
Ġco za
Ġpo d
Ġo f
Ġo pus
Ġde co
smart ph
* (
Ġc icle
al mon
Ġa ve
Ġal e
ter ine
Ġrech e
Ġ2626 7
Ġtang erina
Ġmil nutri
Ġcicle y
a g
Ġt t
Ġsan t
Ġdb enta
Ġm os
Ġe mp
Ġ33 5
fil me
Ġperf uma
Ġcatup iry
Ġflak es
es ton
ca cho
Ġgo ur
ib ri
flo cao
Ġpanel ux
w c
Ġh em
Ġ9 3
Ġsa kura
Ġsanit aria
Ġtam bau
l y
Ġb ico
Ġf ps
Ġcar ioca
pol io
ven e
limpa dor
Ġav ul
Ġrea ch
Ġli qu
Ġi q
Ġsens i
Ġfra mbo
Ġtap ioca
6 7
gel ls
Ġjum bo
Ġnov ica
3 20
Ġ old
Ġnes cafe
Ġper u
Ġra id
Ġtran sp
Ġta ran
Ġsuc r
Ġcroc ante
1 40
Ġm od
Ġsan ol
Ġmed ia
Ġprof un
per f
beb ida
Ġassa d
Ġcarrefo ur
Ġkob ber
Ġm etal
Ġpass ar
Ġp ur
Ġ2 90
Ġf esta
Ġk e
Ġba con
Ġmas sa
bre coxa
Ġcolo ra
n ie
r ol
Ġf ina
Ġco ol
assa d
g as
s c
Ġm ine
Ġque ratina
Ġantiba c
gum elo
f la
m ed
re v
Ġj r
Ġpre ta
Ġcha o
Ġoce ano
Ġra y
Ġmin as
Ġ789 600
Ġrico sa
Ġameric ano
Ġ za
Ġp ant
Ġo ff
Ġal ma
Ġ25 12
Ġche e
requei jao
Ġcastan ho
Ġantar c
enxa g
Ġp ilar
ta b
Ġdr ink
Ġqual i
Ġl isa
con s
Ġcr fo
ck er
Ġz e
Ġda vene
iza dor
Ġjumb inho
Ġframbo esa
Ġp gg
te c
Ġla n
ino x
Ġcarm inha
Ġing les
rega ta
ca chos
Ġpres ti
Ġpar mes
sob rem
Ġpen ne
Ġiq f
b ico
Ġamendo im
Ġ76 22
Ġneutro x
Ġfle ur
Ġ23 4
bi de
Ġtab u
s nack
ca bide
ma la
Ġhid ro
Ġmara c
Ġlo ur
ite x
Ġher sh
Ġgrav iola
Ġparmes ao
Ġc s
Ġf iat
pe to
ur guer
Ġpa rana
Ġle ve
Ġbrilh us
Ġgros so
p neu
Ġd al
Ġt uchaua
Ġh al
Ġfrut ti
frig id
Ġinvis ib
Ġmine ral
Ġc z
Ġs kar
or gan
Ġso b
Ġdar ling
k ids
Ġs q
Ġdan ub
la v
co gumelo
Ġ3 1
il le
Ġdel ic
cat u
Ġesc uro
li ter
Ġbi ju
ped igree
7 6
b b
es peto
ei o
Ġcol ibri
sal on
ces ta
Ġten ys
b u
Ġc sal
Ġ8 9
lo cao
ico le
cho colate
Ġcor po
Ġpar b
Ġfa ela
assa deira
jer icao
Ġdal las
p to
des eng
Ġpas ta
Ġros to
Ġmag ic
inho s
Ġdel ica
Ġph y
Ġele ct
7 50
de dor
g er
Ġg as
od or
Ġhid r
Ġfor no
Ġdia m
Ġfin os
f fe
g la
Ġp in
Ġbr inox
p tico
Ġb ela
ca deira
ve dor
Ġcastan ha
Ġcolora ma
ta o
que ez
mist ura
Ġfri mesa
i as
Ġreg aliz
ucc ino
ia mb
Ġk i
ig n
Ġam end
Ġgl it
Ġtal ento
Ġquali max
g in
i or
Ġp i
Ġmar inho
Ġba ygon
ero la
Ġcar ta
Ġbon d
Ġanti c
Ġnutr isse
Ġd ende
Ġt ip
Ġ0 1
der m
Ġpr ol
Ġped ra
64 8
Ġfru it
Ġruff les
4 3
Ġs er
ta dor
Ġ10 5
gua rana
ap ar
Ġna tive
Ġfer til
Ġinvic ta
il iz
Ġst ra
Ġsolu vel
Ġc g
Ġs ca
Ġw om
Ġcap p
f ree
f aro
Ġt h
Ġro d
deterg ente
Ġpara ti
Ġcere al
pas t
Ġast ra
hid rat
Ġada pt
Ġf roz
ca ra
Ġre tro
len col
Ġole os
to mate
Ġco okie
Ġk od
Ġro xo
Ġj ard
Ġfin as
Ġantarc tica
Ġs imp
Ġt amp
ina do
Ġel ma
Ġphy to
t l
Ġm er
la dor
an g
Ġb enta
Ġb ody
ca re
ri p
de ja
Ġbar uel
c ano
es cor
Ġgelat ina
Ġdoura da
m ort
Ġre v
Ġpol eng
Ġaniv ers
Ġbro ch
Ġmei as
7 3
Ġmar ti
Ġpa ck
Ġpe ps
Ġkol eston
Ġelef ante
bone ca
Ġchee tos
Ġdanub io
e va
Ġk ess
Ġcas al
bo la
Ġsp ice
Ġbis naga
Ġpolif lor
Ġo v
Ġ6 72
Ġes co
Ġab s
Ġmicro f
Ġprin ces
Ġkar ite
Ġbul l
queez e
m et
s y
Ġd ry
Ġco c
Ġcas eiro
can eta
Ġimper io
co racoes
le g
Ġcolor ido
Ġesf ol
Ġbig fral
Ġcamp ilar
ixa o
j ica
Ġlis terine
Ġperfuma do
Ġinvisib le
g en
m ur
p ren
p icole
Ġ ĠĊ
Ġb ic
ta do
Ġal is
Ġba c
Ġpres unto
Ġhem mer
b io
Ġc resc
is en
do uro
Ġcab o
Ġfree gells
deso do
Ġpresti gio
e vita
Ġ ital
00 00
Ġf p
Ġf ino
Ġsa c
Ġ10 3
Ġha ir
Ġcitr on
c che
Ġam i
Ġcal c
Ġmil k
com inho
Ġfroz en
b ul
ca st
en tos
va o
Ġr t
Ġsan i
am eixa
Ġsol t
my to
Ġcache ados
Ġt ira
on ic
is ca
Ġma ma
Ġh it
Ġ0 2
Ġlo wc
Ġcan ela
pap inha
Ġmagist ral
Ġm b
Ġt ren
Ġv ap
ti mo
pa t
Ġto alha
Ġaz l
Ġfrut tis
Ġdef in
Ġcontr ol
Ġtin to
Ġfruttis ol
des color
Ġhersh e
2 40
e to
s te
v ent
Ġm et
Ġ5 4
Ġin ter
Ġo la
li p
Ġch eir
frigid eira
b ro
p in
Ġin k
Ġro v
Ġx xg
Ġ17 648
Ġrepa racao
Ġgour met
o t
r olo
x icara
Ġe isen
ela r
Ġaj i
b ri
Ġp ila
ab r
Ġpra ia
Ġconc ent
Ġaj inomoto
Ġrov itex
d en
Ġl uz
Ġf ixa
Ġmax x
ban deja
Ġsorti do
gla de
b ty
f i
Ġdel lo
Ġex p
mama deira
nu gg
Ġalf az
Ġc cp
ra cha
Ġb elo
Ġ7 8
Ġmo ida
ed or
Ġarg in
o y
ca cau
sa lada
Ġgota s
Ġprol on
s sol
at us
Ġpa ixao
Ġmin ion
Ġvita o
Ġquim ica
condic iona
Ġ78960 13
2 30
5 4
Ġs us
Ġl eb
wh ite
eno ura
Ġenerg y
Ġsemp re
Ġtamp a
escor re
f l
Ġf ura
Ġa xe
Ġmic elar
Ġpanas onic
m t
Ġcor p
Ġex ce
Ġdup la
Ġtu bo
Ġanivers ario
6 2
j e
s ili
Ġne o
ge ma
Ġtal har
Ġsuc ral
Ġ106 11
sili cone
Ġ7 4
Ġplas n
su tia
Ġga tos
Ġstra w
in s
Ġn as
ti v
Ġre l
Ġmar r
cha mp
Ġmor gado
prote tor
h on
ra u
Ġext remo
Ġul t
chic ken
caro la
Ġcitron ela
0 2
Ġ ran
Ġm t
Ġs no
ta c
Ġba tata
Ġri o
ci da
hamb urg
Ġtri tec
Ġext r
22 6
Ġama z
sala me
Ġnapol it
iamb re
Ġesco va
Ġminion s
p r
Ġa e
Ġin set
Ġno bre
bi q
Ġpar m
Ġste via
Ġkel dog
Ġcaip ira
d u
h n
Ġv ono
Ġal ca
Ġka po
ma ra
li xo
ort hon
Ġcor inga
ana po
Ġtor rado
Ġplasn orthon
5 8
Ġp is
sab or
ba hn
Ġ00 8
ud im
est re
Ġhell m
Ġgom es
c ra
o reg
Ġt ir
Ġmoran g
Ġcin za
f go
Ġc res
Ġc za
Ġf el
Ġf us
Ġba ixo
Ġ0 20
Ġu ar
Ġdan eva
Ġpure za
Ġargin ina
escorre dor
c ream
Ġ1 12
Ġb ud
Ġd ente
Ġt andy
to al
li qu
Ġmo coca
Ġad t
Ġcha myto
Ġbri te
har pic
Ġcapri cche
d ia
p il
la ct
ia o
Ġri t
pol vilho
Ġvermel ha
palm ito
Ġmarti plast
5 2
ca pp
Ġg e
Ġro che
Ġne on
Ġve ra
sup orte
Ġamo ra
Ġprofun da
g b
Ġd un
ca ps
Ġg f
Ġ6 4
Ġha mb
Ġalmo fada
Ġlon g
Ġliqu ido
f on
Ġli mo
Ġh erm
sa che
Ġbra h
Ġgur y
Ġdura lex
Ġiso t
cox inha
f ita
Ġca ma
Ġdel icia
Ġcal cinha
Ġlux o
Ġfar n
Ġmancha s
Ġflu or
Ġexce ed
Ġde o
Ġy ak
Ġno va
100 0
Ġdoy p
Ġeisen bahn
is so
ch ur
Ġe q
Ġal pino
Ġst ar
Ġpente ar
Ġpero ba
Ġ7896013 10
Ġj un
Ġ26 30
Ġcu id
nes ton
Ġsim ona
Ġumid iliz
Ġpila o
Ġbrah ma
s un
re p
re ma
al t
Ġt uc
sa zon
Ġal uma
Ġcar inho
Ġad idas
ant il
pas sa
Ġrel vazon
Ġaluma za
7 9
m i
Ġc id
Ġs ena
Ġl il
Ġa ven
pel ho
Ġcons erva
Ġgira ssol
co quetel
Ġmol ico
Ġrep ar
Ġamazon ia
Ġsena dor
f olha
x y
Ġv in
Ġla ka
Ġac erola
me douro
Ġcha m
chic l
van ish
Ġroche do
20 8
bo w
Ġpul v
Ġmela n
Ġsensi tive
Ġsucral ose
t ina
Ġto de
Ġver d
Ġbud we
p la
Ġ util
Ġo i
Ġ6 60
Ġes tamp
Ġflo w
Ġmax i
6 3
res co
Ġse g
Ġbar ba
Ġvit ta
Ġcotton baby
pen eira
7 1
f ls
Ġs queeze
id or
Ġy ama
fe ra
Ġfla t
Ġvital in
ign on
ca pa
et ona
Ġperf eito
Ġcere ale
2 13
Ġ iog
Ġb ret
Ġa bo
ch ar
et t
de la
Ġal godao
Ġdo ver
Ġqu in
Ġda colonia
guard anapo
Ġhershe ys
Ġbudwe is
a des
a dor
u gu
ra c
im ento
Ġ10 2
Ġprote cao
Ġwh e
Ġterm ica
ill y
Ġpron atus
colo rau
Ġsau v
Ġredon da
b or
Ġun has
go s
cas pa
Ġinten sa
blo co
f inho
ki tos
Ġreg ente
Ġcos tela
Ġfas h
Ġrod abr
Ġkod ilar
Ġs s
Ġs pe
Ġa ir
Ġ3 10
Ġ3 90
el im
Ġv inho
Ġre n
Ġe last
Ġal cal
Ġvid ros
Ġadul t
Ġton ica
Ġprin c
tab ua
Ġtir ole
n t
Ġp at
Ġs od
Ġpe tit
Ġmol in
Ġorgan ico
Ġurb ana
a tiva
Ġm io
gu ica
sh ort
Ġtri o
mo p
Ġte c
Ġfa ti
pres erv
Ġfe el
faro fa
3 70
Ġs to
Ġco queiro
Ġin color
Ġi med
inha s
Ġra ca
Ġmus sa
Ġfarn ese
Ġsimona ggio
Ġtirole z
e rante
f ri
p et
p ioca
da do
Ġres ta
Ġinten so
catu aba
l ha
Ġp ort
Ġ10 9
Ġflo c
Ġcomp ac
Ġja cker
haste s
Ġskar loff
Ġcarta go
bow l
Ġbret z
6 9
Ġ *
Ġp ena
co medouro
en erg
un ch
Ġv ar
Ġ6 9
so brecoxa
mar sh
Ġex c
Ġmic r
Ġcu eca
almon dega
Ġlowc ucar
0 10
j i
l ic
Ġb and
Ġl ua
pa ra
Ġpo ppy
de x
us e
Ġch ic
refrig erante
Ġpalm eir
salgad inho
Ġveg etal
Ġmana us
bul e
b as
Ġc ul
Ġso p
ren te
Ġ2626 5
g rao
Ġ9 65
Ġpl en
Ġchar m
Ġpel e
Ġtd m
Ġtaran tella
Ġvitta max
Ġbudweis er
b el
Ġm eia
il k
Ġh ero
ga to
sand u
Ġades iva
37 8
ex ten
Ġaro ma
mallow s
oreg ano
Ġuar ini
Ġsop rano
e mp
Ġp ip
ta re
Ġun ha
Ġe d
Ġ6 1
Ġj e
Ġmar ro
col eira
Ġfres c
aro mat
Ġvid rex
Ġantar ct
Ġsob rem
i ma
s pray
Ġc ur
re pel
so lan
Ġita tex
Ġkit ty
len cos
Ġab sol
Ġres ist
Ġlis os
Ġleb re
Ġaven g
s k
Ġd er
et ti
Ġ12 6
Ġlav and
iv o
Ġac ucar
Ġ110 74
Ġmusc ulo
Ġbeauty color
c up
Ġ8 30
us se
Ġcon t
Ġlo tus
Ġtradic iona
Ġfaz enda
Ġsorti da
Ġrit ual
p ul
Ġf ei
ab or
Ġca cho
om alt
Ġam b
Ġman jericao
cu e
ant illy
Ġm m
es pelho
ca carola
mon ica
Ġama rela
Ġneg resco
Ġsk ol
Ġelect rol
ste ak
Ġnapolit ano
isso ba
Ġc xt
Ġv ul
Ġun iao
Ġde cor
Ġdo bon
Ġar no
Ġper son
Ġcla r
ke y
tra v
Ġas s
Ġja p
Ġimed ia
Ġs fera
re ira
Ġch ed
Ġaer os
Ġbon o
Ġmic key
Ġ260 48
Ġnutr ilon
Ġgala xy
capp uccino
Ġ io
Ġd om
Ġh ort
Ġum e
Ġ14 1
max mallows
Ġgill ette
c loro
f iambre
i el
p re
Ġ ei
ri f
Ġar om
Ġas solan
Ġque ra
Ġfam il
Ġsca la
desodo rante
t t
Ġf h
Ġv ac
Ġes m
Ġr ol
Ġman ti
mas cara
Ġst and
Ġpreto s
Ġoliv ia
Ġalfaz ema
liqu id
ativa dor
Ġpalmeir on
Ġc ano
te ira
Ġx t
ck s
Ġtal co
Ġkel lo
Ġsand ella
Ġneg ro
Ġdefin idos
Ġsod io
7 00
Ġsil i
Ġsil v
Ġque da
Ġ2630 7
0 5
Ġm pa
ca ma
ta ge
Ġso y
Ġinf antil
ban ana
35 6
Ġhal ls
i ral
u da
Ġm anteiga
Ġf iona
bis naga
lu ten
Ġpe da
Ġcor o
Ġfres cor
Ġmussa rela
omalt ine
1 13
n ho
p os
ran ha
Ġal to
Ġse car
Ġ25 4
Ġgo od
Ġfo fo
z inho
in as
Ġs ei
er i
is ter
Ġba re
Ġcho pp
Ġextra ord
Ġ17 24
Ġph il
Ġgato rade
Ġbanh eiro
Ġfil h
rev ista
l bb
s ho
Ġs at
Ġ2 25
on das
ba te
pan te
12 5
Ġmin nie
Ġsq z
g ts
Ġs um
an s
an ia
Ġdes tac
Ġ2626 9
Ġsw e
Ġpant s
en ce
Ġe u
Ġ7 2
Ġ9 8
Ġmar m
esp rem
Ġceb ol
Ġ254 31
9 24
c g
is e
Ġma ch
Ġmen ino
ny g
Ġ17648 90
toal h
c ro
d in
p ira
Ġc int
Ġs tella
ro upa
Ġo u
Ġes cu
Ġch and
iss imo
1 70
6 10
f uba
v d
eb ra
cha ve
Ġcit ri
Ġpic anha
Ġorgan iz
Ġpela ggio
Ġperson al
Ġei ri
Ġk at
ne la
12 1
Ġpe ta
can udo
Ġsp ic
Ġ16 2
Ġmen tos
Ġtrigo lar
Ġaa a
Ġju tica
r is
Ġ3 75
Ġ5 50
Ġco pe
Ġnest on
Ġte en
Ġcas ual
Ġsup r
Ġsho t
wa fer
Ġur ca
Ġglic erina
past ilha
Ġcoro te
p om
sa do
iv el
Ġ19 6
Ġretan g
Ġsucr ilhos
Ġvul cano
g i
o va
o ff
ca dor
il ux
el s
Ġcr y
Ġvi la
Ġvi ole
Ġlav an
can jica
Ġprima fer
Ġdiam ante
Ġjard ins
Ġaeros ol
c remo
x pe
Ġf ut
Ġf tas
Ġk lip
amp ola
cola r
Ġanti b
Ġcheir inho
exten sao
Ġcope ral
Ġ and
Ġd ra
ca b
ta m
as t
Ġsa polio
Ġgo ma
Ġsha ke
Ġchar me
Ġprati ce
Ġs chin
Ġsal ton
Ġpr ud
Ġesp iral
Ġacti on
Ġaniv er
Ġpan ela
ber ry
Ġon d
Ġfleisch mann
Ġfu g
Ġavul so
Ġneo pan
Ġ1 11
Ġb ut
un ha
ut or
Ġwa ve
Ġcab er
Ġanti caspa
Ġsuper sec
Ġpla t
Ġpote s
Ġab as
Ġsel e
Ġyak issoba
Ġ109 32
Ġelectrol ux
Ġmanti queira
m ul
te ri
Ġ2 15
Ġl u
Ġma mao
Ġ25 75
Ġpet tiz
cha o
Ġest ilo
Ġrad iante
Ġcast ing
Ġale g
ova c
Ġcry st
Ġfug ini
8 2
9 3
i bo
o p
Ġ us
on na
ca da
Ġg arrafa
Ġca ja
Ġr olha
Ġpa la
Ġpres sao
Ġtemp ero
Ġ105 94
te lo
Ġ5 9
Ġpo o
Ġ9 70
Ġne xt
Ġ15 6
cm x
Ġsem i
Ġeasy white
Ġray ovac
Ġcharm ing
Ġfei jao
Ġprud ence
5 3
c us
r s
w n
Ġs inha
Ġd p
Ġa gu
Ġa mac
Ġor i
lan te
Ġglit ter
Ġtren dy
m ic
Ġs pa
Ġ5 2
ma m
ba con
ilho u
ico s
Ġbi qu
Ġhar ibo
Ġ789600 370
Ġstraw plast
Ġdun orte
Ġswe et
b ona
d ar
p or
Ġ &
Ġl ub
ei ta
des ent
Ġro man
Ġto ffe
Ġch eiro
Ġrech eio
Ġbar illa
Ġcap ili
sen s
Ġmarine x
Ġdiv er
Ġbarbe cue
g es
Ġun ico
Ġe g
Ġo b
Ġcr is
Ġch al
ino a
isse ptico
Ġaveng ers
f s
ra d
te in
ol f
Ġg am
ma da
Ġde pil
Ġmo usse
Ġy or
Ġbran d
Ġcomp osto
bi finho
Ġsec ret
Ġtode cacho
Ġbretz ke
Ġxt reme
Ġcoperal cool
Ġc el
Ġf olha
Ġ25 8
Ġbo re
Ġbran c
Ġmor tein
ori za
Ġlum in
Ġjun ior
Ġplen it
Ġ erv
Ġc rim
Ġs r
Ġn orte
il um
lo t
Ġ10 7
Ġnut s
Ġtran qu
Ġcomple ta
8 8
es pat
Ġl ta
Ġmulti cereais
Ġwh it
Ġnutri lar
Ġque en
Ġ260 26
sala deira
Ġsolu v
Ġeiri lar
l ux
Ġm alte
mp o
as sen
pa to
Ġk ero
Ġte mas
Ġbar la
cal c
Ġcl ic
Ġfd f
Ġamendo a
Ġ2566 2
Ġsant ista
pren dedor
on es
el i
Ġsal sa
Ġeconom ica
Ġfree z
Ġfleur y
nugg ets
Ġcryst al
Ġbore da
Ġm u
Ġs ti
Ġs ve
es ch
Ġa reia
Ġar iel
rat y
gran ulado
Ġgua ran
Ġnu de
pante ne
1 30
2 70
b erm
g eno
Ġ6 7
Ġro ma
Ġcon cor
Ġlimp a
Ġbig en
Ġpis os
Ġp ica
Ġb er
te s
Ġ5 80
Ġli be
qu il
Ġ0 4
Ġbo dega
Ġnatural ly
lin guica
champ ignon
Ġcid reira
Ġbrand ini
d an
p inho
Ġn in
il li
Ġv ille
Ġma ped
de al
Ġdi abo
ida de
Ġjoh n
Ġflores tal
Ġher bal
Ġcomple to
mul ti
Ġpala tare
a inf
u f
Ġb os
er os
Ġv en
Ġpo ck
ba t
um b
Ġfor m
Ġcor pus
Ġbe ge
wh iskas
Ġprat sy
Ġdar k
ni er
filez inho
Ġke ra
Ġwom en
Ġpeps i
0 8
l ol
Ġb lo
Ġv el
fer ro
Ġmat inal
Ġpresto b
espum ante
Ġsno w
ilhou ette
9 6
Ġn os
do ra
Ġ6 3
Ġw olf
Ġqu eij
Ġtri t
Ġte ens
Ġ23 18
ton ico
esco v
Ġvir gem
Ġfilho t
gra os
28 2
Ġresta ura
a guard
k eira
Ġre pel
Ġ26 113
Ġcap im
ena da
Ġpri m
Ġoxig enada
Ġbat on
Ġantiba ct
tri go
Ġtalhar im
y d
Ġ Ġ
Ġc re
Ġa ut
ce bol
Ġsa q
Ġmo da
Ġtri un
lt s
Ġda ys
Ġmas ca
Ġhig i
gre lha
Ġmag ia
Ġger ia
coa dor
Ġreconst r
Ġfh esch
berm uda
Ġfhesch mann
b c
Ġ1 95
ti cida
om bo
Ġ9 7
gu e
Ġnat um
Ġq del
Ġcab eca
Ġcor d
pra ti
Ġprote ct
Ġpol en
Ġcere j
Ġen x
Ġbol do
Ġmei o
Ġreche ado
ugu ita
Ġje ans
Ġd en
Ġa ranha
ta d
ta mil
Ġal iv
Ġcrem os
Ġda kar
Ġtos c
marsh mallow
Ġc m
co b
co racao
Ġd s
il in
ac ho
Ġinf an
Ġdes o
Ġjo ca
gur t
Ġtw ist
Ġ7622 210
Ġ258 68
8 1
Ġc tamp
Ġs lact
Ġa con
Ġa cr
Ġ9 9
Ġ12 3
Ġmo co
Ġch erry
se da
Ġad ut
Ġdan ette
Ġaba c
ren z
Ġbra vo
Ġvis c
Ġpon tas
Ġbu que
bu oy
c tion
Ġl ol
Ġf and
Ġv as
Ġ4 9
Ġco racao
Ġcol le
Ġ0 6
cor tina
he res
flo cos
Ġtu ba
Ġched dar
Ġcaber n
5 1
t tan
Ġ ilum
Ġc f
ta in
Ġin c
up i
Ġaz eite
Ġmon di
Ġfem in
Ġsen sa
Ġbe uty
Ġgl os
Ġpred ile
Ġlum ino
Ġcano la
cremo gema
f lor
Ġf aro
Ġa tivo
un ia
Ġse d
Ġcr unch
fe ct
Ġpet unia
Ġri g
Ġpri mor
Ġbel vita
Ġtranqu ilo
b co
k bl
Ġ8 7
Ġpa pa
Ġra ttan
que ta
Ġpe qu
Ġpon t
Ġintens iva
Ġgerm er
m cg
p udim
Ġf ios
Ġde terg
12 7
fr u
Ġcho cola
Ġbra sa
Ġaro mat
Ġtriun fo
8 3
c x
d on
g liter
i al
Ġm icos
Ġn ap
Ġg de
Ġan im
Ġcr uz
Ġsal t
hamb urguer
Ġlife buoy
bic ar
fla nela
Ġphyto derm
Ġd isco
Ġf io
Ġt q
to jo
Ġla dy
con f
Ġ25 226
Ġ33 4
Ġz ul
fr d
Ġmulti las
Ġst y
Ġpan iz
Ġbal l
Ġgar nier
bor racha
Ġjap ones
Ġnatum ilk
6 1
d c
Ġm ucilon
Ġd tc
Ġd iversos
Ġf inal
Ġt m
Ġn an
Ġv o
Ġ33 44
Ġbo mp
one y
Ġvit ar
Ġpast il
nata do
Ġpela gio
Ġgom ets
Ġmarro m
c xa
c ura
c rim
g fa
m entos
Ġ ig
ab ri
ti za
Ġ9 5
Ġdo ur
ne ct
Ġver n
Ġlo renz
gel im
Ġfor ta
Ġperf um
cere ja
Ġref resc
Ġbro to
Ġsili cone
c ulo
Ġl g
Ġl en
Ġ3 70
Ġli ma
las h
Ġo do
Ġo va
Ġpet ra
esm al
me ga
Ġpl ei
Ġamar go
Ġscot t
Ġrea x
Ġcaram elo
Ġspic es
Ġconcor dia
i pan
Ġp olly
Ġt ub
Ġg ir
ran ge
gu inho
Ġ25 924
Ġtri a
ica dor
Ġ2626 3
Ġessen cial
c ig
h or
Ġ7 7
ina dor
Ġmo to
Ġdes inf
Ġdes caf
car ga
sabonete ira
Ġger iat
Ġital i
pira dor
desent up
, "
d is
Ġ it
00 5
ma ia
ga da
hoc k
Ġdo b
ac etona
fil l
iss ant
Ġsha mp
Ġlinha ca
Ġpoleng hi
Ġmio ran
acho cola
Ġp s
Ġs ilhouette
re ta
Ġf re
Ġg osto
Ġ0 64
ura do
Ġsal gado
Ġros set
Ġme us
Ġpol i
Ġbol so
Ġon da
Ġkol ene
Ġtort uguita
Ġcapp ucc
cama rao
Ġtuba rao
0 90
h l
re ro
Ġf is
Ġn ab
Ġg fa
ch eiro
24 80
Ġter n
Ġ7622 300
Ġmelan cia
Ġabo ve
8 6
d s
Ġs n
Ġnat ur
Ġcas telo
Ġdeso dex
Ġfemin ino
Ġs ard
Ġv ia
do ve
va ral
Ġal l
Ġpa gan
Ġsan y
col is
sal eiro
24 9
Ġcal do
Ġdori ana
Ġprinces s
repel ente
Ġaleg ria
Ġgeria tr
Ġbomp ack
Ġplei on
f re
s coxa
Ġc ri
in do
le ene
Ġcol e
Ġba den
Ġplas tica
Ġdes natado
Ġ37 46
pao zinho
fer vedor
car ro
remo vedor
Ġbel kit
sup er
Ġmultilas er
leene x
e las
Ġco xa
de z
Ġpa d
Ġnes to
Ġan ima
Ġaz ulado
Ġpe ra
ing s
Ġsen saco
Ġmag ro
Ġvermel has
Ġsorti dos
Ġsat is
Ġsum mer
Ġzul u
Ġtern ura
Ġm ostarda
Ġs ch
an ado
Ġf s
Ġco re
Ġin timo
Ġk iss
Ġ25 95
Ġri vol
Ġ26 282
Ġman ha
Ġlac to
Ġpol ida
Ġtran q
Ġcp i
Ġdor itos
Ġlibe rado
n er
Ġt rel
Ġk leenex
Ġi deal
Ġ7 20
ter na
arra f
ki to
Ġmulti a
Ġlaran j
Ġgel o
Ġass im
Ġbut ter
Ġcpi res
Ġc enoura
Ġm ole
Ġ2 95
Ġg t
de a
mac yd
Ġba rao
Ġanti a
no z
Ġfer rero
Ġtu do
Ġqua ta
Ġtil ibra
Ġth ree
Ġacon che
Ġmondi al
Ġpagan ini
1 10
4 9
k os
re al
Ġba lan
Ġu tim
Ġcla ros
Ġex cel
Ġ789 610
Ġele ge
Ġnu gg
Ġva i
smartph one
organ iz
Ġfus illi
Ġpaniz zon
Ġutim il
4 7
8 00
al o
Ġd uro
Ġg liter
Ġma ta
sa cola
Ġan a
Ġch il
Ġdesc ar
Ġsanit ario
min as
Ġfura tto
Ġyor k
Ġmioran za
s ia
te fon
en sado
to uca
sa polio
Ġk ick
uc u
Ġz er
Ġcamp estre
Ġag ul
8 40
Ġs co
re z
Ġg ib
Ġo mega
Ġse k
Ġne u
Ġdes maia
ros ca
Ġ14 5
Ġbio hair
Ġjas min
Ġmus s
Ġsor vete
Ġche f
Ġlum inos
Ġmal lor
g eng
v m
Ġs td
Ġli rio
Ġe mo
Ġe vol
ki be
Ġcas pa
Ġpra tica
lus t
Ġhel ena
Ġcalcinha s
Ġradiante s
Ġlumino us
Ġrivol i
g l
s em
y n
Ġf uz
it y
li cor
Ġcar vao
Ġam ido
so ft
iz z
Ġdes ama
90 1
Ġpira kids
Ġbio care
Ġbas t
Ġbet an
Ġmand ioca
Ġquad rado
pin cel
Ġqdel icia
Ġmoco to
Ġmallor y
2 25
in es
Ġf ile
Ġt orta
Ġg ri
Ġca o
Ġla tex
us tica
Ġal ves
ki ta
Ġmen dez
he ad
Ġgr ings
Ġalis ena
Ġven us
3 60
f un
f ac
Ġc andy
or in
Ġco st
Ġca c
qu ebra
Ġmo tor
Ġpro cachos
Ġso ya
Ġne gra
Ġlimp ano
Ġcor y
rel vazon
Ġwhe els
Ġsobrem esa
Ġume de
Ġtrit urado
Ġmasca vo
Ġfuz e
b tl
c in
c ta
Ġm ira
Ġre fei
ig ht
um id
ref il
Ġfr uti
Ġz or
Ġsab onete
Ġades ivo
Ġwhite n
Ġpul l
Ġacr il
Ġvern iz
Ġ064 66
Ġsensaco es
m ia
y am
Ġp orta
00 0
an ga
is abor
ro g
el ia
do so
Ġpa co
Ġso fruta
col om
tra ves
dr g
Ġgr ill
Ġmi kitos
Ġcomple te
Ġ2512 2
espat ula
cebol inha
Ġp u
es ter
or ig
ri ca
ga tos
Ġz in
Ġcas ca
Ġsc loro
Ġbe at
f v
m and
Ġ1 13
Ġt y
ve g
Ġ9 80
ce m
Ġdo hl
Ġne ck
Ġz ig
Ġlo ve
cal ha
Ġgold en
Ġap tamil
Ġref res
Ġcro issant
Ġfo od
Ġher me
Ġdeco rada
organ izador
Ġdohl er
m orta
p eito
Ġ ort
in se
an gos
Ġ7 9
Ġ12 50
Ġcon cha
Ġba u
Ġam anteig
Ġsan ilux
sha keira
Ġlo oney
Ġmulti graos
Ġcla y
Ġgran ola
Ġgre en
Ġcan eca
Ġtal her
Ġher bis
ex c
224 60
Ġmicrof ibra
Ġgib y
traves sa
morta dela
a reia
c lub
e p
l inha
Ġc n
er ge
Ġl pes
Ġg ul
Ġ4 10
Ġre fo
Ġmar i
Ġcho col
ap on
car vao
Ġlight ner
ban ho
les h
Ġfa ce
Ġmd m
Ġpod ero
char que
Ġren da
Ġunico r
calha u
s us
v h
ra ft
Ġ1 17
co u
Ġb ree
Ġt un
Ġo range
up y
az l
Ġ00 0
Ġ23 35
Ġna val
Ġja c
ten ys
Ġfruc tis
Ġsau da
Ġhel lo
Ġleg al
Ġretan gular
Ġpassar inho
Ġrestaura cao
h ol
n issin
te iro
Ġd onna
Ġf on
Ġn ao
Ġun i
id es
Ġde vas
Ġro b
Ġce ra
cu z
fo od
Ġcl ess
Ġsuper bom
Ġest ar
Ġ789 840
ph one
Ġfo co
Ġfamil y
Ġtrel oso
Ġantia de
2 11
c za
i che
el le
do wn
Ġma ion
gu ia
Ġmo ra
ica t
Ġbo u
que te
Ġ15 00
Ġ26 121
Ġfor ce
22 37
Ġtrip lo
19 7
Ġfo gao
mil nutri
Ġfi ren
Ġrev ital
Ġsauv ig
Ġfati ado
Ġroman ce
Ġpock et
090 64
Ġclay bom
1 60
g arraf
h f
Ġf ir
Ġn v
Ġre cem
Ġun ica
Ġpet s
Ġazul im
Ġce rat
cor n
Ġdi as
Ġemb al
Ġconcent rado
Ġprinc ip
Ġglos s
Ġrefei cao
Ġfiren ze
2 14
3 40
k s
o v
Ġl y
Ġco ral
mo rango
Ġsad io
Ġpri mo
Ġ19 24
Ġ41 40
icle ta
bic icleta
v or
in ario
Ġb t
ta z
Ġre fr
Ġcon nect
Ġto ast
Ġcar ro
Ġcla rif
Ġros quinha
Ġfla ne
Ġque ens
Ġpon ta
Ġdiv ella
Ġmer lot
elim inador
Ġfand angos
Ġaconche go
Ġqueens berry
c ina
al i
as a
Ġe feito
Ġte k
desinf et
Ġext reme
Ġgra d
Ġsil ic
Ġpar is
Ġpety bon
Ġtw ix
g rip
p ia
v ar
Ġf ib
Ġt l
Ġn ume
up o
li bri
Ġtra tam
Ġtri ang
Ġvi p
Ġflo re
Ġdes id
Ġsu kita
Ġsho w
Ġala d
Ġste vita
Ġpp ip
mara ti
Ġpeda cos
assen to
Ġqueij os
Ġcerat ti
9 1
Ġd in
Ġv em
et to
qu et
Ġk isabor
Ġi r
Ġse gre
Ġ10 4
fr on
13 2
Ġmas car
Ġcond ensado
Ġaco p
Ġur ban
Ġres erva
Ġbamb oo
Ġcin ti
tin ta
Ġmela m
Ġadoc yl
Ġfash ion
eri tivo
Ġhigi en
Ġtun es
Ġprincip io
Ġalad din
c ur
n at
r isque
v erm
Ġp inh
Ġl r
ti do
qu inoa
Ġ400 00
Ġper n
su la
pol p
ib re
Ġmaca da
Ġ18 5
Ġtur mal
Ġph ila
Ġhidrat ante
Ġhyd ra
Ġviscon t
Ġrico ta
Ġcontr ole
Ġnap s
achocola tado
Ġrosset s
Ġbetan in
fron ha
3 90
a caf
s s
Ġ1 35
Ġf ls
Ġf lesh
Ġt uri
en v
Ġre no
Ġre quei
go d
Ġ8 1
Ġver t
Ġ24 9
Ġsu ina
Ġabaca te
nes cau
207 64
Ġru bi
Ġdesn at
mor dedor
Ġbela gua
Ġov inha
Ġsn ick
Ġbalan ce
Ġdevas sa
acaf rao
Ġturi m
a ve
c umb
l li
Ġb s
as pirador
ch i
Ġre z
Ġma os
Ġo p
Ġba rata
gua ra
Ġsal mao
Ġda y
Ġgra p
pro cachos
Ġbu ono
Ġsand w
sho ul
Ġmultia cao
Ġbree ze
2 12
m uriel
s ten
Ġ er
ca do
ma do
Ġre la
Ġ6 13
ent ilha
Ġj olly
Ġj abo
ga dor
Ġes colar
Ġch ia
col chao
Ġra i
Ġra ris
Ġcrem osa
fr iskies
Ġita marati
Ġdi reto
Ġ37 4
Ġtur bo
Ġblu eb
colo rante
bar ba
Ġeq libri
Ġvin il
Ġflow pack
Ġabsol ut
Ġescu reto
Ġblo co
Ġodo res
Ġfis her
Ġ2595 6
Ġpull man
apon tador
Ġcinti lante
c enoura
p ei
y ok
er f
Ġt pa
Ġt upy
is c
ma g
Ġco b
Ġe quil
Ġo s
so da
Ġsab ao
les s
Ġshoy o
Ġbal de
Ġsani fect
Ġvap or
Ġnobre lli
Ġhamb urguer
Ġphil co
op u
bona to
aguard ente
orig em
Ġpodero sa
e k
h d
in der
al mo
Ġd us
Ġg luten
to ys
Ġcr u
Ġso da
Ġgo ias
no ff
ende dor
Ġoliv er
cons erva
cra vo
Ġ107 38
Ġcn z
Ġmacada mia
Ġsnick ers
cumb uca
l entilha
Ġm sc
ar r
Ġd agua
Ġt ul
ol i
Ġ5 30
ri c
Ġh or
Ġver b
Ġbr ut
24 5
Ġdi aria
remo v
23 9
72 9
Ġpc s
Ġfilhote s
Ġflu o
Ġment ol
Ġment hol
Ġbac free
bicar bonato
Ġlacto se
Ġzin co
Ġherme tico
1 15
2 80
i es
uc ho
ux i
fa queiro
sha ke
Ġita ma
gela dinho
fo gao
Ġme ta
frut ti
Ġmat te
Ġfin n
Ġsens it
Ġsuav ipan
Ġpel os
Ġrec eita
Ġvitamina da
Ġpero la
Ġtuc uxi
Ġplenit ud
Ġpapa guara
Ġluminos os
f tal
Ġc lo
Ġc li
Ġm ist
Ġd il
ent al
od yne
Ġpa p
Ġle o
Ġprote k
Ġme ul
Ġbas c
Ġhe ine
Ġtotal plast
cl s
Ġgla mo
cap sula
Ġclose up
Ġ05 320
Ġuniv er
Ġhidro cau
Ġsani fill
Ġprolon g
Ġspa g
Ġsty le
5 13
Ġc cabo
pa coca
Ġw ick
Ġra cas
Ġ15 5
Ġlimp p
rat us
Ġve rao
Ġext ratus
Ġgran d
ub bal
Ġfil tro
Ġdor o
Ġalcal ina
Ġsei vas
bate ria
cus cuz
Ġtoffe es
Ġheine ken
ubbal oo
g x
un g
Ġco q
Ġar ro
Ġr da
Ġvi go
Ġra c
Ġmulti ervas
ju da
Ġex pres
ban queta
Ġhi mala
Ġcan udo
Ġric lan
Ġlin dt
odor iz
Ġhero is
Ġfut ur
a j
c la
Ġ ucu
Ġa qu
Ġma tiza
Ġo il
res s
fa ce
Ġlo ok
Ġinte iro
Ġsp r
Ġvan tage
Ġfra mb
Ġkar sten
Ġnot ur
Ġov omaltine
Ġpeta la
Ġfreez er
almo fada
Ġdus ul
Ġglamo ur
Ġuniver sal
0 20
z ola
Ġm alha
re ver
Ġb one
ar t
es tojo
Ġ5 8
Ġx ad
Ġar is
ne w
Ġch antilly
Ġbo vina
Ġcor u
Ġur so
aba ca
Ġcoc eira
Ġdente s
Ġsto ck
sandu iche
Ġkello g
oriza do
Ġchocola tto
Ġrequei jao
Ġblueb erry
a v
c rema
Ġg ut
Ġv f
Ġco bert
Ġmar tin
Ġor qui
lu vas
Ġcl ick
Ġprem i
if icador
Ġcopo br
isque ti
Ġpil ot
Ġfazend inh
Ġlon go
Ġ29 36
Ġpor c
Ġprati k
Ġnugg et
Ġfutur inhos
0 9
k at
p ip
Ġc en
Ġb en
es sen
Ġt nt
Ġa tiva
Ġv r
Ġo timo
za m
Ġq d
Ġ0 7
Ġbo tan
Ġcrem o
olo g
iss i
Ġgran el
Ġpol vilho
Ġnatural s
Ġcan inha
Ġtal heres
Ġta ca
Ġbel la
Ġpos s
Ġbarbe ar
Ġmarr on
Ġder macyd
Ġig el
Ġb eij
al cap
Ġf ig
Ġt i
ro ondas
ti da
Ġpo lar
Ġk ais
Ġsup ra
24 7
Ġda juda
cor da
ale ta
Ġvir g
Ġele gan
ni vea
Ġavul sa
Ġza eli
Ġpin tad
Ġesm alte
Ġkais er
c io
m r
m os
Ġc ut
Ġs f
re do
Ġt ac
Ġ5 10
Ġg ig
Ġla ger
con cha
li q
Ġr c
Ġqu er
Ġbr on
Ġlo cao
Ġpe p
Ġbio crema
ff us
Ġfree taz
Ġpresto barba
Ġtaran t
tl c
Ġbic ho
Ġgri ffus
Ġmaion ese
Ġrez ende
f one
te ns
es cond
Ġco quetel
con ha
ac ti
mo use
dor i
Ġ26 270
Ġle co
Ġbi an
Ġ16 8
Ġpres s
ven ti
pp er
Ġpass as
ni ely
Ġalg as
Ġ414 15
bola cha
Ġprinces as
bro colis
Ġkera for
Ġpredile cta
Ġanim al
Ġdesama rela
Ġitama raty
b and
Ġc rip
Ġm esc
Ġd enta
Ġd oll
Ġ4 12
Ġco unt
Ġ200 0
Ġ8 6
Ġk ara
Ġo ur
ce bola
na ftal
ale crim
ard i
Ġpast ina
del ph
bl z
gato rade
Ġ2575 9
sem ente
Ġmeul iso
conha que
Ġcrip pa
naftal ina
5 7
Ġc inz
Ġm it
co rante
es te
Ġa pa
Ġv ent
Ġma zola
os h
Ġ6 30
Ġr l
Ġr isca
Ġcar r
Ġan e
Ġaz u
Ġ0 3
Ġita colom
26 7
200 0
Ġpri ce
iza do
Ġsos al
Ġ2626 6
Ġcp imenta
Ġfer ro
ess eiro
aroma tiz
pes sego
cast anha
Ġspe cial
para dor
sandu ich
inse ticida
Ġhidrocau teri
Ġhimala ia
abaca xi
acti via
c z
j os
l v
s uc
Ġc i
Ġs i
Ġb g
Ġf ral
Ġca ixa
Ġo ft
Ġal fa
Ġcr uso
Ġso brecoxa
Ġsal va
ros q
Ġum ida
Ġvita minas
Ġ14 9
Ġref inado
Ġen cor
Ġsil ver
Ġacti gen
Ġpow e
Ġtr u
Ġbor ges
Ġdoura do
Ġtrans pa
Ġitali ano
Ġdescar ta
fac il
Ġucu uba
Ġcruso e
3 95
r sa
ma izena
ab sorv
ch antilly
Ġk ro
Ġo ggi
Ġ7 1
Ġcas eira
Ġmon te
Ġbran q
esp uma
Ġsp lash
Ġoet ke
Ġimp ac
Ġmag ica
Ġfa ixa
Ġbis n
Ġiso por
Ġmaster food
fi ar
Ġembal ixo
venti lador
f anta
g old
Ġc y
co es
Ġg ole
ri te
ti f
Ġco raco
Ġin ti
ina da
Ġcho k
Ġnut ren
Ġmor ban
18 5
Ġlam in
Ġpar me
Ġbal d
conj unto
Ġpela g
Ġct p
Ġind ia
Ġlan che
Ġser ig
Ġrodabr il
emp anado
Ġvia gem
elas tico
Ġzor ba
Ġclarif y
239 66
Ġkerafor ce
sanduich eira
c rem
Ġ is
Ġp ura
Ġ4 40
Ġre st
pe pino
ne ta
Ġpet isco
Ġsan r
ao x
tan a
Ġat h
Ġcp im
Ġurb ano
pul ver
Ġcord eiro
Ġmole que
Ġkick s
Ġpern il
Ġverb ena
essen cia
Ġitacolom y
h al
Ġp lan
Ġm old
al ca
Ġf g
ma is
ti x
Ġcon ch
Ġto v
Ġcar ros
Ġy pioca
gg s
Ġ00 1
ras hock
Ġ2626 4
Ġsens odyne
Ġ11 132
gi ana
Ġsti ck
hal ls
h eira
r on
s imo
t orta
w he
ra lador
re na
Ġa tiv
Ġ8 2
Ġnat ura
Ġch ick
Ġu d
Ġman j
Ġdes f
Ġdes od
Ġprote c
Ġgal io
Ġmag ico
Ġsli p
Ġdura sol
Ġrecon s
Ġbal sa
Ġbul b
Ġdelic ias
Ġran cheiro
Ġwhiten ing
Ġsauda vel
Ġflane lado
Ġphila delph
Ġjabo ran
Ġrai ol
t te
Ġm x
te soura
Ġma iz
Ġ8 3
Ġi pa
Ġgo t
Ġter rano
Ġen la
Ġfran ces
Ġpron ta
Ġhy dr
Ġmi olo
Ġva ca
Ġcanela da
Ġcueca s
Ġ1764890 8
Ġus b
Ġanima dos
Ġherbis simo
Ġbuono gel
alcap arra
c ido
t ort
Ġc ria
Ġs le
Ġd ux
Ġl ei
to ma
ran t
qu inho
ba k
li v
Ġpe pper
ant isseptico
Ġ16 7
Ġbom b
Ġhig h
cader neta
Ġ38 5
Ġ39 7
Ġsec ante
Ġsec reta
Ġjumb ito
Ġsams ung
Ġamo re
Ġtil ib
Ġsed uc
geng ibre
Ġbast onete
Ġtratam ento
Ġgalio tto
Ġc ub
Ġp ula
Ġs et
Ġre ga
ja do
Ġ9 2
Ġdo u
Ġar to
Ġpa u
mo fo
Ġclass ica
Ġsab o
Ġsu i
Ġbrin orte
Ġpow der
Ġhar mon
mm x
caro co
Ġza g
Ġth or
Ġfixa dor
Ġ26113 24
Ġcount ry
b ig
k y
l p
u cao
v it
Ġ1 18
Ġs nack
an inha
al v
Ġt orr
ma bel
ri co
go m
Ġi z
le te
Ġro cks
Ġsa p
Ġpro m
Ġam ig
ac endedor
Ġaz e
so form
Ġso pa
Ġflo co
Ġad v
Ġbl ister
16 8
Ġest r
Ġfran g
Ġgd c
Ġbra z
Ġsha k
Ġpass ion
Ġnor des
bro ca
Ġsus tain
Ġmm us
Ġgam my
prati ce
Ġcore ton
Ġ isca
Ġm ho
co ok
Ġl ombo
Ġg ord
Ġ4 73
us s
Ġk u
Ġ7 3
Ġ6 50
Ġx tra
Ġmo ana
Ġ10 8
10 7
Ġra jado
Ġ26 13
Ġbio soft
gur te
Ġtres p
tor n
Ġsor v
Ġ19 25
Ġfri zz
Ġnu tella
Ġva ral
Ġtos can
uel le
Ġyo gurte
perf ume
pren d
Ġcris ps
Ġchal ise
Ġrig ida
abri dor
Ġturmal ina
Ġfluo resc
Ġelegan ce
c ion
Ġm anda
Ġm uri
Ġs sal
re c
Ġa ti
Ġli ke
Ġla g
Ġe v
Ġal god
sab on
mo edor
Ġbo las
Ġbaby sec
Ġ15 2
Ġpre t
mar m
Ġ26 29
Ġsp rite
Ġho tel
man jericao
Ġmol dado
Ġmag n
Ġcro st
Ġtemp eros
Ġgala k
Ġcaram el
220 8
Ġ2512 2208
Ġsimp les
Ġrefo g
Ġrevital y
Ġ2629 92
d ina
f lex
j ita
m eio
p alha
t p
t u
Ġp m
Ġf t
Ġun ivers
Ġk id
Ġi p
va da
ba un
Ġpro bak
Ġy ok
Ġ10 10
Ġte lado
24 6
Ġcor te
ci f
desodor iz
mil k
Ġrap ido
Ġinvic to
Ġfas es
sun ga
Ġpip icat
Ġdiver toys
cou ve
ov omaltine
Ġtoscan a
0 3
4 1
f inal
Ġ #
Ġs mil
Ġde tefon
Ġj ol
Ġcar doso
dor o
Ġbo h
pol o
Ġcab as
Ġinteg ra
Ġsp imenta
Ġcomp l
Ġfa cas
Ġflamb oy
Ġav es
Ġlon ga
Ġredon do
Ġlil lo
Ġ111 84
Ġreconstr utor
fru it
Ġchick en
b urg
s kar
Ġc is
Ġp up
Ġp neu
al face
el lo
Ġv im
as s
Ġe uro
Ġpo t
ral d
Ġsa mb
Ġw ish
Ġcar bon
Ġsal s
Ġz ip
24 8
me x
Ġanti quebra
Ġgran ulado
Ġsp id
Ġpei x
wa f
zz i
Ġtw ister
Ġnor mal
Ġoff ice
Ġmama d
Ġfel icia
Ġge ral
Ġwhe y
Ġkello ggs
Ġguaran i
Ġspag h
Ġmatiza dor
Ġtresp lex
9 95
m en
an he
Ġd ream
Ġf uc
ic lo
Ġ8 80
Ġk ing
Ġmo id
Ġw e
Ġcar in
ac uc
fo go
Ġsp erf
Ġinst ant
car r
lan t
Ġbas tao
Ġpla y
Ġque rat
Ġroup inha
Ġfri ta
Ġprima v
207 95
flo res
Ġcarrefo u
Ġsant ist
Ġpur ile
pin ca
Ġaliv io
Ġ789840 995
Ġdil u
Ġcrost ini
Ġfuc sia
3 34
4 20
n est
p m
r inha
Ġp udim
re par
Ġli xa
Ġin s
Ġh d
Ġh olly
ut h
Ġal te
Ġba calhau
Ġpa gua
Ġbo ca
Ġreg ene
Ġme g
no vex
Ġflor mel
Ġsoft hair
Ġpes s
Ġbel eza
Ġeuc al
Ġsur p
Ġpon jita
Ġgar lic
Ġessen c
Ġinter no
pla y
213 64
Ġmarm orizado
Ġchal esco
multi uso
Ġform ig
Ġinc ri
Ġsard inha
Ġpad re
Ġarto is
nest le
f ps
in aria
te ra
al g
al yne
Ġf lan
ch ia
Ġma la
Ġma val
Ġk na
Ġ9 50
li m
20 75
Ġaz eit
Ġman g
Ġdes colorante
Ġanti ad
Ġ23 180
Ġst r
Ġme x
Ġped al
gelat ines
Ġpop corn
Ġnac ho
Ġbor do
Ġsun down
Ġcebol itos
Ġnume ral
Ġkna uf
1 90
f lu
k ol
z ol
Ġd ip
Ġl d
un ga
Ġli ri
qu in
mac ar
Ġr n
mo ela
Ġch up
sal sa
pol v
Ġz um
Ġpri me
Ġcan jica
17 3
fruta s
Ġton al
Ġbat man
Ġfixa d
Ġoi kos
Ġsilv estre
esprem edor
Ġfinal iz
Ġrela x
aj inomoto
Ġboh em
f ra
i ar
Ġl uto
Ġa k
Ġg ille
mp ers
el seve
Ġli p
Ġro u
gu eira
40 8
Ġmar t
Ġsa co
20 197
Ġnat us
Ġam e
Ġ00 0000
Ġ15 7
pel e
Ġel gin
Ġcap ic
Ġap p
Ġgu fs
Ġ19 2
rante la
Ġsport s
Ġant isseptico
77 7
Ġsand y
Ġof ic
Ġ789600 400
Ġbond uelle
Ġpeps ico
du eto
pet isco
Ġenx uta
Ġbian co
Ġluto sa
w nie
Ġc ort
ra dor
ta pioca
Ġpo pp
de fri
Ġk inder
im e
Ġsan to
Ġsup re
ad inho
me ra
Ġpe g
bom ba
Ġlig h
Ġhidra derm
ph l
Ġfer t
Ġfortale c
tc el
Ġfru tos
Ġsel ene
blo q
bas e
Ġbotan ical
Ġsle ek
Ġcis per
Ġzum bi
o c
o ral
s er
Ġ *(
Ġp lu
Ġp dc
Ġb re
Ġa mp
Ġn y
Ġg eng
Ġca ca
Ġla ys
pa mpers
Ġk orin
po mada
ce dor
Ġto ma
Ġ10 80
10 5
Ġ0 8
fil m
Ġhig el
man j
Ġterm ico
Ġfo rever
Ġher c
Ġviol et
qui k
Ġgerm ania
nugg et
Ġ789610 250
pei xe
Ġkara m
Ġserig y
Ġplan et
Ġjaboran di
f ite
l um
u i
z i
Ġc coco
te a
al ic
Ġt v
Ġa via
Ġg erg
ma q
Ġla mb
Ġo pal
Ġ7 40
Ġ9 75
Ġper fe
mo to
ica te
for te
Ġho use
bi qu
Ġniely gold
Ġta ua
Ġsk in
Ġpur p
sk ol
Ġio dado
Ġ2318 34
culo us
desentup idor
Ġmira culous
Ġpep pa
Ġdesamarela dor
Ġpowe rade
Ġenla ce
Ġjol ie
Ġliri os
defri z
0 6
2 38
b os
b oni
b ody
p y
p ure
r u
s id
w i
Ġ ]
Ġc b
re et
Ġd ta
Ġt f
Ġre for
Ġ6 2
Ġde z
Ġsa m
Ġcar tela
Ġ10 20
Ġsup e
Ġmon t
Ġad l
Ġdel i
Ġpira s
26 9
man ta
Ġnutri bom
Ġacti v
Ġgla cial
Ġsorti das
Ġric ino
Ġinten cion
Ġcopa col
ger gelim
liquid ificador
Ġbiqu ini
Ġpolen guinho
Ġgosto so
linha ca
desinfet an
pulver izador
Ġbotanical s
Ġavia cao
1 75
3 80
a jax
b y
e co
h s
o i
z o
Ġp te
Ġf rig
ca va
ti cu
go la
Ġto y
Ġan jo
Ġam s
Ġbo ta
Ġce c
Ġel em
Ġlo real
ge bau
cor tador
tan g
Ġen ri
Ġen can
Ġnutri kids
Ġna ta
Ġna uti
Ġ789 107
zz y
Ġdef ini
Ġtam ar
Ġcer veja
Ġbu zzy
Ġkar u
pis cina
210 40
Ġtil ia
Ġmer he
Ġvar re
Ġ2575 92
Ġneu gebau
Ġunicor n
Ġsegre do
suc r
Ġdescarta vel
Ġharmon ia
Ġflamboy ant
Ġbohem ia
Ġneugebau er
d if
r um
Ġc ped
00 68
al icate
Ġl q
Ġl uc
en ol
Ġg lt
Ġre ta
Ġca ustica
Ġj alo
ne ut
Ġch u
Ġra la
24 173
Ġprote in
fei rinha
mon ange
Ġex o
Ġpamp e
Ġbis cro
Ġespe c
Ġste el
ves tido
Ġpaco tao
Ġbeat s
Ġcub os
Ġmerhe je
b ucha
m ico
o pus
t orr
Ġm f
Ġm es
Ġg ol
ri ch
da de
Ġca ra
Ġca pa
Ġca icara
Ġro ger
Ġal ten
Ġse last
Ġsa la
12 9
Ġsup ino
Ġcamp os
Ġac etona
Ġ23 7
22 8
89 9
Ġen erge
iza da
erg ine
Ġkib e
assa mi
Ġsur pre
Ġtoddy nho
lapis eira
Ġassad ur
cura tivo
Ġgir l
Ġnab ra
mand ioca
Ġcoraco e
Ġincri veis
biqu ini
Ġalten burg
b ran
m x
Ġp elo
Ġs ut
Ġs int
Ġs coxa
is ten
Ġn az
Ġh w
Ġk ap
pan ett
pe gador
Ġan ive
mb inho
Ġu hd
Ġte tra
ir noff
Ġcas ar
Ġlo c
Ġlo iro
Ġbl on
tel l
Ġacti g
bol sa
Ġfac ial
Ġchur ras
Ġvital iv
Ġcresc imento
Ġsno b
Ġpeta las
Ġbos co
211 19
cur ry
Ġorqui dea
escond id
Ġfral da
Ġmonte v
Ġconch inha
Ġholly w
Ġgille te
Ġapp le
sid ra
Ġbota fogo
Ġpampe ano
Ġnaz ca
panett one
9 94
e ve
f ol
m je
Ġ1 32
Ġ3 65
Ġg lo
Ġv ina
Ġla fruit
Ġpo osh
it u
Ġmar f
ter ra
Ġpro g
12 6
Ġra q
Ġra iola
Ġmul her
Ġce res
Ġac id
can ji
Ġfrut gurt
Ġja ks
Ġta pe
Ġsens ivel
Ġhy pe
Ġste ak
Ġind iv
Ġsm irnoff
Ġlan ch
Ġwom an
pr c
Ġfati ada
Ġ26307 249
Ġcremos issimo
Ġantiade rente
Ġbone ca
Ġxad rez
uss ie
2 16
f rog
u co
Ġm g
00 6
Ġt as
ho t
Ġ4 7
Ġco mb
Ġco ffe
Ġpo me
Ġo pen
le o
Ġal terna
Ġes cr
Ġba tom
Ġ300 0
Ġflo ra
am onia
Ġsal gada
Ġfor c
22 267
Ġex per
Ġbolo g
Ġbig lux
Ġdef uma
Ġorgan ic
Ġpast ilha
Ġtam ba
Ġjumb itos
Ġskar l
Ġki wi
Ġrefresc ante
Ġdob ra
Ġseduc tion
Ġsmil es
Ġpup unha
Ġtamar indo
Ġjaks pel
l r
l it
al w
Ġf enda
Ġn issi
Ġo ba
Ġba lala
20 35
Ġam elia
Ġhid rashock
Ġmara catu
24 4
cho co
Ġfres ca
vina g
Ġdu al
Ġaca ju
Ġceram ica
Ġceram ida
Ġbul bo
Ġlouca s
Ġii i
Ġdeco ra
Ġtren d
Ġvap za
Ġstar t
Ġquin ta
Ġrodabr isa
Ġtec idos
Ġcitri co
Ġour ol
Ġaze do
Ġunicorn io
d dy
f lan
k id
p rat
u g
z es
Ġc lor
Ġp festa
Ġm ta
an il
Ġd as
Ġa f
Ġa u
Ġn g
ri cho
da ys
Ġco ra
Ġh ipo
ic s
Ġi days
Ġtra v
Ġper ini
Ġvi va
Ġno ra
Ġlimp am
Ġdes en
Ġdes col
Ġdes fiar
aro pe
Ġbi olog
200 51
Ġas sol
Ġ28 8
Ġfa vor
Ġsens es
37 3
Ġger gelim
Ġbor b
Ġfest color
Ġgat ilho
Ġdeco rado
Ġdelica do
sun unga
para f
Ġcebol inha
Ġcremo gema
Ġane y
Ġpiras sununga
Ġnabra sa
Ġkap richo
escondid inho
Ġceres er
Ġtamba qui
b en
b li
c y
s tix
v de
Ġp ion
Ġp ana
Ġ3 15
to ddy
Ġre co
Ġro ck
Ġsa ud
Ġtri bos
Ġq b
Ġne wafer
ing er
Ġst reet
Ġgra va
ap eritivo
26 5
Ġcle a
Ġap er
Ġsen n
Ġbol inha
Ġfac cio
Ġtemp e
Ġfer ram
Ġcapri che
Ġquim ico
par f
par ica
Ġreche adinho
Ġser ra
Ġjard im
Ġmama deira
chur ras
Ġand or
Ġacop lada
Ġdenta stix
Ġalfa parf
Ġhydr us
Ġsabo res
Ġlimpam ania
7 66
b ras
te ro
on as
Ġr iso
Ġw ine
Ġw ip
so bre
az ul
Ġlt s
Ġra iz
Ġce last
Ġfor n
Ġita parica
Ġda il
bo ra
Ġban a
for ra
Ġ16 4
Ġref i
Ġbio prati
11 9
Ġbas ica
Ġsen se
Ġlar g
Ġgla ce
Ġbis c
Ġfanta s
Ġsk ilhos
Ġintens ive
Ġada ms
Ġcalc io
Ġae rada
Ġana tom
Ġath le
Ġfrances as
Ġams tel
2 15
5 9
d l
p l
t pa
y u
ra b
Ġm y
Ġm na
ar om
Ġd im
is ol
un da
Ġco dor
Ġe mol
le vo
Ġde mera
Ġro m
ba ud
ce vada
Ġpa coca
Ġu v
am ar
Ġel is
Ġdi ar
ard en
tan ia
Ġpra tic
car t
Ġbl end
ban co
Ġfla men
Ġfle xi
Ġcra c
Ġhidra kids
Ġ2626 8
37 6
bril h
nut ren
form ula
urg er
til la
Ġfi esta
Ġcache ado
Ġmicrof ib
Ġseg unda
Ġcompac ta
Ġsele cao
Ġnesto geno
Ġgrap ette
Ġexo tic
Ġmontev ergine
canji quinha
Ġflamen go
a ves
s as
in son
Ġ1 39
Ġm s
00 67
al y
Ġd t
Ġd ivers
on go
Ġa ussie
Ġn n
as h
Ġco ok
ig es
Ġr ua
Ġfr on
Ġplas new
Ġtri color
ona da
Ġch ica
Ġman ia
Ġita ip
Ġperf ume
Ġcor ona
ka po
Ġpol y
Ġpol ido
Ġvita kid
Ġbas ico
18 8
Ġextra toma
Ġbaun i
Ġtab l
Ġfar m
Ġprima f
Ġinten se
Ġassa do
vi oli
almon d
odor o
chur rasco
Ġalte mb
Ġmaval er
Ġdail y
Ġemol d
Ġextratoma to
r us
s an
s ka
u de
Ġ5 70
ti g
ch er
Ġh orta
ic ure
lo uro
Ġj b
Ġpa raty
20 1
za cao
Ġsan f
mas co
ant ar
Ġho me
Ġneut ra
Ġhu g
Ġpla tin
vas s
Ġcarm ene
Ġeuc alip
Ġsha m
cle ar
pres erva
Ġfacil ita
Ġdul eve
Ġbrasil eiro
Ġbroch ura
Ġpequ ena
2480 4
Ġpintad inha
sucr ilhos
Ġfavor ita
Ġanatom ica
a ce
x arope
Ġc ica
re d
co pa
al ways
do m
Ġ8 40
id i
cond im
Ġ30 5
Ġch icle
Ġpet br
Ġso bre
Ġlav ar
pel l
Ġpe ar
Ġad van
che f
Ġsu fla
bi er
Ġcola geno
Ġha rald
ces s
Ġval sa
Ġja de
vas o
Ġfri bo
Ġgua ma
Ġ41 15
Ġpero lado
Ġnapol es
Ġbrig itta
Ġprofun do
Ġalma den
Ġcorpo ral
Ġfura dinho
Ġfamil ia
Ġdra gao
Ġber tin
Ġvas enol
Ġcabern et
Ġjac qu
Ġbou q
Ġmesc la
Ġspagh etti
Ġofic io
Ġaltemb urg
g ena
i de
Ġc tampa
Ġp olo
Ġs in
Ġs assami
re don
Ġf ta
Ġf ita
ta gen
Ġg rf
ma rata
ve t
ul ha
Ġal m
Ġj antar
Ġmar colar
Ġ20 5
Ġte ch
pol idor
Ġgal i
Ġgel eia
Ġlux car
Ġbet ty
uca s
Ġ19 4
Ġfar inha
Ġfri to
Ġwaf fer
Ġsha pe
Ġforte s
Ġpela do
Ġtd cacho
cobert ura
tri dent
Ġed w
Ġchand elle
Ġ2318 24
Ġrepel ex
Ġsensa cao
Ġexpres s
Ġcoru ja
Ġwip es
Ġcodor na
Ġcarmene re
Ġfribo i
0 4
2 60
c id
m is
Ġ /
Ġc c
Ġm ona
ar co
Ġl or
ol ina
Ġli tt
Ġla tte
Ġpo a
Ġk raft
Ġro deo
Ġmar sala
ne c
Ġba ilar
Ġplas ut
ante na
80 5
Ġmin ua
Ġmin ios
Ġz o
Ġno zes
can inha
tal her
Ġbl d
Ġfa ca
ub es
cap ili
rel ho
Ġtemp o
207 80
207 66
Ġmicro ondas
Ġesfre gao
Ġru v
Ġgraf ite
Ġ2566 2237
Ġfina flor
sobrem esa
desodo rant
Ġ78 1
02 899
Ġhero i
Ġinfan cia
fv l
ric lan
Ġmeta is
Ġfig u
Ġtranspa rente
Ġunivers ita
Ġchup eta
Ġperfe x
Ġbioprati ka
Ġdemera ra
Ġmavaler io
Ġlitt le
l is
p uro
Ġp urif
in j
Ġs ole
re re
Ġb urger
ch and
Ġli mon
Ġre vi
Ġma qu
ic ante
Ġk ell
Ġi ra
Ġ6 80
li z
Ġam ante
mo uth
Ġso ul
Ġbo i
que ja
Ġgo la
Ġgo ody
Ġperf ei
22 7
ara o
Ġsu ico
Ġpes ca
Ġcot onete
Ġpety b
Ġsau de
ders il
Ġpromo c
Ġball ena
Ġvo tiva
225 22
Ġmelam ina
Ġhigien ico
Ġvr m
Ġtru fa
Ġparme giana
Ġphiladelph ia
Ġopal ine
Ġcec co
Ġexper t
Ġourol ux
Ġrevi go
e ar
k iss
l uc
r il
t ino
an ce
ca ch
Ġg abo
da fruta
Ġli ber
Ġin se
Ġca dersil
Ġo gx
gu itos
ce d
Ġdo guitos
Ġcas arao
Ġcab ides
Ġbom bona
ya k
man gueira
Ġsta ges
Ġice kiss
ez inho
Ġat las
ver mouth
cot t
Ġultra grip
Ġon ix
pap rica
Ġten t
68 3
Ġmaster chef
Ġpica do
cura t
Ġperfum es
Ġop tim
Ġtul um
torn eira
itu fo
Ġtape re
Ġpesca dos
3 25
5 50
d isco
i ti
t res
Ġ iogurte
Ġp chur
Ġm ina
Ġm no
ca ca
Ġa w
ho m
Ġv illa
Ġco pra
Ġh ul
las s
Ġal u
ent ro
Ġar mado
Ġpro ces
Ġcar queja
em ba
Ġnest l
Ġinf in
Ġcab ra
Ġ23 5
Ġbri tania
bol eira
Ġminu eto
23 901
Ġsem ides
Ġcolo rado
Ġlem b
Ġauto ma
chicle te
Ġke ratina
Ġsca mpo
cab elo
Ġcerej eira
2480 2
Ġmuri ongo
Ġdivers as
Ġsufla ir
Ġgoody ear
Ġperfei tos
Ġhul k
k alipto
k raft
m hs
Ġs y
Ġs mo
co q
Ġb izz
Ġd yn
Ġl inh
Ġl upo
ro gon
Ġ5 11
Ġ5 84
Ġv ps
Ġma car
Ġun id
ul i
Ġ12 4
ce pt
Ġr us
Ġcar to
Ġcar fgo
Ġnat hor
Ġan os
10 8
am ic
ip last
pol is
Ġlo go
24 185
ras teira
Ġac uc
Ġcor n
Ġbran cos
Ġ23 6
ing les
Ġgal inh
Ġum ido
11 7
Ġbras f
Ġtex as
Ġur s
Ġdura max
Ġminho ca
Ġvital on
Ġsun less
Ġdelica te
Ġenx u
Ġedw iges
8 7
d ucha
e go
re gua
te kitos
ar ro
es fre
Ġa pol
Ġg lu
el ho
el ha
Ġco vos
Ġca f
Ġ7 77
Ġmar guer
pe x
Ġmo p
Ġto ys
Ġcar re
Ġch ina
Ġpt g
Ġsal gad
Ġext rema
Ġanti car
far inh
Ġcal oi
Ġneut r
Ġsu eco
ban aninha
pas tel
Ġtur qu
Ġgu ard
ten ol
ten is
Ġsem ente
Ġbrot her
Ġfranc esa
Ġceb o
207 00
ret in
Ġbor racha
Ġlist ra
Ġnoite s
pla fon
Ġutil e
bas a
Ġviole ter
Ġcole ction
Ġdesid rata
Ġnotur no
Ġdefini cao
Ġvina gre
Ġdobra vel
Ġgrava ta
Ġathle tic
Ġflexi veis
Ġbailar ina
3 30
i ka
l ombo
Ġd y
ro sa
ul iz
inha o
Ġmar in
Ġcol her
Ġqu art
za veia
Ġ25 99
80 7
Ġch ant
az ol
Ġ33 38
ura s
leite ira
gg ing
uro s
Ġcho kito
Ġbon sabor
ite l
Ġum d
ven al
Ġferm ix
Ġpar mala
Ġnature l
Ġta rantela
Ġcu ticu
Ġmand io
mm d
Ġemb or
Ġfanta sy
Ġav ei
Ġfl m
Ġfl ics
Ġbro wnie
Ġbamb uliz
ret t
Ġ413 7
Ġfest inha
Ġcapp uccino
Ġprolon gada
Ġfus ion
Ġlil ica
Ġsele ct
Ġfon dor
Ġpinh eiro
Ġequil ib
Ġarro zaveia
Ġgig ante
Ġdilu ido
amonia co
Ġbiolog ico
Ġtapere ba
Ġdyn amic
Ġparmala t
1 12
9 7
f en
Ġc ilin
Ġp ene
re ch
re gu
Ġb iv
er ra
Ġf ol
ro la
el e
ch ip
Ġli der
do c
Ġma q
Ġca i
Ġ8 70
ja ma
Ġo d
os uco
Ġj upo
Ġtra ma
Ġw al
Ġcar s
Ġqu inoa
Ġnat ucar
Ġy osuco
80 24
Ġbo jo
iz e
iso tonico
Ġni tero
erm ic
Ġban an
Ġbet t
Ġgu ia
Ġfat or
23 6
Ġbov ino
gra mpo
Ġtor rada
Ġbro c
Ġhyd ro
Ġore g
Ġju mp
Ġ05 766
pi jama
Ġtrans icao
Ġimper ial
ag ne
Ġmos ca
Ġemp il
Ġ2512 2237
Ġcres po
Ġfel ina
Ġ112 14
short s
sk ilhos
pul gas
trav esseiro
Ġextraord inario
Ġilum inado
Ġsamb ol
flores tal
Ġregene rador
Ġmarf im
Ġsenn inha
Ġplatin um
Ġquart z
Ġjupo ca
Ġnitero i
" "
4 12
a ch
l ei
p ur
p ers
u sa
Ġm iss
Ġs po
Ġs xg
al sa
Ġd os
Ġn et
Ġn ino
ma ta
qu ita
Ġk c
con azol
om o
Ġj erry
Ġes s
Ġar gola
Ġy ang
Ġ30 22
Ġ25 373
10 6
so y
Ġsan gue
erm an
ap er
ada pt
sb p
Ġsonho s
Ġant isse
Ġpom odoro
Ġcasa redo
Ġbu fa
Ġamer ica
brin que
Ġ114 31
Ġpor to
rex ona
Ġtin indo
Ġyo pro
lav anda
Ġgas p
Ġesfol iante
Ġnas al
Ġcur to
Ġamanteig ado
aromatiz ante
Ġmasterfood s
Ġbalsa mico
carr inho
Ġenerge tica
Ġ2599 22
b ubbaloo
d z
g us
g ord
h inha
k t
m ts
p ipo
r l
s ua
t h
un has
et inho
us h
ba c
Ġj eito
Ġtra pi
im ent
Ġcon gela
Ġw ar
Ġcar caca
mo ch
Ġso ur
Ġso br
se pt
Ġu g
Ġfor rada
Ġgo ela
Ġpl ut
Ġprote ina
fei j
ite iro
Ġsu bli
Ġesp on
Ġpar tida
Ġbrin car
Ġcoz ido
Ġtr uf
Ġaca f
bon s
Ġvol ume
Ġfruit s
Ġviole tera
Ġlu sa
Ġus ual
Ġtoffe e
Ġshamp oo
Ġrob inson
Ġfir m
Ġnordes te
Ġ000000 0000
Ġenri q
Ġpion eiro
Ġruv olo
Ġbufa la
Ġtrapi che
Ġsubli me
1 14
5 20
a x
d p
m aleta
p it
z za
Ġp mg
Ġs che
re de
Ġd uc
Ġd isqueti
Ġl p
Ġf ro
Ġn w
Ġn ho
Ġg i
Ġ4 15
Ġli z
Ġre na
Ġe ure
sa ca
Ġo as
Ġro do
Ġal t
Ġj on
Ġmar ga
20 805
Ġbr s
Ġso f
Ġso vex
12 8
Ġcas tell
hav el
24 777
Ġac inz
Ġdi ab
for no
Ġbi ol
Ġros ina
Ġcal cool
ya ma
Ġjo y
mon d
Ġmaca canela
Ġnutri milk
Ġha ppy
Ġesc ur
Ġtur b
Ġcam elia
Ġ28 00
Ġpla var
Ġquad rada
Ġtar t
Ġpente s
Ġmaster f
bio color
213 12
Ġvar ie
Ġcul inario
Ġfreez ermic
dis p
Ġvent isol
marm ita
skar loff
Ġ880 3
Ġbalala ika
Ġpana doro
Ġrua h
Ġrevigo rante
rogon off
Ġempil havel
Ġacaf rao
Ġfreezermic roondas
f ini
g luten
h u
w er
Ġc j
Ġc leite
Ġc hav
Ġm im
Ġb eira
te na
Ġd c
ch ant
Ġe va
sa q
ur ri
ole te
10 3
10 56
se v
Ġvi b
Ġte xt
Ġac cept
Ġperf sens
veja do
iss ima
Ġpol ip
alha da
Ġmarco boni
Ġfla min
Ġespa gu
Ġtex to
isa ge
Ġgr il
tiva pet
form inha
Ġsk y
Ġska fe
Ġast ral
Ġtort inha
Ġtrop ica
Ġcarn leg
Ġyo u
ag enda
Ġprolon gado
Ġcompac to
Ġabsol uto
Ġcolle ction
Ġtub es
head phone
garraf ao
Ġvigo flex
av isten
Ġiz abel
Ġku ka
mex edor
Ġiluminado ra
Ġyang zi
Ġoas is
Ġmarga rett
avisten se
m ento
u mao
y nho
ra violi
Ġm em
an ina
Ġb isco
Ġt s
ca mp
Ġ4 75
ch im
Ġli lac
Ġco ck
Ġin basa
Ġla ra
Ġe las
Ġal vejado
Ġj ur
Ġse mol
Ġch uva
Ġsan dela
az ei
Ġz r
Ġpre p
Ġel bis
Ġad pt
Ġbril lo
Ġdan ny
Ġ16 3
Ġwh i
Ġum bu
Ġoet k
Ġcl in
Ġgre g
Ġsu go
Ġen v
Ġnutri tivo
Ġ789 8024
pres unto
Ġgar ib
Ġflu ff
Ġrec up
bar b
prote ina
Ġvol umao
Ġyo gurt
Ġliqu ida
Ġber inj
Ġpurile v
Ġnatus abor
Ġbiscro ck
Ġmona ma
Ġfigu eira
esfre gao
hu ggies
c b
c lor
g d
g at
l on
p ink
r iso
z er
Ġp int
Ġp isa
ra das
Ġb ubbaloo
Ġl f
Ġl us
Ġa tena
Ġli b
Ġco me
Ġla go
las an
de ter
le d
Ġsa int
Ġsa fa
Ġmo od
Ġto ur
xa ua
Ġan ten
Ġver me
se p
Ġno w
Ġac et
90 5
pra zol
ib e
Ġgra ph
ida des
pic les
Ġrad ian
qj s
cam inhao
Ġtu xaua
Ġlum i
Ġchar ge
78 8
com ed
Ġchoco ok
Ġtos cano
Ġmod elo
Ġmod if
Ġsolt issimo
208 70
Ġsei va
Ġond ul
Ġreconstr ucao
Ġcolle c
Ġgir ls
Ġty re
Ġly soform
Ġgrad ua
mos t
Ġdefuma da
Ġskarl loff
Ġferram enta
Ġgabo ardi
tres emme
brinque do
Ġgarib al
3 500
c en
e ti
f u
u lar
Ġp b
la ran
Ġb ento
Ġb ub
Ġg um
to de
Ġla z
Ġk et
id el
ba ygon
Ġw ash
20 9
za da
se ptico
Ġpre v
ud io
Ġmon tilla
15 3
Ġcab el
Ġdes emb
pra tel
Ġem bala
Ġgal in
Ġsp or
Ġama fil
Ġlam inada
iza dora
Ġbuc ha
ord u
Ġhot whe
bal l
ili ar
Ġpit anga
Ġauto m
Ġ413 25
son s
Ġnor m
Ġoce an
Ġ78960 44
Ġza p
hidrat ante
Ġpeda co
Ġbiqu in
Ġvel vet
cig arro
Ġevol ut
Ġbald oni
Ġraiol ita
tu bo
baun ilha
Ġcoffe e
Ġandor inha
Ġmarguer ita
regu lador
Ġeure ka
9 23
b il
g c
j as
ra id
Ġs x
Ġs hock
al le
Ġl ela
Ġf ett
Ġf lash
Ġa ur
Ġa za
Ġn en
Ġv v
ch ips
Ġla bel
sa ms
us or
Ġk aro
Ġ9 24
li mao
pan os
Ġar r
Ġr x
Ġpa rede
20 2
Ġper ol
jo ao
Ġ26 18
Ġman ual
Ġcolor ida
Ġsol teiro
Ġbom bas
Ġcl ight
Ġcom f
br on
Ġdup l
Ġson y
Ġalum il
Ġalho sal
pal iteiro
Ġfer ra
Ġpc tao
Ġ84 15
Ġ413 5
Ġpp es
ens er
Ġju venal
Ġchamp agne
Ġmal be
prote ct
Ġcapp uc
ot h
fi go
Ġdp l
Ġpequ eno
Ġagul hinha
fun il
Ġbron z
Ġmmus culo
Ġelem ent
Ġpetbr ill
Ġjacqu ar
Ġflamin go
tode cacho
pratel eira
a f
a ji
c less
d isqueti
f ine
f ibra
g li
h nson
k lin
v ilha
Ġc ros
in pm
Ġ1 34
re parador
la vel
Ġb wc
Ġa qua
en erge
Ġg arden
Ġ4 89
Ġca ke
Ġe fv
po p
Ġba ra
Ġcar veg
cond imento
esc uma
Ġsh in
sal gado
Ġinf lavel
Ġra quete
gg ets
jo hnson
Ġte a
Ġcas cao
Ġuva maca
ka u
Ġgra in
br ilho
Ġsen ior
Ġtab lete
alim ento
Ġquad r
Ġ39 43
207 81
Ġmac arrao
Ġtripla cao
Ġcres p
Ġabo bora
Ġ1764890 807
Ġds erra
Ġ25924 246
noz es
Ġ113 31
sus tain
Ġbou quet
Ġtriang le
Ġrega ta
Ġdream ies
Ġcapic ilin
Ġluc retin
Ġsurpre sa
lis terine
Ġturqu esa
Ġmosca tel
Ġespon ja
Ġbiquin is
energe tico
h ort
i k
p reto
in d
Ġm pack
Ġb ge
ar i
Ġ5 3
ti o
ch id
Ġma tiz
qu el
ref re
Ġmo c
Ġpa ta
chin elo
mar ca
24 683
Ġfor radas
15 1
Ġcap il
Ġpe onia
Ġpe tic
ci ona
Ġpol id
ban ha
Ġsta x
Ġen rola
Ġcond ic
Ġbet ta
Ġtur m
Ġjoh ns
Ġfa tia
Ġmult pack
Ġvir ro
Ġmil h
tr ona
39 1
be a
Ġva g
210 16
Ġsl ight
Ġameric ana
Ġpor us
Ġsac ucar
pat ilha
Ġcama rao
Ġrodabr ill
Ġport ugu
Ġcruz eiro
umid iliz
Ġpap inha
Ġaqu ario
Ġbron ze
Ġanimal s
Ġimpac t
Ġeuro pan
Ġformig a
Ġamp ola
farinh eira
Ġnatucar ne
Ġgaribal di
Ġpetic itos
d ip
k ing
l per
s queeze
w in
z itos
ra p
Ġs char
Ġd inos
Ġl eito
Ġf rasco
Ġt ig
Ġt joao
ta da
Ġg abri
Ġv io
Ġre q
Ġh ib
de tefon
Ġ6 70
Ġro cher
Ġx am
Ġx tr
Ġse re
Ġar co
Ġar tif
Ġto uro
Ġw o
Ġnes quik
ole ta
Ġper man
so br
Ġor chid
st rogonoff
Ġu tens
choc alho
Ġte la
Ġpre vent
Ġlo t
Ġpr m
24 44
cor po
Ġfres cal
ib una
Ġfrut t
no ite
Ġcomp os
26 3
Ġpara ibuna
Ġ14 95
tra lala
16 5
toalha s
Ġesp uma
Ġlam em
Ġson etto
Ġ789 6
Ġmus k
vas ta
Ġtrip le
Ġcristal ino
Ġres ol
gra fite
nut r
Ġbu f
Ġpp ia
ucc ine
Ġsul lper
Ġorto bom
bone co
Ġhal o
free gells
Ġsimp le
Ġconcent rad
Ġpat cho
mic roondas
nat u
Ġlook s
Ġhidrocauteri z
Ġhidrocauteri zacao
Ġfrig id
dif usor
244 40
Ġpear l
Ġproces sado
pipo queira
Ġxam ego
0 7
2 35
b ra
Ġp f
Ġp ano
Ġm ia
re o
Ġ2 24
Ġl os
Ġt ila
Ġa ce
en se
Ġla po
Ġk lin
Ġ7 80
Ġ6 400
Ġde ep
Ġj p
Ġj w
Ġmar ic
ref ord
Ġto zzi
ed uca
Ġan j
mo ca
Ġ20 1
Ġra j
Ġra s
am ole
Ġri om
Ġsup ro
lu gar
Ġlac free
Ġsol i
ge e
bom bons
cor rente
Ġdi ana
Ġbi ch
Ġsp lit
Ġpara iso
Ġap eritivo
Ġen ox
Ġpar r
Ġrich est
Ġja guard
pal itos
72 25
cam om
Ġfun ny
Ġdis play
Ġhead phone
Ġalo ha
ens ion
Ġmal z
Ġ106 9
Ġtrans luc
blo ck
Ġmos cada
Ġmassa ge
Ġnas ci
Ġran don
Ġtec bril
toalh inhas
Ġprimo gato
Ġ17648908 10
Ġmex ic
Ġalterna tivapet
Ġapol lo
Ġanten ados
Ġmalbe c
Ġperman ente
Ġlapo gee
educa dor
6 50
f em
f ino
n ia
Ġc ran
Ġp ico
Ġp unha
Ġp lim
re iro
co alhada
te m
Ġd et
Ġd idi
Ġf idel
ca ke
ca pic
ho s
Ġg ro
il ios
ma cool
ti jao
pa co
qu it
ja zam
os os
Ġ6 17
li to
po we
Ġpa z
Ġcar o
20 84
10 2
ona ge
Ġch ile
Ġor q
Ġ0 60
que da
Ġcas ill
mar cador
beb e
Ġcor da
Ġst one
Ġsp on
Ġvita y
Ġneut rac
Ġmel it
Ġmel hor
Ġtur q
Ġja t
Ġcan to
Ġmand ine
Ġhar m
Ġfri tes
207 8
Ġ84 14
Ġpia cava
Ġfu ba
Ġmam maca
Ġlin guica
Ġalim entos
76 9
free zer
revista s
Ġ1764890 769
Ġviole ta
fru teira
Ġantiade ren
Ġcli macool
Ġencor p
Ġencor pa
Ġ17648908 45
gom ets
Ġwe iss
Ġinstant ane
kol eston
Ġpromoc ional
Ġnaturel le
disp enser
Ġchav es
Ġcome ta
Ġalumil este
capic ilin
Ġneutrac ucar
2 94
a pa
j on
n or
r un
t ol
y pe
Ġ et
Ġc ura
Ġc ale
Ġs ar
Ġs lo
la o
Ġb illa
Ġb ucas
al is
Ġd ig
Ġt c
Ġt ho
Ġg rip
Ġ4 90
Ġh b
Ġh p
Ġca mo
Ġla co
ic il
de g
le gging
Ġ9 1
Ġmar ico
Ġcol chao
Ġes tojo
Ġpro com
Ġpro vol
Ġam r
se cador
12 2
Ġ0 9
Ġbo y
que ratina
pol trona
ir in
Ġpr ingles
Ġman c
rat il
Ġve ge
Ġprote ge
Ġplus h
Ġgre lha
Ġref in
man g
Ġred utor
cos tela
und ia
Ġhe reford
est rela
Ġcro cker
Ġpic ant
anteig u
Ġpron t
vita y
207 91
colo ral
Ġzoo pers
Ġelet r
Ġsun set
Ġale crim
240 95
Ġextr usa
Ġtuc upi
Ġcitri cas
Ġglicerina do
Ġfut uro
Ġori ental
Ġbiqu inho
Ġlub rif
Ġpolen gu
Ġit l
Ġ789610 25
Ġumede cido
Ġcobert ura
Ġpremi u
Ġimpac to
Ġprog ress
Ġchica bon
ace to
Ġjade frog
Ġjeito sa
Ġbombas tico
0 60
2 19
b x
d kt
f ett
j andaia
p q
p u
s il
t ubes
Ġc iv
Ġc queijo
Ġp anda
Ġp unch
Ġm om
Ġd ucha
Ġf iambre
Ġf hom
Ġt at
Ġt cl
Ġa i
Ġa id
Ġa ip
ta is
ta il
Ġn ort
sa kura
Ġro que
Ġal i
Ġse res
li x
ce ta
Ġpa isage
Ġy el
Ġam anhe
Ġbr uto
Ġtri pa
Ġch an
Ġch en
Ġso ra
Ġmara vilha
Ġ24 5
Ġda masco
Ġsol id
bo b
Ġ23 27
cu ba
Ġdan io
Ġwh is
Ġpres ente
Ġecon o
Ġmic an
Ġmag ali
lac ta
wa y
he e
Ġ2626 7225
Ġgla m
Ġorgan ica
amendo a
Ġeco b
Ġcool er
Ġdelica da
Ġhit s
230 2
Ġran dom
folha do
Ġpat r
Ġamac itel
mic ro
Ġvel udo
Ġrig at
Ġlen col
dis j
Ġpu mp
Ġ40000 16
alcaparra s
Ġestr ut
Ġgord al
Ġmagn um
Ġintegra is
tea u
Ġ789107 90
sua ve
Ġberinj ela
Ġradian ce
Ġcabel os
Ġcondic iona
Ġamanhe cer
Ġ26267225 13
2 34
3 35
a mo
m ela
v ig
Ġ ic
Ġp conf
Ġs que
co entro
Ġb lac
Ġb sc
te qu
es sor
ca de
Ġma o
Ġpo u
Ġk ds
Ġ7 70
Ġj ura
up inga
po xi
uc ine
Ġpro polis
ed redon
Ġcr m
Ġchoc mor
cafe teira
Ġman icure
ras ilk
Ġcamp ila
for tes
Ġsab as
Ġpra te
ton aliz
Ġped ig
Ġ14 35
Ġcha ve
Ġcha mbinho
Ġpres t
Ġmol h
ell y
Ġtres em
massa gem
Ġ789 115
Ġfran ci
Ġja mes
Ġtab lito
36 8
Ġpil s
gra in
Ġdis p
Ġten d
Ġpul ver
Ġhel en
Ġka fe
Ġof ra
Ġke rasilk
Ġdello fine
Ġsus p
fl on
Ġvar ry
Ġlumin ux
Ġsensa tion
Ġnesto g
Ġrefres can
absorv ente
Ġgot issima
Ġamig as
Ġbraz il
Ġmanda la
Ġlag una
Ġazeit ona
pell etti
Ġlusa film
Ġrena iss
Ġtropica is
Ġdinos sa
Ġtila pia
Ġriom ar
camom ila
2084 3
apa relho
cade ado
3 10
h el
h eta
l eit
Ġp lixo
la p
Ġd am
ta p
ta to
ro d
ha va
Ġv bx
ia g
Ġca carola
Ġk anina
Ġo mar
rem ix
ina moto
pan to
pe c
Ġar gol
Ġcar b
za g
Ġper la
se mp
Ġbo a
Ġsup rema
Ġac u
ado ra
Ġbi f
gan cho
Ġsu ino
tim us
Ġprof iss
Ġmult uso
Ġcro ck
Ġpes ad
23 7
Ġmil i
pal heta
Ġfin na
19 8
72 7
Ġflamb ynho
39 7
85 1
Ġaj inamoto
Ġhorte n
Ġcot tage
Ġmaril ux
Ġantar tica
Ġdol ca
nu tella
Ġmos t
Ġemp anado
Ġbacon zitos
Ġsimp sons
Ġbull dog
banana da
Ġagu as
Ġagu iar
Ġdeterg ente
Ġ25226 207
Ġemo tion
Ġumede cida
Ġprimo cao
Ġ25759 228
whe y
Ġinfin ity
Ġbiv ol
Ġcock tail
Ġprep aro
Ġfett uccine
nutr ilon
Ġtransluc ido
Ġkafe bom
hava ianas
Ġ25759228 48
9 50
f lac
m ina
v ida
Ġm ur
00 8
co c
ar tana
Ġd ac
Ġf ox
on etto
Ġa gra
ro p
ro x
ei os
Ġre levo
Ġre vitay
do wny
Ġco ador
Ġla b
Ġe di
ic ida
sa dor
las alsa
Ġo c
Ġo ex
Ġ6 18
Ġse doso
Ġmar c
Ġmar mor
Ġba lada
Ġcar min
Ġcar icia
Ġam en
Ġ25 5
Ġper fect
Ġsan ss
Ġ20 8
ine x
ine te
az i
Ġra mos
iso ba
Ġreg ional
Ġman ch
ant isse
Ġst udio
fo rado
Ġcomp ri
Ġap ar
Ġga ucho
Ġesp um
Ġ18 3
Ġpar bo
38 00
Ġja zam
Ġsor ri
ich urri
Ġta pa
Ġtr is
fort al
Ġtor cao
iro ba
Ġlem on
una re
Ġgelat ines
Ġbat uta
Ġaro mas
Ġind ica
Ġodor block
Ġvol um
Ġmam ma
Ġfam iliar
Ġsilv est
Ġcel us
Ġplenit ude
bc n
Ġcole g
flu or
lum inaria
Ġtrav esseiro
Ġdim ension
Ġcebo lasalsa
aper it
Ġjur upinga
2444 1
Ġaip im
Ġseres teiro
Ġyel low
Ġargol inha
4 30
a vela
b em
c ent
d sp
e c
k ant
m itos
n ol
p tador
q t
s co
z il
Ġ )
Ġ ia
Ġc ana
Ġc erv
Ġm ila
la k
co mbo
Ġ2 26
ma zon
Ġco bre
Ġma i
Ġun iplast
Ġe f
Ġe uca
it or
sa da
us co
Ġo k
con g
ba calhau
Ġj ua
up p
Ġse kito
Ġmar inhas
Ġba ixa
Ġto do
Ġam bi
col ch
Ġinte l
Ġcolor gin
Ġle ave
Ġad u
Ġcla re
ita s
22 391
Ġros qu
far max
Ġmas cara
Ġesp ir
ven to
Ġfruta mazon
Ġpante nol
Ġvid r
Ġesc ura
Ġbri o
300 0
Ġbro colis
ret to
Ġ41 30
di as
Ġchamp anhe
98 7
Ġ2566 224
Ġlin gua
Ġ26267 22391
bate deira
mic anga
Ġ26113 22
Ġlen ha
Ġfib ras
Ġir onage
248 72
Ġspid er
Ġmart ini
oral b
defriz ante
238 79
Ġtas te
2035 2
preserva tivo
Ġcilin d
Ġbisco ito
Ġraj ska
tequ ila
Ġrenaiss ance
Ġfox lux
Ġtapa jos
Ġfrutamazon ia
Ġ2566224 140
0 46
3 16
5 40
5 17
a uro
a vent
c po
d iv
u ga
u que
in timus
Ġ1 36
Ġs pra
an ela
es cada
Ġf m
Ġf os
ol iva
Ġa ra
en cia
ch n
Ġre sp
Ġin di
Ġla pis
it ol
Ġi pe
va do
Ġde maq
res so
Ġj j
Ġj undia
Ġ12 8
Ġmo ist
Ġplas ti
Ġw or
Ġpa io
Ġch ard
Ġpet is
Ġsan tana
ica do
Ġpre c
24 52
15 5
Ġdes amar
Ġ3340 26
bo y
cu care
Ġfres cat
22 3800
ci goma
Ġmen u
Ġpra tos
Ġmax xi
lan ca
Ġmed i
Ġlam ina
zz e
Ġta pete
Ġbel liz
Ġres erv
Ġorgan izador
Ġflex ivel
camis ete
Ġbea ut
Ġ13 50
Ġbat uque
Ġ43 408
Ġ2566 223800
cra ft
Ġfel iz
Ġtuc unare
208 37
capa cho
Ġaroma tiz
sk f
Ġio d
Ġlol lo
Ġemo ji
fun do
214 2
Ġcria coes
Ġdip lo
Ġborb oleta
265 2452
brilh ante
Ġbrochura o
Ġadvan ced
chand elle
Ġsy m
doc ile
Ġwar s
Ġfluff y
Ġgro w
Ġprogress iva
Ġmarmor iz
avent al
Ġjundia i
Ġ334026 2652452
cucare ir
; #
c lo
g hi
h ileia
m u
m id
m ental
s ani
v r
Ġc ferm
Ġm p
Ġt re
en c
Ġg en
Ġg hee
ma z
el d
Ġv capili
ve las
us c
Ġo cu
Ġro das
Ġ12 00
Ġx ix
Ġmar ie
Ġdo mama
uc ia
Ġmo i
Ġr p
Ġfr is
Ġam aro
Ġso la
Ġcoco rico
Ġri v
24 3
24 151
Ġgo u
can ton
Ġanti queda
bo x
Ġmor choc
Ġst yl
ap res
Ġmen inas
Ġcl c
lava d
Ġesp ort
Ġmel cacau
iza d
Ġkit ch
64 2
Ġcan cao
isque te
ped al
Ġbol sa
Ġvan illa
Ġat rev
Ġhy da
Ġfar f
Ġbanana maca
Ġcolo rex
207 92
Ġamar g
Ġdis n
Ġjumb in
Ġchar que
Ġado rab
Ġinvis ivel
Ġ2566 220
Ġessen ce
Ġpromo ciona
Ġlargo s
Ġ414 14
Ġ414 18
Ġhershe y
Ġutil ita
Ġcul inaria
Ġsalsa ret
dan oninho
Ġbos ch
Ġds n
Ġgosto sa
Ġumede c
Ġrefres kant
Ġchocol eite
Ġtul ipa
Ġcaramel iz
bran co
Ġtetra c
Ġ26307249 20
0067 1
Ġcuticu la
Ġsky y
Ġmexic ano
fett ucine
canton eira
Ġ2566220 294
0 55
b itufo
c it
e cor
l ets
Ġc ed
Ġc can
Ġc moedor
Ġ2 18
Ġt uti
Ġt olete
Ġa re
ta bl
ro up
Ġg li
Ġre mo
Ġca u
pa d
Ġpo de
Ġ8 32
Ġo bri
Ġi b
Ġ7 13
Ġde mi
Ġx plast
Ġmar gar
Ġsa pato
Ġmo de
Ġpa cot
fe u
Ġaz ed
Ġso u
Ġsh ine
Ġvi ver
Ġflo cao
Ġra vor
ki bon
Ġpre vin
gel o
Ġman jer
24 78
Ġ60 15
Ġmon an
Ġanti p
tint ur
75 4
for ro
Ġst il
Ġ16 50
Ġ16 35
Ġcal d
Ġsuper cong
200 84
cos ta
ban heira
Ġama pa
orte la
Ġbe cel
Ġdia mond
Ġpiracan ju
207 98
purif icador
pente ar
Ġauto craft
Ġchi ken
Ġag ri
224 12
99 50
ly soform
Ġmod el
Ġbela ecor
Ġrev ista
Ġsus tagen
Ġcres pos
Ġand iroba
Ġprim eiro
Ġps eios
Ġagul ha
Ġjac quet
Ġ789840 9950
Ġbeij inho
facil it
Ġrega tas
ru gem
moch ila
Ġpolip ro
vasta tina
Ġsanss ini
046 20
tabl et
Ġobri gado
Ġpacot inho
8 10
a tiv
h ortela
z inha
Ġp sorv
Ġm anteigu
Ġs ic
la ck
an os
Ġf da
on ita
ca la
is ma
Ġ3 13
il un
ab i
ch ibra
Ġre gu
Ġre nd
Ġco pal
Ġma ran
Ġe c
qu ilhos
Ġpo tato
ul os
sa ia
de gas
Ġk oo
Ġo pe
Ġal h
mac leg
Ġmar inh
Ġsa ilun
Ġnat ut
Ġper i
60 2
Ġsh ort
Ġvi king
Ġbo avistense
Ġpal ete
Ġchoc morango
Ġz iza
Ġno it
Ġlo v
rat to
Ġac ido
25 2
25 6
15 4
Ġpto s
22 788
Ġgal lant
Ġst ress
Ġpol p
Ġ35 4
Ġho chibra
Ġsuper f
Ġsuper io
200 6
man cha
Ġpres id
Ġsc lor
Ġpar bol
Ġas pen
Ġol la
qua ker
Ġsuav idade
imp a
Ġcer d
Ġgar fi
Ġpen eira
Ġ413 94
Ġfleisch man
Ġfi est
Ġgat il
224 94
Ġmos c
Ġ234 9
deseng ordu
Ġesfol ia
Ġinter f
du e
Ġpis cina
Ġcres pa
sun down
Ġfh d
Ġrol inho
dan one
Ġtq s
Ġ25924 202
Ġitali ana
Ġ7622300 86
225 74
Ġzig zag
desinfet ante
final iz
Ġfortalec imento
Ġdeli ket
Ġencan to
Ġcara col
Ġanticar ie
gord ura
Ġgradua da
Ġlaz anha
Ġket chup
Ġsere nata
Ġprovol one
Ġbivol t
Ġcopal impa
Ġkoo k
0 38
j ard
n as
p ent
p lus
t rat
v id
Ġp n
an n
Ġb eijo
al c
Ġ2 89
Ġd k
Ġd isse
Ġl un
Ġl uva
Ġ4 25
Ġ8 98
om et
Ġro xa
Ġmar mo
Ġmar cus
Ġcol man
od er
Ġar ra
Ġr d
Ġr isc
Ġplas uti
Ġqu ente
Ġy azi
Ġ10 1
Ġper m
Ġch im
Ġ0 14
Ġlav ita
Ġbo t
Ġsal inas
mar i
Ġsup orte
Ġman ix
Ġita m
Ġbon ito
Ġpe ti
Ġanti va
Ġanti pulgas
bo ia
Ġban ze
Ġcarne cereais
Ġdan on
Ġ14 00
ke ep
Ġkit kat
38 4
Ġol ive
Ġ789 63
Ġarroz ina
45 6
19 1
Ġres er
gra mp
Ġfra dinho
pres to
Ġret ratil
Ġsur fe
Ġkol or
Ġado cado
enxa gu
Ġherm et
208 29
elim in
Ġmio jo
fri ta
Ġmala g
2075 6
Ġforn ello
Ġelis es
Ġportugu esa
Ġmarico ta
Ġvege tais
Ġpatr ulha
pec cin
sani fill
Ġced ro
Ġsuperio re
Ġ78963 36
f in
f an
f az
f ica
g t
g al
i ano
k eit
l cool
q ta
Ġc po
Ġp semp
Ġm un
00 90
re che
Ġb last
es ti
er ios
Ġd ano
Ġt ara
ca ram
Ġ4 11
Ġli keit
Ġre e
Ġco gran
ran to
ran da
Ġo z
gr in
ce ma
Ġes ta
Ġar osa
Ġr ub
Ġplas du
Ġam ei
ac et
ac qua
ura dor
Ġpal e
Ġte ri
Ġte na
Ġcas e
mar ia
Ġ26 129
lu e
Ġve ga
Ġcap ita
Ġleite coco
Ġban can
Ġfres co
Ġros eli
Ġst hair
ap l
ya ki
eta me
Ġvita coco
azeit onas
Ġnutri c
tor io
len c
Ġdia tt
Ġcrist ina
Ġmasc ul
17 46
Ġcro cks
Ġsabor osa
Ġsem est
Ġta qta
Ġmil ka
Ġab c
Ġche erios
Ġcup cake
Ġfri tex
Ġtr ilux
Ġsha keira
cot onete
Ġgur f
Ġtor rez
gado res
Ġ84 16
Ġcons ul
Ġru f
Ġcat u
Ġpon to
pap eiro
dent al
Ġing l
Ġcache ad
Ġlava g
Ġlava vel
Ġrepa ir
Ġlin gu
Ġprati ka
almon degas
Ġpi res
tado ra
racha do
Ġnas cido
208 13
Ġtec ido
fri zz
Ġ225 90
Ġob ra
Ġgam e
sus p
212 89
245 64
liv ro
Ġiz ab
Ġnauti cal
Ġcped al
Ġceramica s
churras q
Ġhome ma
Ġ25662237 75
Ġira cema
Ġautoma tic
Ġrus sa
Ġcongela do
Ġduc ile
Ġmim oso
Ġgraph ic
Ġbara tas
escuma deira
Ġleito so
Ġhalo gena
235 42
bebe douro
Ġpolengu in
auro ggets
Ġstil us
Ġmanteigu inha
Ġnatut rat
Ġtorrez no
5 18
6 14
c ira
f ilho
h iper
t ing
Ġc ant
Ġc tom
Ġp kibe
co rac
Ġl j
Ġf ume
Ġf eij
Ġa os
Ġn um
ma i
ma io
ri z
Ġma cho
Ġin co
pa g
de p
le za
ba tom
Ġj ose
ina fre
Ġmar ila
ur ing
Ġfr go
Ġto ta
Ġw ei
20 5
limp ol
Ġtri bal
su wa
Ġu ti
Ġ00 01
Ġte rere
Ġel se
Ġsup remo
Ġinte gr
24 1
Ġfor tif
Ġanti odor
bo zz
13 5
Ġmas h
Ġter r
Ġbom coco
Ġgre cia
Ġmax ill
tra to
Ġbas ton
Ġ18 6
Ġ18 00
Ġlar gengibre
Ġpri x
Ġgu an
Ġja lap
Ġpic k
Ġcu i
cap pelletti
relo gio
85 9
ili ano
Ġmac ban
Ġten tadora
Ġva zada
Ġcin ta
Ġcin de
Ġbrasil idade
Ġhellman s
Ġlim onada
Ġleit bom
224 10
Ġsensi tiv
tab lete
bri gad
cra vinho
passa ta
onna y
Ġrepel ente
214 44
Ġir win
Ġsandw ich
513 64
Ġaqu ar
Ġmit suwa
Ġtranspa ren
Ġmala gu
Ġcort ar
Ġ26307249 22
Ġsole il
yak isoba
lasan heira
bron z
amole cedor
Ġsar ja
Ġsic iliano
bozz ano
Ġmaxill uring
3 39
4 10
b it
c cao
e re
f ixa
m enta
z an
Ġc mel
Ġs panto
te d
es ia
Ġd ir
Ġl et
ml p
Ġg ema
Ġv ei
50 4
ri la
Ġre liqu
Ġco ton
Ġma ia
Ġun cle
pa cott
Ġk izz
ig as
gr ill
Ġde p
Ġde gra
Ġal b
Ġal hoc
Ġ9 98
gu inha
pan tenol
ce b
Ġr um
20 320
Ġy a
Ġ20 7
der macyd
Ġbo w
Ġmin is
Ġpre n
Ġno ir
Ġel s
Ġel im
fr uti
24 729
Ġac uca
Ġac essor
Ġpe gador
Ġda uc
bo v
75 6
cor t
for ia
gela lcool
22 9
ant hel
Ġpol ir
Ġlar ga
Ġas par
Ġhi bisco
rada vel
Ġ17 9
Ġbol t
23 376
Ġaco pla
Ġfin inha
Ġur ug
Ġche fe
72 1746
Ġfri ccao
wh is
Ġdura t
Ġtor n
Ġcacau cereais
Ġcer das
Ġrep os
Ġmint y
Ġtar ta
Ġtrik tri
Ġrap ida
Ġbola ch
Ġgerm en
deso dex
Ġ414 17
Ġmetal ica
bu g
Ġbac ardi
226 12
Ġ2630 721746
208 22
Ġmelan c
Ġestamp ada
213 42
sho yu
Ġeu foria
ise ptico
calc io
Ġnin noff
Ġchocola t
Ġlady bug
Ġlaranj inha
Ġfir ma
Ġnume or
Ġcy ber
Ġku ky
Ġ2613 9
final izador
Ġcarbon ell
Ġspid erman
waf fer
Ġ23180 4
Ġbre at
Ġcaca ua
238 76
torr one
Ġbolog na
Ġsmo oth
Ġhotwhe els
farinheira cucareir
Ġcaro co
Ġslo g
Ġchard onnay
Ġxix i
Ġkitch en
Ġpolipro pil
oder ich
frita deira
Ġgema da
Ġreliqu ia
pacott ini
Ġalhoc eb
Ġtriktri k
8 30
8 60
c iclo
f ena
i tivo
l ink
p lo
p lu
s ter
Ġp ush
Ġ1 89
Ġm emb
Ġs sab
Ġb f
Ġb n
te bol
Ġd on
Ġd ist
Ġf al
Ġt ia
on d
Ġ3 48
ro te
Ġ5 90
ti mate
Ġma tador
ia dor
Ġo ut
le ave
os al
des col
Ġ6 45
lo f
Ġj ab
Ġj uli
Ġ400 0
Ġes fr
uc co
uc rim
Ġmo ve
Ġba ta
cr is
Ġ30 7
80 9
Ġor loff
Ġso fa
jo ara
Ġ00 00
Ġmara joara
Ġinte ira
Ġpas se
Ġmulti alcool
cola geno
ge x
22 153
tal har
Ġgra cia
Ġpra f
Ġga ma
br us
Ġfla nela
Ġmic anga
Ġpan elas
Ġol i
wa ve
Ġcan f
Ġmais ena
65 6
Ġmat upi
Ġfac i
Ġta ref
Ġ19 3
Ġrad ical
Ġfer rugem
Ġmr h
Ġoxig en
Ġmis ter
Ġbamb o
Ġglic er
Ġmoran guinho
form ers
Ġminho cas
Ġfu tebol
Ġgerm inex
Ġdoy pack
bul os
Ġescova plast
Ġtode cach
Ġsauv ignon
nho que
bate dor
Ġyor gus
Ġshamp cond
Ġpad rao
gl ut
Ġzor b
Ġfib ratto
crem er
2075 7
Ġblon g
Ġglo bulos
terra ba
Ġ7896 237
Ġresol v
Ġinstantane o
Ġcale c
icil ina
Ġvolum es
Ġindi go
Ġocu is
Ġatrev idos
Ġfarf alle
Ġcapita o
Ġnum ero
talhar im
' s
0 76
4 34
5 11
9 65
i ros
k norr
v is
Ġc ent
Ġc pote
Ġm h
Ġs d
Ġl s
Ġl ing
Ġf iamb
Ġf lip
on t
is te
Ġ5 230
Ġn r
un id
Ġg tl
Ġg lass
il iss
Ġco vel
Ġin j
Ġca j
le gu
Ġro ad
sab o
Ġj anda
Ġse xt
Ġse ven
Ġcol l
Ġsa car
Ġmo vel
Ġto uch
Ġw ess
Ġpa c
Ġpa m
20 30
ac ker
Ġbr vd
Ġtri g
Ġtri bo
st h
st ar
Ġbab o
Ġ0 90
fa relo
Ġce to
Ġlo tion
Ġbar cel
Ġdes cafe
Ġanti mancha
Ġgran ul
ci as
14 4
ap tamil
89 6
11 6
11 88
Ġdu b
Ġga teau
Ġsu gar
Ġpres u
Ġnutri base
ff l
Ġtan que
ell s
her mo
Ġcra ft
Ġas pirador
35 8
est ri
Ġ240 6
Ġul tr
Ġab ras
Ġbrot he
rel ux
nes s
nes quik
bal inha
Ġfun ghi
caf et
Ġsim onetto
Ġeasy pack
snack s
Ġpi quit
Ġcresc id
Ġestamp ado
Ġphil c
Ġou sada
Ġond ulado
Ġjohn nie
Ġtub e
Ġnab isco
Ġnab isc
Ġanima d
Ġagul inha
Ġsco o
Ġ25122 20764
ester ol
Ġtriang ulo
Ġhor tel
Ġrac ing
Ġ26266 247
Ġpurile ve
Ġlip ton
Ġrefor cado
Ġ257592 1188
baud ucco
Ġcarto on
Ġurs inhos
Ġmandio quinha
Ġnw d
Ġdiab lo
Ġelas tico
Ġdinossa uro
Ġfda q
Ġgarfi eld
Ġcinde rela
Ġacessor ios
anthel ios
Ġcovel i
Ġpiquit ucho
0 12
4 60
b le
l ine
s os
t ran
t rena
v il
Ġ eros
Ġm ito
Ġs erv
Ġf eijo
Ġ5 75
Ġ5 65
Ġg b
Ġg iz
ha el
50 1
50 368
Ġ4 70
Ġco x
Ġco mari
Ġh t
pa col
Ġ8 95
Ġk ite
Ġk irin
Ġ6 20
Ġro me
Ġal pi
Ġ12 64
Ġx yl
Ġcol cha
Ġmo inho
Ġmo ura
Ġba ggio
Ġto mada
Ġnes lte
10 30
Ġch ico
Ġpet r
12 46
Ġq z
Ġra in
Ġri ca
Ġ15 3
Ġac el
Ġcab e
Ġpe ach
Ġmor fo
Ġmor lte
Ġmas t
Ġmas tro
Ġmas sas
Ġfrut ta
Ġpol ia
Ġpol li
Ġfem ina
Ġmax protect
lan terna
Ġsu co
Ġbas cu
Ġesp resso
Ġsil ica
Ġbe za
tim entos
Ġ17 1
Ġpla za
Ġ800 0
Ġab nt
cap ri
Ġat c
Ġbel ize
37 1
Ġaveia passa
48 71
Ġbranca s
dy o
Ġgr d
gra xa
Ġdeck er
Ġten ta
Ġ413 316
gio vanna
223 339
Ġiso lante
Ġ2566 223339
Ġsus t
Ġvin igas
Ġsei os
Ġchand on
Ġsti cks
bicar b
Ġvo g
Ġrefo gado
Ġshow er
Ġspr ing
Ġis abel
skar lof
Ġdip ir
Ġlamb rus
fol has
Ġtas sel
sobre c
Ġsin te
Ġdy dyo
Ġoreg ano
Ġ7898024 39
Ġfrigid eira
Ġmalz bier
Ġwhis ka
Ġpou che
Ġprate ada
Ġespum il
vr m
Ġgou ter
Ġ7896336 00
Ġcacaua vela
Ġbarcel ona
Ġmito ka
0 22
7 100
a h
f ila
g p
h inho
j go
m orte
u xa
ra lo
in ol
Ġs ante
an el
co pos
Ġt ime
Ġg os
ha do
ti ma
Ġre i
Ġma ral
et ini
sa cos
Ġo q
Ġi ris
des colorante
Ġ6 25
om e
Ġro st
Ġal vej
Ġj d
Ġj ud
Ġj elly
Ġse reia
Ġmar iz
Ġcol oni
pan tol
Ġes po
Ġw il
Ġw ok
Ġan ita
Ġam ox
Ġ30 4
Ġper s
Ġbr y
se te
Ġinf a
Ġ0 40
Ġ0 30
Ġ0 70
ist ro
am ori
ux o
que tao
Ġ15 8
Ġ15 71
ir u
Ġcas tra
fil o
Ġpr isma
lu z
cho cola
Ġve da
Ġdes ign
esp inafre
bo tijao
Ġmor cer
ib on
Ġgal v
Ġsp im
Ġpira ss
Ġ600 5
Ġcomp orta
Ġcom inho
man ga
ban h
Ġen o
Ġmol hado
Ġmed idor
vinho s
pic es
if icante
Ġbe e
Ġol it
Ġ17 8
Ġcam el
Ġcam ido
Ġ28 7
Ġja pi
Ġcan as
Ġcan forado
Ġesf relux
23 223
Ġul timate
Ġgoiab ada
Ġat ol
guar da
Ġbel lo
Ġur sa
low tex
Ġpen ha
Ġkel cat
Ġrap hael
Ġlist ras
prote in
Ġfas t
Ġalf ab
Ġmos quetao
Ġemp an
Ġmetal lic
rol inho
Ġcg p
Ġsimp l
Ġdello plast
Ġge omet
Ġnova cor
Ġder ma
Ġsum me
Ġescu retto
Ġlol ita
Ġemo coes
Ġamanteig ad
Ġcen bronz
Ġcria tiva
ass ent
Ġcarbon o
Ġnauti que
006 72
Ġaf fa
Ġrock lets
Ġtempe rado
Ġinse tos
Ġantisse pt
Ġbrs pices
Ġlus tro
eti queta
Ġrefrescan cia
rod abr
Ġsilvest res
vento sa
Ġadorab le
Ġmalagu eta
Ġpolipropil eno
Ġjanda inha
Ġwess el
Ġbeza vel
morte in
Ġsante pel
Ġamox icilina
8 220
c res
c ica
d d
f el
g lu
j olo
n is
n ic
o od
p ran
r q
s q
t uchaua
v ir
Ġm uca
Ġb lan
or o
Ġl ino
ml h
Ġf ant
Ġt ha
Ġt im
on g
ca ta
Ġa bril
ta g
ro dinho
en er
Ġg p
il izado
ma xi
Ġv s
50 5
Ġco pos
Ġin je
Ġe ur
Ġi x
des cas
Ġx d
pan que
im ann
Ġcon fe
Ġcon fei
ur no
Ġba iano
Ġplas b
Ġy lan
Ġdent rat
Ġch eia
Ġ20 10
60 3
Ġso quete
col esterol
Ġtrad i
Ġinf ant
mb u
su queira
70 1
Ġchoc choc
Ġel g
ad itivo
Ġcap s
Ġcab ide
Ġmor mar
ita dor
22 1246
Ġros ani
Ġst ilo
ente s
Ġpalm ito
Ġfrut tare
Ġgra pe
Ġ600 40
arroz ina
Ġama re
Ġsil vo
Ġlam inado
cat ch
cat up
pic k
Ġbet he
Ġfran ca
Ġbri t
Ġfa xe
Ġbaun y
cl in
ko va
ub im
23 809
Ġcare l
Ġfac es
Ġta i
Ġfin ish
Ġ125 4
ile te
cas ca
Ġorgan izadora
Ġkar it
Ġ413 29
Ġtar tar
68 8
Ġflu ir
Ġfleisch imann
Ġpim e
brin orte
Ġmal lo
Ġmov iment
Ġfu sao
Ġ56 7
Ġamazon gurt
hi bisco
Ġ2512 221246
tec lado
gla ce
Ġbond u
Ġluz ia
Ġnas cid
226 96
ades ivo
Ġprinc esa
Ġfeel clean
lic erina
Ġ26265 246
Ġphil ips
Ġplat inado
Ġ26113 20
Ġfon due
Ġ4140 26
Ġexpres so
cla ros
Ġcoru jas
Ġvf m
Ġti jolo
Ġ25759 22696
Ġinti ma
Ġmaiz en
Ġ25122208 29
Ġlixa o
Ġ237 13
Ġmaqu ina
Ġcotonete s
Ġjon tex
Ġsafa dao
Ġwo ol
powe rade
ceta mol
Ġdam m
tap io
Ġperla ge
Ġhorten cias
Ġedi tion
Ġdiplo mata
apres unt
Ġhomema de
Ġjalap eno
fena co
Ġmuca mbo
Ġinje temp
0 50
5 200
a id
b t
f um
g s
l il
p eit
s m
z en
Ġc ine
Ġp ino
Ġp end
Ġp chant
in eira
Ġs inger
00 901
Ġb od
Ġb ur
te rere
ar isco
Ġ2 13
Ġd f
Ġd pg
Ġf ur
ol iv
Ġa las
ho yu
Ġ5 35
Ġg lac
Ġg low
ab y
Ġ4 250
Ġh ip
Ġh ud
Ġe p
de re
Ġi mag
Ġ6 100
Ġ12 72
Ġse ar
li rio
Ġtra ta
ga vete
Ġmo tiv
Ġr v
Ġto ale
Ġcar nes
20 729
Ġqu ei
Ġy upp
Ġtri m
Ġtri pe
am i
Ġz l
Ġmulti grao
Ġpe ga
bo ok
cu la
Ġmor mai
500 0
Ġter mo
no vo
Ġpra mesa
Ġpara cetamol
Ġcom for
Ġap im
Ġga ucha
Ġred inha
Ġbras so
deira o
32 8
Ġtan ge
lac to
pp es
Ġas sept
Ġja to
17 7
Ġgl x
Ġcro mado
Ġpes se
Ġpic an
Ġtramont in
Ġta maz
Ġ27 3
ervilha milho
uti on
Ġsorti d
Ġmi ka
Ġ65 7
39 9
Ġcat ty
Ġone way
Ġprin ce
223 34
Ġkane c
Ġing leza
Ġqj os
blu e
rega dor
Ġsg luten
Ġavela cacau
inos hoyu
Ġassad ura
Ġ789600 37
Ġza z
Ġhidro tonico
Ġescuro s
bb it
Ġdelica ta
Ġfinos claros
Ġresta ur
Ġ26265 247
Ġplen us
Ġrol os
Ġsili con
Ġ111 8220
Ġsty lo
Ġ7622300 99
Ġgul osos
mag ic
cuscuz eira
Ġane is
Ġcy t
Ġsals icha
Ġ789107 900
Ġchu v
Ġcomb inada
Ġtempe rada
0067 3
Ġsobre por
cess aria
Ġ25662237 61
Ġfol has
Ġ259922 1
Ġ259922 2
Ġ2800 923
Ġvarie dade
Ġpatcho ul
Ġpico tado
pu ran
Ġmom ent
Ġ789115 00
Ġcompri dos
Ġlamina dos
Ġrevista s
Ġprimeiro s
Ġteri yaki
Ġlingu ine
Ġdauc y
Ġdurat ta
Ġscoo by
Ġkite kat
Ġbascu lante
Ġolit alia
Ġcanas tra
Ġwool ite
Ġhud son
gavete iro
Ġmotiv us
Ġyupp ie
Ġassept gel
Ġtamaz ias
8 50
a ca
c ran
c ino
f le
f ib
i ana
p ta
u tica
v ick
Ġ id
Ġ ent
Ġc mexedor
Ġp ig
Ġp pg
Ġp calc
in ela
co se
Ġb uz
Ġd tv
Ġf ine
Ġf ibra
Ġt ree
on s
Ġa dor
Ġn t
ha re
ri t
Ġco f
Ġco mbo
Ġco ast
Ġla t
Ġe vo
qu ad
Ġpo cal
Ġo e
Ġ7 95
con t
Ġal p
Ġj imo
ina d
ina xpe
Ġse tim
40 4
Ġtra s
eite iro
Ġes tampa
Ġar rab
Ġr is
Ġba la
Ġba co
Ġfr c
Ġpro ven
Ġper t
limp eza
10 1
Ġbr is
Ġ20 2
col h
Ġ0 12
Ġ0 15
su al
der frog
Ġne vado
cha mbinho
iz ante
Ġ15 50
Ġsal ted
Ġ40 20
fil t
Ġlo ko
Ġac z
Ġmon tan
15 00
Ġdes cas
beb er
can til
Ġsol le
14 5
14 8
Ġvita milho
Ġcom inh
Ġcere a
Ġmaca xeira
br inha
cos ul
Ġest re
Ġnutri tiva
Ġsen sual
Ġlam i
Ġbe g
Ġson hare
Ġ75 3
Ġfa relo
Ġja derfrog
65 5
Ġconf eiteiro
Ġfo fit
Ġcamom i
Ġher cosul
Ġamendo in
Ġfun c
coca da
Ġgar fo
sala mitos
Ġva idos
Ġpoder os
Ġfleisch m
55 5
Ġlev orin
emb or
Ġpor ce
Ġluna e
Ġsun ga
Ġmod er
perf etti
Ġchee to
Ġhidro filo
Ġpin ta
Ġital ian
Ġmb oni
Ġinter na
fl ut
nt g
Ġcint ron
Ġagu ac
Ġkero coco
Ġbos sa
Ġnos sa
Ġqdel ic
Ġpoli ester
Ġ7622300 8
Ġsch mid
Ġdesmaia do
Ġ79 17
Ġhigien ica
Ġ185 60
chi ken
Ġ412 34
aromatiz an
Ġbald ico
Ġsamb lue
2035 4
Ġneutra li
Ġoptim um
Ġcros s
Ġcasill ero
Ġbif as
Ġclare ador
Ġmedi ter
cit rus
Ġlov ely
Ġesfolia cao
038 86
Ġrome u
Ġjud y
Ġaffa ir
rodabr isa
Ġconfe ti
Ġylan g
catup iry
pick les
Ġvaidos as
Ġschmid t
0 80
3 13
3 26
6 72
b et
c li
d ona
f g
f us
f ig
i ba
m etal
m dl
n ica
u mp
v ital
x ab
Ġp pao
Ġp icole
Ġs kova
Ġb li
te le
ar iel
er cial
Ġd erm
Ġd isquete
Ġf ht
Ġ3 45
Ġ5 25
Ġn ig
Ġg ia
Ġg ang
Ġ4 72
Ġre y
Ġre ad
Ġma ior
ia ta
qu im
ic ho
sa g
Ġ6 500
Ġj ub
Ġx l
Ġse du
Ġcol heres
Ġdo ces
Ġdo cigoma
Ġcon v
uc er
Ġmo us
Ġcar oc
20 688
Ġqu at
Ġnat ucrim
Ġan il
Ġ10 12
Ġver sa
Ġver ona
Ġpet bril
Ġvi e
70 3
Ġbo b
Ġpal mo
pol en
pol enta
Ġ40 48
Ġz inho
Ġno lac
Ġlo g
Ġcamp i
Ġcamp es
ad eira
Ġcab les
Ġdes colo
Ġad i
Ġban choc
bom bril
ib ril
Ġbi j
pote s
Ġmas s
Ġ600 1
Ġmen to
Ġpra c
Ġcom ercial
Ġap imenta
89 1
man timentos
Ġbas i
Ġsil enc
Ġcond imento
Ġfort lon
Ġjasm i
Ġsos so
Ġbri e
Ġja m
Ġcan eta
Ġbeb ezinho
he x
Ġtang er
23 78
45 2
rado ra
Ġ175 70
mm usc
Ġher b
Ġcosta zz
qj os
Ġmi dea
Ġfl c
Ġcons er
Ġbal lan
Ġtut ano
Ġfe cha
Ġpp gg
Ġcotton bb
Ġvitamina do
Ġmela o
Ġconfort sec
Ġgat inha
Ġ78960 16
Ġtort inhas
Ġmassa gem
rev is
Ġoleos idade
Ġsimp ly
Ġpoleng hinho
Ġmilk shake
Ġtira s
Ġlowc uc
Ġleb lanc
mara cuja
chicl ets
Ġmelan ina
Ġed uca
Ġdom us
Ġagu ia
oriza dor
Ġaut h
Ġhigi ene
Ġvas co
Ġana to
Ġpaco te
peito ral
sus tagen
Ġreno v
Ġclo ck
513 54
Ġ25759 20688
Ġ83 11
liv r
liv ros
ser ve
Ġriso t
cart ucho
Ġliber dade
Ġinse ticida
emba rac
Ġsalgad inho
Ġsemente s
Ġantisse p
Ġmem s
Ġbub ble
Ġfidel inho
234 80
Ġresp ira
Ġpromociona is
Ġplasdu ran
Ġmascul ino
Ġfal eiro
Ġoxigen io
Ġceto conazol
Ġdipir ona
aca i
4 80
c eno
d il
k inder
p on
p iz
r rel
y pioca
Ġc molho
Ġm ante
Ġs pel
Ġs temp
co le
Ġb m
Ġb urguer
Ġb umb
al iv
Ġ2 11
Ġd eita
Ġl ual
Ġf und
on y
Ġa rau
Ġa fiar
Ġa polo
Ġa tenol
Ġ3 18
ta cho
Ġg ina
il ia
ma in
as par
Ġli t
Ġli ga
Ġco ado
Ġin oc
Ġh and
Ġh ct
Ġca iru
sa ch
Ġ8 19
de cor
us t
Ġi pi
os ter
Ġ6 43
Ġ9 25
gu im
po mpom
Ġcon ico
Ġes pelho
Ġmo cinha
Ġ300 00
Ġw it
sh s
ac uca
Ġ10 50
10 4
Ġor ga
Ġso q
Ġ40 75
Ġno bil
fr isco
Ġlimp ador
Ġorig i
Ġorig ine
Ġbon der
Ġpe c
can t
Ġanti ca
Ġprote ction
ib an
pote acuc
Ġgran ada
fo rever
Ġgra mpo
Ġbl c
ada ptador
br ilha
16 2
16 7
Ġen xa
Ġen costa
Ġpres e
Ġnutri re
Ġnutri do
Ġcola vita
Ġcit ty
Ġtan ga
Ġas m
Ġbe ets
Ġol imp
Ġhidra d
17 8
Ġtab ua
sp r
tro pic
Ġrad cau
Ġmd gd
Ġur u
Ġbox e
Ġcup im
bal sa
Ġmae ter
Ġger main
pimenta o
Ġveg as
85 6
Ġaj inom
Ġmac io
hid ra
Ġdis c
tic idas
Ġcapri cho
Ġquim ic
Ġ13 3
Ġbor g
Ġpel ucia
Ġlist rado
Ġelet rico
Ġka lass
rata dina
224 754
Ġmetal izada
Ġke rat
cons er
Ġhidro ca
Ġpin guim
Ġinter n
Ġsus ten
Ġren dado
Ġcur y
Ġgarrafa poteacuc
Ġdiver t
Ġmu ito
Ġguaran y
Ġkera form
Ġcerej lavanda
Ġcolle ct
Ġ25924 247
Ġexcel encia
Ġmira mar
colom ba
Ġty rrel
inse ticidas
Ġfir me
Ġly so
Ġsegre dos
Ġwick b
cla ra
Ġmit to
Ġath us
tort inha
tort ilha
Ġcaramel izada
Ġins ta
Ġrelax ante
Ġcaca ucer
0068 1
Ġhollyw ood
Ġalterna tivo
Ġaf ter
ben ja
churras queira
preserva ti
Ġ4115 54
camp os
chim arrao
Ġ2618 224754
bob ina
Ġ2327 24
Ġparbo ilizado
Ġsalsaret ti
Ġope reta
Ġoz li
Ġingl esa
Ġjuli eta
Ġtaref a
Ġcox inha
capri cche
Ġcine ma
embor rachado
cole cao
Ġatenol ol
acuca reiro
Ġnobil is
Ġkalass i
Ġtyrrel ls
7 20
e pa
f ura
g y
g ina
k u
r inhas
t rig
t one
x ia
Ġc ic
Ġc im
Ġc unha
Ġp un
Ġp ne
Ġm estri
la t
Ġb rado
Ġb ens
or ia
Ġf es
ol ders
Ġa fri
Ġg g
to q
Ġv h
Ġv ta
Ġv da
ch iban
Ġli te
Ġco o
ran ga
Ġe col
Ġpo c
ut cho
us p
Ġk dl
Ġo kos
Ġi chiban
Ġ6 11
Ġal la
res is
gu abi
gu icho
Ġj et
Ġ12 82
Ġse te
Ġcon to
Ġmo unt
Ġto al
Ġw i
Ġcar ibe
em bal
Ġqu ar
Ġam an
mo usse
col cha
se quilhos
Ġsh olders
Ġvi eira
mb y
70 24
cha myto
Ġbo tox
Ġ00 3
Ġsal to
gel e
Ġni vela
sor ren
90 280
Ġbran que
Ġsol ei
Ġsol tos
Ġcal dinho
Ġgel campos
car tela
Ġvita capili
Ġ14 7
Ġap li
Ġga ve
Ġ230 98
Ġen c
Ġpres unt
Ġcola v
Ġsil k
Ġmic el
pas se
64 6
Ġ789 3500
Ġcan ina
Ġbrilh ol
Ġta gl
Ġbel ive
Ġur ba
Ġbis na
28 5
Ġtut to
Ġnu k
Ġauto mo
Ġ413 70
colo racao
pim cominho
Ġbor gon
pen ne
Ġcores ab
Ġmad ri
Ġnew link
220 729
Ġave mel
Ġkarite baunilha
02 94
52 90
capp uc
Ġhamb ur
Ġband ei
Ġcul in
05 703
Ġroman c
Ġsti k
Ġpapa iz
tiza d
Ġ25924 236
Ġcri ad
Ġnesto gen
Ġdesama rel
Ġ79 12
Ġmelam ine
Ġleo pol
Ġregene racao
Ġskin ny
Ġcb orr
Ġblon d
Ġau tos
paraf ina
Ġfron tera
Ġcica tri
Ġturb inado
riso to
Ġtour inho
laran ja
Ġ2618 220729
af iador
Ġgabri ele
Ġcran berry
Ġprocom for
Ġbrazil ian
Ġindica tor
colch on
Ġplasti cos
Ġperi quita
Ġchim ichurri
Ġamei x
fixa dor
Ġtorn ado
Ġsacar ina
Ġimag ine
Ġbrado c
Ġokos hi
7 60
] "
c c
c iste
e ador
l iso
m us
m ing
o ts
u v
u tens
z el
Ġ ena
Ġc do
Ġp ut
Ġp orte
Ġp izz
ra ticida
ra py
Ġm aleta
Ġs ma
Ġs ent
Ġs ys
Ġs ign
re zz
re ts
la na
la mina
Ġb ilho
Ġb cp
Ġb itufo
es toma
es guicho
Ġd ri
Ġd iclo
Ġt hermo
ca pel
ca vela
Ġn iv
un ile
un zel
Ġg inga
il n
ma d
to fu
Ġv ed
Ġv isco
50 7
Ġ4 32
Ġli r
Ġla dr
it ar
bis na
ul ho
ut ri
sa patilha
Ġk b
Ġ6 90
Ġ6 66
Ġde do
Ġal v
ba ta
Ġj up
Ġse cos
Ġsa patilha
Ġdo wn
Ġcon feito
od ori
Ġfr g
Ġpa ju
Ġam onia
Ġ30 6
mo ran
Ġor val
Ġsan re
col gate
Ġne v
Ġne x
Ġpal inete
mar io
mar telo
Ġcho cavela
cho cott
Ġac ida
Ġac cess
25 77
Ġve u
cal deirao
Ġita mar
Ġcolor i
Ġle va
Ġbon it
Ġ24 6
Ġleite aveia
Ġdel val
cu re
cu lar
Ġprote t
Ġprote tor
Ġprote inas
bom boni
Ġmor g
Ġbi ona
Ġgran ja
far in
Ġpalm er
Ġdan os
Ġ35 2
Ġ35 3
Ġmen os
cere a
Ġcom u
Ġjo aninha
Ġap is
man s
Ġnutri t
Ġnutri mental
Ġconc reto
Ġneutro gena
44 7
Ġacti vi
Ġsho p
Ġ789 859
Ġyoki tos
Ġmini form
Ġval or
bol do
Ġgu ela
Ġja va
Ġcos tel
Ġcro k
Ġ22 70
Ġflores frutas
23 90
Ġcarm i
Ġab x
Ġat rezz
Ġbanana cacau
94 6
Ġultra g
207 46
Ġtor o
Ġon du
Ġveg ano
Ġ11 80
Ġarg i
ty len
Ġarte san
Ġalk iln
Ġste ps
Ġgio v
Ġpassa t
Ġ413 700
Ġ13 896
Ġbat ista
Ġrec ei
Ġrap unzel
Ġmal t
Ġnor mais
Ġtos t
cox as
Ġtrans formers
Ġruff l
Ġlin da
ag ulha
Ġlan ol
Ġdelica d
Ġki arroz
Ġcg lit
Ġ112 1
Ġcid re
coquetel eira
Ġcompac t
Ġamac iante
dan ette
Ġden go
Ġmoco quinha
Ġvas soura
Ġcri ms
Ġnugg ets
Ġrefres h
Ġ4140 44
var i
Ġlr j
Ġrela xe
aj inoshoyu
Ġnatura le
Ġamig a
Ġmanda car
Ġlip id
Ġgeng ibre
Ġ1080 80
Ġ257592 2577
0068 7
choco soy
Ġbana aveia
Ġsense care
levo id
Ġamante i
Ġvilla mar
Ġequilib rio
Ġtruf as
Ġacet il
Ġnen em
noite s
Ġbich inho
Ġencorpa do
sil ic
Ġnort on
Ġrodas ol
Ġpiracanju b
Ġpeneira do
Ġdeliket s
enxagu ante
brigad eiro
Ġspanto oo
Ġbrvd pink
Ġcarel iss
Ġpatchoul y
Ġmoment s
Ġporce lana
tele f
Ġnig ro
polen guinho
Ġinoc ense
balsa mo
Ġsys tem
Ġbcp to
Ġdiclo fenaco
unile ven
Ġpaju cara
chocott one
Ġdelval le
bomboni ere
Ġatrezz o
# *
7 30
b d
h ero
k ani
p las
p ista
s inha
w ich
Ġc ventosa
Ġp cao
ra pad
in ch
Ġ1 38
Ġm und
re tivo
la ta
co rega
Ġb ei
te re
es f
Ġd x
Ġd isa
Ġd pack
Ġf ana
Ġf cl
Ġf uros
Ġf saq
ca sa
Ġa tom
ta rantela
Ġ5 13
ma qu
Ġv amp
Ġ4 26
Ġli la
Ġre tor
Ġre ver
Ġma man
Ġma carr
Ġma grin
Ġun iag
Ġin o
Ġh ondas
et ta
Ġca ix
Ġca val
Ġla je
Ġe fe
Ġe ps
qu eros
sa pa
de ra
Ġo m
des tac
Ġro da
Ġal co
Ġ9 18
Ġse ptico
Ġmar ina
im al
Ġdo o
Ġcon tra
Ġar ga
Ġar bo
ur ra
Ġmo edor
ne zil
Ġba quel
Ġpa ete
Ġpa gue
Ġan el
ac erola
Ġper me
ua dor
12 45
desod oriza
sal mao
Ġ0 10
Ġflo coco
Ġra cer
ip se
sand wich
Ġce pacol
Ġno ig
Ġcas p
Ġ26 00
Ġ26 117
Ġlo w
Ġsup or
Ġman h
Ġac iz
Ġbar ber
25 32
Ġita p
Ġcab a
Ġbon ne
Ġ24 54
90 2
Ġleite choc
mas ter
Ġda ka
Ġ23 12
Ġst rog
fer v
gan ca
Ġbom bom
Ġcal i
Ġwh isky
car do
Ġbl ind
Ġimp ort
Ġvita massa
Ġvita rel
Ġcl s
Ġen er
Ġmel ita
Ġtan go
Ġtan nat
lac re
Ġpan etini
Ġcrack ers
Ġgu ibon
Ġcan jao
Ġpalmol i
Ġsem orin
Ġgoiab inha
Ġpred i
ver de
tr in
Ġbra ganca
Ġgr is
Ġtr inch
28 8
Ġultra fino
Ġvis ion
Ġamar ula
flo c
Ġesfre g
Ġbea u
Ġsur pr
hid r
hid rashock
Ġgar f
Ġ413 78
nutri cao
Ġcopa cab
com fort
55 4
tin es
Ġtap etinho
Ġtoddy n
Ġlev ar
Ġlev it
Ġthe rapy
Ġfu esia
Ġnor sal
56 3
Ġgros elha
Ġka iar
Ġyo i
Ġperfuma da
fla m
Ġpresti ge
Ġalis ante
58 00
Ġpip per
Ġmarm ori
Ġond ula
Ġsele c
Ġori ente
Ġlol li
Ġsed ut
Ġtq c
Ġig ual
real cador
Ġevol u
Ġflane x
ali mao
Ġfib r
verm elho
Ġativa d
Ġativa x
Ġdenta d
Ġ412 3
Ġny lo
Ġpurp ura
Ġbiscro k
Ġsurpre end
Ġfron teira
ska la
Ġsemides n
Ġdesidrata da
Ġ2800 924
Ġvib rante
Ġespagu etinho
Ġrecup e
Ġferramenta s
gli cose
Ġpata ti
paco quita
Ġspon tex
Ġtripa cao
Ġpulver izad
Ġia ra
Ġagri doce
Ġpalete s
Ġpresid ente
Ġpn k
Ġdanon in
caram elo
Ġcant ina
Ġsinte tica
quad ro
Ġpocal ipse
Ġarrab iata
flut uador
Ġsedu cao
benja min
Ġvta ki
tylen ol
Ġmandacar u
hero i
Ġmacarr onete
Ġuniag ro
Ġhondas hi
queros ene
Ġperme giana
Ġ41378 89
Ġkaiar y
0 29
1 89
2 75
4 900
9 40
b ana
b eij
i qu
k est
l ista
l end
m int
n n
o reo
p ri
q c
r xo
r ucu
t nt
z ero
Ġp banh
Ġm cachos
Ġs cho
Ġs ket
Ġs low
00 1
re no
la te
Ġb ros
Ġb ene
Ġb lowtex
al z
ar ne
ar gan
Ġd inal
Ġl om
Ġl este
ml pg
Ġ5 23
Ġn k
to o
to tal
to prazol
Ġv c
ri da
da masco
ti al
ti ce
Ġli pex
Ġre trato
Ġco elho
Ġin cont
et one
et ria
pa c
ul es
Ġ8 10
Ġ6 78
Ġal y
Ġal ub
Ġal etria
Ġj s
40 1
Ġmar io
Ġdo ub
Ġba ct
Ġba tida
Ġto mat
Ġpa g
ac lar
Ġcr ony
Ġ10 35
fe cula
mo rado
60 5
Ġvi to
Ġvi br
Ġq e
su kest
Ġflo p
Ġflo randa
Ġne ga
Ġbo ys
Ġbo cas
Ġbo cardo
fa ixa
Ġ00 010
que adeira
Ġ15 642
Ġcas s
Ġreg ul
fr c
ras queadeira
Ġgo ia
ad dera
cal d
Ġita iqu
Ġperf u
enta o
90 777
mas tig
Ġad ipo
esp u
Ġda col
bo om
Ġban co
cor te
aro la
Ġem ili
Ġdi va
Ġdi ete
ita ke
Ġgran atus
Ġros quin
Ġ900 4
Ġgre cin
89 8
Ġsc aro
ff aclar
Ġna kau
Ġna morado
Ġpan toprazol
Ġson h
Ġ789 5800
Ġ17 65
Ġbeb ida
Ġ240 4
ten da
Ġpes ado
45 5
Ġtran cada
Ġbel g
Ġfo f
Ġ39 8
48 4
Ġ96 00
ie ra
Ġrosca do
42 90
Ġgela dinho
Ġrep ort
Ġalk in
Ġ413 69
Ġlon gos
Ġfi re
Ġessen tial
Ġamazon ian
pi ranha
we ppes
Ġmod al
Ġantibac ter
Ġ54 12
Ġult grip
Ġfel ic
Ġtuc uma
Ġresta u
Ġpip pos
Ġmarro q
Ġcano a
Ġbut ui
Ġlu ar
Ġpoo h
Ġcel eb
Ġcel ebra
Ġilum inador
Ġfinal izadora
ipan ema
Ġevol ution
Ġbeat y
Ġly cra
Ġclo y
Ġoil s
redo x
Ġapa che
Ġ26266 241
Ġcy lin
Ġis ol
Ġmmus c
Ġskin y
Ġsam ito
215 13
Ġ4115 8
yak issoba
Ġnino tela
Ġvib es
camp ari
Ġaza pa
Ġ4135 19
rap ido
Ġmassage adora
Ġsque zze
Ġintel bras
Ġ4130 35
Ġ218 6
2478 2
jard im
gramp os
Ġlavag ens
Ġwei zen
Ġguan ab
Ġxyl itol
Ġlambrus co
cica tri
Ġix b
panque queira
Ġipi ranga
Ġgave ta
Ġstik sy
Ġsma sh
Ġladr ilhos
Ġshop k
Ġfana tico
Ġbene f
Ġdinal le
Ġalub ia
Ġitaiqu ara
Ġadipo wer
Ġemili ana
0 30
3 12
b tus
e g
e u
g iz
i re
m ente
m ida
o ur
s ti
s fera
t udo
x clor
ra y
Ġm ut
Ġs tic
Ġs colesterol
Ġb erry
te ria
ar mario
Ġ2 12
ml ml
Ġf ul
Ġf br
Ġa tor
en gate
Ġn ana
Ġn protein
Ġg sb
Ġg xg
il h
el ete
Ġv il
Ġv inga
Ġv lr
Ġ4 95
Ġ4 119
ti d
ti vos
Ġre inos
ia do
ia gem
Ġh dr
Ġla me
Ġe ferv
de pos
Ġk as
Ġo t
Ġi vete
Ġ7 500
Ġ6 120
con fort
om elete
Ġde xclor
Ġse ren
Ġcol una
im ed
Ġes fo
Ġes tella
ur inha
Ġmo o
Ġw c
Ġpa para
Ġqu d
Ġqu ebra
Ġ50 4
chin h
ac end
Ġ25 6
Ġtri ump
Ġch er
Ġch ul
Ġ90 20
Ġsh col
12 75
az e
mb l
Ġra f
Ġlav lo
Ġbo bo
fa ello
Ġ00 90
Ġtp k
Ġz z
Ġsup erman
24 2
Ġfor mas
Ġac rim
Ġac endedor
Ġ60 30
can e
bo oster
Ġ23 8
Ġ23 84
Ġdel ux
Ġdi jon
13 78
Ġ70 56
Ġmas tig
ant iseptico
Ġ16 00
Ġcal end
ap liq
Ġped icure
Ġimp e
Ġsuper led
Ġjo ta
Ġex ta
Ġdu eto
man jer
tra va
ban an
Ġfruta u
44 4
Ġpri eto
Ġ45 4
Ġfort lar
Ġfran ce
Ġmult color
Ġcan e
17 17
Ġ22 82
Ġ22 950
Ġpes cada
23 168
Ġitamb ezinho
Ġ19 8
Ġab elha
gran ado
Ġbel le
Ġcast mel
Ġfo finho
Ġres gate
Ġ32 1
Ġsec chi
ver sor
Ġfri t
Ġprima ver
Ġfer r
cam isa
wh it
Ġ27 10
Ġaca j
Ġfra ca
flo ral
42 9
Ġant is
600 0
ok s
Ġhava iana
Ġste v
hid rata
Ġpela dos
Ġespecial idades
colo re
Ġqjo tom
pim ent
Ġdiv ino
Ġinspira cao
Ġdoura d
Ġada p
Ġhel t
Ġtw is
sec ante
reg istro
Ġameric an
Ġorto don
we et
27 6
Ġbrig ht
baby sec
Ġreche ados
Ġwom em
Ġmama e
Ġalmofada do
antil y
Ġutil i
Ġutil idades
char ming
69 6
Ġabsol u
Ġdom ini
pre go
Ġsat urno
cg l
cro c
Ġcitri c
Ġdra gon
Ġfolha gem
Ġpica dinho
Ġ7622210 58
Ġ49 7
Ġdisco s
Ġfre ix
Ġ2595 1245
head set
umid ificante
Ġ410 335
pei x
Ġapa ga
Ġati frizz
Ġcorte z
Ġlamb eu
Ġenri que
Ġ257592 1717
Ġrala d
Ġmes h
Ġ139 20
Ġmina mel
Ġwal ker
Ġess ent
905 33
209 74
Ġaur or
Ġ4135 10
Ġaqua rela
Ġlos artana
Ġdig ital
Ġtripa c
Ġagra plast
Ġriv iera
Ġ41414 9
Ġumedec idos
Ġcau im
Ġantiva z
Ġree quil
Ġesta te
Ġruf les
Ġfortif icado
Ġcoton ela
Ġdep ila
Ġ590 9
Ġjab utica
Ġtanque ray
Ġondulado s
tran sp
Ġespo rao
Ġcomporta dos
tapio queira
Ġrey mar
Ġprac tice
Ġcostazz urra
Ġarau co
embal ixo
sorren tino
Ġborgon ha
Ġleopol dina
Ġput z
Ġsent inela
Ġnex care
Ġondu lada
Ġtrinch ante
Ġlolli pop
Ġ41369 3500
omelete ira
Ġdexclor fen
Ġpapara zzi
Ġtriump h
2 18
4 26
7 200
9 1056
b lack
d ure
f resc
g ill
h ct
i mao
m it
m iss
p rol
r ing
s in
s eira
v ich
Ġc cenoura
Ġc cgl
Ġp iz
Ġm k
Ġs ita
co min
al os
al erg
Ġ2 227
Ġ2 229
es sao
Ġd ur
Ġd ad
Ġd ren
or g
Ġl cd
Ġl cro
Ġf an
Ġg il
il os
ma os
Ġv ab
Ġv fa
50 8
do h
Ġco rac
ia to
Ġh ol
pa ca
Ġe zo
qu es
Ġpo la
it an
bis n
ul t
Ġo it
des if
kg pg
Ġ6 42
Ġ6 46
Ġ6 168
Ġ6 399
con h
Ġ9 60
Ġj anela
Ġ12 80
Ġ12 92
Ġx plo
Ġ100 240
Ġse xy
Ġmar inha
Ġmar bel
um mis
pe ti
Ġcon for
Ġcon fo
Ġes to
Ġar redon
Ġar nica
ur inho
Ġmo bil
Ġplas u
Ġw ind
Ġpa ys
30 62
ole os
Ġam et
ac il
ct or
Ġtri vari
ona do
so quete
80 15
Ġ90 2
Ġor feu
Ġvi be
Ġbab ado
Ġ0 851
ica m
ura da
Ġ00 2
Ġ00 5
ki ka
Ġmin o
ion ario
Ġcas c
Ġcas ei
Ġmara cu
Ġlimp esa
Ġsad ilar
Ġorig in
Ġve gan
Ġni k
Ġni ve
Ġ60 19
Ġmon d
Ġdes s
Ġdes tino
Ġ24 55
Ġad p
bala n
Ġ23 3
Ġ23 26
Ġ23 28
Ġ23 62
Ġbco s
Ġban maca
Ġcla u
ido ra
Ġem erg
Ġ70 55
Ġ16 72
14 1
no va
alha o
Ġperd i
Ġbio fresh
tra do
Ġsu is
Ġsu fre
Ġsu fle
16 9
Ġest rel
Ġen r
Ġen vol
18 00
Ġmed ic
Ġmed idora
lado ra
Ġmag icos
Ġ45 6
Ġacti mel
Ġfort l
Ġha us
Ġhi k
pas sas
64 1
Ġtur mix
escova o
Ġsoft lot
Ġfa e
Ġja mel
ext ra
Ġ22 90
Ġ22 32
Ġ22 84
Ġmc ca
Ġ240 5
Ġcarm el
Ġcu tia
Ġ36 1
Ġmand i
ile u
Ġres f
Ġsec rets
quei jos
Ġ27 7
Ġmae terra
Ġ115 2
Ġav ent
Ġfun da
Ġtor ra
Ġveg et
Ġmac boy
Ġbal s
be pantol
Ġkar ina
Ġkar pex
Ġdar dos
Ġsand alos
Ġcaip ir
Ġpim ent
Ġpul gas
Ġ29 2
Ġdul eite
Ġcopa iba
ama relo
Ġchoco waffer
Ġlev itta
Ġoliv eira
Ġag tal
Ġ414 185
mix er
Ġpod endo
Ġperfuma das
Ġsensi ti
Ġpur ina
Ġalma co
Ġ01 14
Ġfp b
Ġnas c
Ġ112 4
chur r
Ġjun io
Ġair on
Ġcharm inho
Ġhero inas
emp ada
Ġume ct
Ġ225 5
Ġcitri ca
Ġspa gu
88 8
Ġcremos iss
Ġpequ en
Ġball et
Ġpoli et
gl os
Ġlr v
Ġcli pa
Ġapa relho
Ġcarr inho
Ġsi ena
cook top
Ġ2613 1
Ġpeix es
ser ra
Ġbre ton
Ġmes tico
Ġtetra color
Ġmacar ico
Ġguard anapo
Ġdesidrata do
Ġsafa dona
Ġchocook y
Ġgarden ia
Ġrigat one
antisse p
Ġfris ante
Ġstyl ish
Ġazed inha
cala b
Ġ41394 12
Ġdk asa
Ġya ki
plu gue
Ġbabo om
Ġdub lado
Ġpetr oleo
Ġtenta cao
chocola tto
Ġcamel inho
Ġalas ka
Ġtermo lar
lacto se
cran berry
Ġmontan ha
Ġaguac rim
chiken itos
Ġread y
Ġjub ileu
Ġ7896016 60
Ġeduca tivo
Ġlyso clin
Ġpne us
Ġbranque ador
Ġorval ho
Ġartesan al
Ġbaquel ite
Ġcaba re
Ġrecupe racao
cicatri cure
Ġful l
Ġqjotom manj
Ġcortez ano
dure poxi
miss iato
vich y
Ġlcro ck
Ġxplo de
Ġarredon d
Ġtrivari etal
kika kau
0 100
0 263
2 90
4 130
8 90
a a
a w
b j
c re
d ente
g no
i jao
o f
s sa
t he
u os
w s
Ġ rana
Ġ ervilha
Ġc es
Ġc ig
Ġc ir
Ġc cap
Ġc calc
Ġc tapioca
Ġc catupiry
Ġp fac
Ġp beber
Ġm n
Ġs om
Ġs sup
te via
al um
al god
Ġ2 228
Ġd ud
Ġl ct
Ġf gol
Ġt id
on ina
Ġa ten
Ġ3 263
un i
Ġg c
ha te
Ġv ento
Ġv odka
ab eto
ri mas
ti te
ti me
ve tte
Ġre pe
Ġco uro
Ġca pel
Ġca qui
Ġca upi
Ġla pq
qu id
go tas
sa pato
Ġ8 94
us ta
Ġk eita
Ġi on
le v
Ġ7 85
Ġro ya
res ist
Ġ9 397
gu i
Ġj arra
Ġ12 000
Ġse la
Ġse parador
Ġ400 5
po t
po radora
pe p
Ġcon te
Ġcon de
Ġcon cava
Ġcon sev
uc k
ur inol
Ġmo tiva
Ġmo dela
Ġmo rena
ne o
Ġr isco
Ġba d
Ġba vette
ter m
Ġcar tom
Ġcar nozes
Ġ50 5
ed redo
Ġ25 211
Ġ25 209
Ġtri co
Ġch illi
Ġ90 540
Ġ0 80
Ġ0 891
Ġlav cam
70 80
cha pa
cha ira
Ġri es
Ġri ce
Ġ00 32
Ġ00 37
Ġ40 50
Ġce p
Ġcas co
mar ilan
Ġ26 16
Ġ26 69
Ġlo acker
Ġac nezil
Ġni eto
Ġ60 47
15 6
Ġda iti
Ġanti t
Ġanti go
Ġ23 83
Ġban aveia
Ġfres imp
Ġnatu bom
ita i
Ġbi fe
Ġgal macleg
13 90
Ġ170 38
Ġ70 33
oll s
Ġfrut fla
Ġpira rucu
Ġpol idor
Ġ35 98
Ġcal cas
Ġ600 4
Ġap ito
Ġap pia
Ġmax iliss
Ġcha ta
Ġmaca banana
Ġdu rex
tra d
lan che
16 00
Ġpres qj
Ġpres qjo
Ġsen sor
Ġsen hor
34 513
Ġesp lend
Ġsil red
Ġsalon line
Ġmilho erv
Ġextra to
Ġabaca x
Ġacti fibra
ren t
Ġha itai
Ġbe y
Ġbet ania
Ġ789 7080
Ġfrango bacon
Ġ28 85
Ġval s
Ġbauduc c
17 1
Ġvermel h
Ġ22 8
Ġ22 31
Ġorg ulho
Ġlte mel
Ġ110 250
Ġ110 249
Ġmil vde
Ġcu bo
Ġeconom ic
Ġ125 2
37 4
Ġcast choc
val v
Ġ39 3062
Ġceb sal
Ġ96 189
72 8
Ġpil se
Ġqual ity
Ġcolo bri
Ġcream y
Ġtr olls
Ġ55 82
ervilha cenoura
Ġpop ular
Ġfl ei
Ġtor c
Ġon ion
Ġret ard
Ġpom elo
Ġcons erv
Ġsv i
Ġpen n
Ġbat h
son ho
Ġ66 2
Ġpia klin
Ġpim en
Ġbarr il
Ġeco bras
bar be
Ġqj veg
Ġgala o
Ġmal icia
Ġintens if
Ġfi ijao
jer ry
Ġcalabre z
92 7
Ġlava gem
Ġpor o
Ġshoul d
Ġtrop time
99 1
Ġmad ei
Ġale c
Ġale gra
Ġmetal ico
tab le
cons erv
Ġlan olina
Ġlan onina
Ġpin ca
Ġcg t
eva poradora
Ġkarite baun
Ġmama doro
Ġmb p
Ġ54 19
bri te
Ġexp re
Ġexp ort
Ġ78 65
Ġ7896013 100
Ġran iti
Ġescova crem
Ġae ra
Ġae rado
cra cker
Ġdun ort
Ġfluor calcio
Ġvin tage
Ġvin gadores
Ġ69 77
Ġcont ol
Ġio ad
Ġ225 7
Ġ98 006
Ġkat u
pom odori
Ġdra g
Ġdra ft
Ġplat ino
Ġmamao lar
Ġaleg rim
Ġgam er
Ġguaran aroma
Ġvel ho
Ġcre pe
Ġcf acil
Ġpredile c
Ġlen co
Ġlen cos
achocola ta
Ġcri at
Ġsabonete ira
Ġacril ico
Ġ1250 5
Ġchocol hate
214 30
cla ro
Ġ168 44
Ġmorban maca
Ġparme g
Ġlag rimas
Ġ08 62
Ġ975 71
ru bi
Ġmf p
Ġcapa cho
Ġ139 00
Ġhome play
Ġ205 94
Ġmaqu iagem
Ġcarto g
Ġcuticu las
Ġnw m
laran j
Ġ224 2
Ġanj inhos
fem e
Ġfidel inha
Ġencorpa dos
Ġic ebo
rop ole
Ġaromatiz ante
Ġ713 326
Ġregu la
Ġrend inha
205 34
Ġlet rinhas
Ġbolach itas
Ġtia tivo
Ġ7896237 90
iros ka
022 16
Ġ158 31
Ġalfab abeto
descas cador
Ġconfei tado
Ġmento lado
Ġ789859 145
Ġcaix inha
Ġcaval o
Ġdiete tico
Ġfof itos
cane cao
manjer ona
Ġfreix en
gill ette
Ġvab ene
Ġpola ca
Ġwind sor
Ġamet ista
Ġfgol imao
Ġtid y
Ġmodela d
Ġrisco ssa
edredo m
Ġfresimp ac
Ġfrutfla mby
34513 6
Ġraniti dina
Ġcfacil itador
6 100
7 70
9 48
a ka
e ffaclar
k inha
k im
s im
s ilhouette
t le
u icao
y oki
Ġ ut
Ġc cera
Ġc eno
Ġc bico
Ġc umb
Ġc manj
Ġp j
Ġp ista
Ġp cab
Ġp gelo
Ġs j
Ġs ing
Ġb w
Ġb it
ar ma
Ġ2 94
Ġ2 226
Ġ2 248
er vo
Ġd ino
Ġd car
Ġd eixa
Ġa va
Ġa cer
Ġa vel
is cas
is queiro
ro m
Ġ5 46
Ġ5 1000
Ġg aby
il te
el ina
Ġv es
Ġv ho
50 219
ri to
Ġre m
Ġre to
Ġre ke
Ġco quinho
Ġun ion
Ġh frc
et ro
Ġe a
Ġe da
Ġe tico
qu ino
qu inhos
Ġpo mada
sa ude
Ġ8 384
us inho
Ġk est
Ġk ama
Ġ7 727
Ġ7 656
va gem
Ġ6 75
con ut
con fei
Ġro ca
Ġro ta
Ġro th
gu mel
Ġj ustica
Ġ12 41
up ass
Ġse a
Ġse gu
Ġmar s
Ġmar gado
ral ho
ce bo
Ġsa h
Ġcon chinh
od orizador
Ġes tam
uc ula
Ġmo on
Ġmo zz
ne ve
Ġfr t
ter r
Ġ250 2
Ġpro v
Ġto wn
Ġpa ona
Ġpa reia
Ġcar na
Ġqu i
Ġam arra
ac arne
Ġ10 40
Ġ25 210
Ġ25 212
10 9
so ut
Ġ90 54
Ġ90 408
Ġ90 550
Ġ90 554
Ġ20 4
Ġ20 9
Ġ20 68
Ġsh b
Ġvi vo
Ġq t
Ġq brilho
Ġlav lirio
Ġcoco algod
Ġte ek
mar rom
fr uc
Ġpr isc
ud inho
rat is
Ġbar t
25 7
25 122
Ġ60 18
Ġcap uccino
Ġ120 16
Ġdes t
90 3
Ġpe ace
Ġ80 227
Ġ23 30
Ġ23 23
Ġ23 45
Ġ23 31
Ġ23 61
na vel
Ġbi ela
ilha o
Ġ37 30
ka ke
22 00
13 34
Ġros c
ant in
tal heres
Ġ16 9
Ġ16 360
Ġpol v
no vos
Ġ600 6
car novos
Ġimp orta
Ġcl os
Ġjo ia
Ġref ri
Ġex ter
11 8
Ġflor fresc
br d
16 4
Ġsta g
Ġdr um
Ġen xo
Ġama rel
ff le
Ġfruta do
Ġmel cen
Ġsil ves
Ġpri tt
Ġhu e
Ġhe alt
Ġkit ut
38 2
Ġtotal p
Ġha mor
Ġalum ini
wa fe
Ġval l
cl ose
ped ig
Ġtang led
Ġflores t
Ġestrela do
23 100
23 34
Ġmat ina
Ġcu ervo
Ġ260 7
Ġcristal izada
Ġ175 37
Ġ175 87
Ġbel i
Ġperdig a
Ġfo guete
alho s
Ġdef ense
Ġdef riz
quei j
Ġ269 6
Ġoder ic
Ġaca ilte
pro m
207 70
Ġsport fan
flo go
Ġparaf usinho
Ġ34 20
eir inho
Ġcot t
Ġ41 108
Ġlem om
Ġnood le
Ġdis q
pate x
Ġvital le
Ġcotton b
bar r
Ġiso ton
Ġinvis i
Ġforma to
Ġaloe oliva
ama ranto
Ġtap i
Ġlim it
Ġleg carnovos
Ġ68 1
Ġag m
pi res
Ġsim eti
224 78
Ġ414 39
Ġgira sol
Ġpur issi
Ġmassa g
med idor
Ġdelica derm
Ġelect ric
Ġki bom
Ġglit z
Ġcg licerina
bro wnie
Ġ78 62
Ġutil is
Ġflow er
Ġspe ed
Ġrol on
Ġ98 008
cro issant
gi i
Ġand re
Ġ156 15
Ġ156 16
Ġcel ular
Ġbranc ura
Ġgeria max
Ġsensa t
49 29
Ġluminos as
Ġ1250 3
Ġ117 7
Ġturmal in
cuscuz eiro
Ġspr inger
Ġ86 29
Ġapa ix
quin ua
Ġpurp ur
Ġsam ba
lr b
Ġriso vita
Ġ124 94
Ġcarfgo cer
Ġcarre r
Ġ870 95
Ġ870 93
Ġargola o
Ġnho que
Ġrodo x
Ġmim osal
Ġcarnleg mac
pop corn
Ġgabri ela
Ġcompos ta
Ġ2327 3
Ġboa te
Ġmur upi
antisse pt
usco us
Ġsola pa
Ġccan f
Ġremo v
Ġmargar ida
Ġmanjer ic
Ġ1635 1
Ġlun ar
reche ad
ting itex
Ġpren da
Ġaspar t
Ġrepos itor
Ġpraf est
Ġocuis i
Ġcaj upass
Ġtai ff
Ġbuz ios
Ġ795 56
embarac ante
Ġajinom ot
Ġhidroca ut
Ġpresunt inho
Ġautomo tiva
Ġdri ve
Ġpalmer on
Ġcrims on
Ġretor navel
Ġrever so
Ġefe to
Ġitap ua
Ġreequil ib
Ġdepila torio
Ġnik ko
balan ca
Ġavent ura
Ġsela gem
Ġ2669 25122
Ġdcar m
Ġroth mans
gumel os
Ġpaona ch
Ġcarna uba
Ġ9054 1
Ġprisc ila
Ġhamor nia
Ġsimeti con
0 64
1 95
4 13
8 75
a co
b est
b low
b usco
b etame
e gr
e ter
e pis
h ello
j ucar
k m
m n
n q
n ar
o fil
p ped
p aleta
r v
s om
t ti
z ip
Ġc qj
Ġc canudo
Ġc cab
Ġc caroco
Ġc vida
Ġp pp
in te
Ġ1 100
re po
an is
an ne
co z
Ġb jo
Ġb ion
Ġb etame
te k
te queira
Ġ2 249
er y
ol ino
Ġa taca
ta pa
en ix
Ġ5 24
Ġn idi
Ġg az
ma ggi
to milho
Ġ4 248
ti to
Ġli ban
Ġli ofil
Ġre bu
Ġre new
Ġco gumelos
Ġma co
Ġin veja
Ġe ff
Ġpo x
io c
Ġ8 39
Ġk in
Ġk om
ig gi
Ġi kit
des in
Ġ7 30
Ġ7 243
Ġ7 756
con v
Ġro ots
Ġal po
Ġ9 11
ba w
Ġx il
Ġse rena
Ġmar sh
Ġmar inga
Ġmar chand
pan etone
Ġdo utor
Ġcon tro
Ġes pan
uc ci
Ġar gos
Ġmo ct
Ġr ist
Ġr xo
ero gra
Ġpa i
Ġpa zze
Ġpa jucar
20 19
Ġqu ik
Ġ50 4929
cond ensado
Ġan jos
ac cu
Ġaz ei
Ġbr k
eb ond
Ġch ipo
Ġch bc
Ġ90 455
Ġ90 413
Ġ150 16
Ġpet al
Ġ20 18
Ġsh co
12 504
Ġne gr
Ġpal la
Ġte flon
Ġ15 58
Ġ15 51
Ġ40 46
Ġce per
Ġel ite
Ġlo op
Ġlimp o
Ġsup s
Ġinte x
Ġsad i
sor riso
15 7
Ġcolor idas
Ġle on
Ġle vin
Ġ24 95
Ġ24 18
Ġcor ilon
Ġlimao glace
Ġda fr
Ġ80 12
Ġ23 60
Ġ23 25
Ġ23 270
Ġbril hex
Ġban deja
Ġbi color
13 12
13 56
uri kake
Ġme k
Ġho ps
Ġcl iss
Ġ14 20
Ġ14 888
espon j
Ġbio s
Ġlight s
Ġmaca ban
man ns
Ġflor m
azeit on
16 3
Ġbras temp
Ġen rol
Ġsen ad
Ġ18 52
Ġna v
Ġpar iggi
Ġtres e
Ġinv er
Ġcra vo
if ic
Ġ17 00
Ġ17 148
Ġ17 4130
Ġ75 50
Ġbaun ch
Ġja ra
Ġmus ical
vin h
Ġ22 98
Ġ22 96
Ġarroz cald
via gem
Ġvan is
Ġcaes ar
Ġta mara
Ġsens ive
Ġblu sa
Ġ38 4
19 9
Ġfo ra
Ġhar ry
Ġ96 191
Ġ280 5
Ġ27 85
Ġtr uck
Ġtro feu
Ġfanta sia
Ġfra c
flo co
Ġtor cedor
39 00
Ġceram i
tiva do
tas ona
Ġsao pl
84 12
Ġten is
Ġ700 2
Ġcapri lat
Ġauto klin
Ġbul e
Ġfleis c
Ġkel bit
Ġlon guete
gon d
Ġdoc ura
Ġ76 21
Ġind icat
Ġpta o
Ġmam ita
Ġtort ini
Ġgus t
Ġbarbe c
Ġcarn macleg
Ġsun gao
Ġale gr
Ġreche ada
Ġmos mann
Ġcolora u
Ġza pt
Ġfiat lux
Ġtip py
Ġmer l
Ġcabo clo
Ġmet ropole
Ġ54 13
den itos
Ġult g
Ġrit ter
Ġhamb urg
Ġcama das
Ġss s
Ġport ug
Ġ69 7
pira c
pom arola
Ġftas mel
Ġ59 39
Ġ156 14
Ġdiver tida
Ġlumin oso
Ġqueen b
Ġamendoa cacau
Ġkera max
conf ianca
Ġsch weppes
fun c
Ġbeat h
Ġgranola mel
Ġir resis
Ġreserva do
Ġ40000 160
Ġbone c
Ġposs essao
Ġbian c
Ġ41415 860
Ġ149 21
Ġmold ura
Ġdesf iado
Ġcria tivo
Ġnordes tino
rec ip
marm itex
Ġpot ter
Ġplay doh
Ġhd mi
Ġsupe racao
Ġgol de
rich ester
Ġenerge y
Ġpampeano branco
Ġlanch ester
Ġdefuma do
Ġdim el
Ġdiar i
Ġ840 5
cid reira
disco s
moch ilete
Ġ134 2
Ġtig ela
Ġ1495 8
Ġet n
060 15
vig or
Ġ226 8
Ġ4130 30
Ġfrescat ino
desengordu rante
Ġ898 2
Ġtara paca
Ġbow ls
Ġalhoceb ola
Ġdist rac
rote ador
Ġtodecach inhos
Ġdescafe inado
fel tro
Ġcintron ela
Ġversa til
Ġadi tivado
Ġballan tines
Ġ819 35
Ġprese unto
Ġkerat in
epa rema
Ġmicel lar
Ġtagl ia
estoma zil
trin cha
beij inho
Ġshopk ins
Ġ1600 80
Ġcalend ula
the oto
Ġmotiva d
Ġsaboneteira porta
Ġfreixen et
Ġteek anne
Ġreequilib rio
epis ol
Ġikit uri
Ġmoct uti
condensado ra
Ġchipo tle
Ġsaopl io
Ġkelbit s
4 75
a vel
b s
d ra
d io
f eno
h ia
h yd
k z
k ao
l os
l pg
m go
o ph
o timo
p erola
p regador
r x
t qt
v im
y te
z om
z eit
Ġc depos
Ġp k
Ġp esc
Ġp cabelo
Ġp unhas
Ġ1 150
Ġm imo
Ġs aro
co g
Ġb y
te ir
al faz
ar os
es to
Ġd ett
or io
or inho
or qui
Ġf rent
Ġt ic
ca ip
ca mpo
Ġa ber
is ao
ro ga
ro xo
ro polis
Ġ5 38
Ġ5 31
Ġ5 83
un iao
Ġg arraf
Ġg ratis
il ico
il ton
ma ti
to ya
mp anos
el x
Ġv este
as b
Ġ500 2
da da
ti vel
Ġli x
Ġre car
Ġre bbit
do u
Ġco qu
Ġma mb
Ġma tic
ran ca
Ġin b
Ġh th
Ġla mp
Ġla rac
it ario
sa peka
de con
Ġo ca
Ġo rem
Ġi phone
Ġde to
Ġal vo
Ġal mond
Ġ9 10
Ġ12 15
Ġ12 16
up ro
li e
Ġtra tada
ga z
ga ra
Ġ400 005
pe a
ce te
Ġsa my
Ġdo is
Ġar u
Ġmo t
Ġplas zom
Ġpro saude
Ġto zan
Ġnes lac
Ġcar ret
Ġam eno
Ġdent ro
Ġcr choc
Ġcr ista
Ġ25 2
Ġper gol
Ġbr ush
Ġtri c
Ġ150 15
dor flex
60 13
12 10
Ġ0 994
mb ole
Ġra lo
Ġra vital
Ġri ta
Ġri cal
Ġri gate
Ġte am
Ġte ix
Ġte ka
Ġ40 2
Ġ40 900
Ġz en
Ġpre cio
Ġno fus
Ġcas ta
Ġel sev
Ġwa fe
Ġsup rem
Ġman ic
lu za
Ġcho bco
Ġfor r
Ġcamp ing
Ġac in
25 9
Ġve ram
Ġlac bom
Ġbon acarne
enta do
Ġleite cereais
Ġad ren
esp ar
Ġfgo qjo
Ġanti pul
bo avistense
Ġ23 24
Ġ23 15
Ġ23 22
Ġ23 198
Ġverde cranberry
ib ol
ita ka
Ġdan ix
Ġ35 10
Ġpra tico
car n
Ġbl ist
Ġcl ia
Ġgre y
Ġ14 946
Ġap ren
Ġap eri
mon tilla
Ġex ec
Ġfem me
Ġneut ral
89 5
tra c
16 1
Ġest ilos
rela x
Ġama sa
ff in
Ġ18 53
Ġsil es
44 6
Ġmag nes
Ġinv i
Ġacti o
end as
Ġas as
Ġpan co
Ġhiper plus
Ġ17 6
Ġcam uf
Ġ28 37
Ġades iv
Ġval v
cl ic
Ġao c
ph il
ten cao
Ġtramon ti
Ġtrip l
Ġadul ta
Ġmil len
Ġ36 23
36 3
36 7
Ġcp erf
Ġcp ropolis
Ġeuc ali
Ġdef um
tr oninho
Ġ27 8
Ġ27 66
lub rif
Ġorgan i
Ġsuav id
Ġmi asb
Ġlis teri
Ġfra g
inh alimao
Ġ220 10
39 6
bon d
Ġaj usta
Ġrep et
be terraba
84 9
Ġgar r
Ġgar cia
calca do
son hos
Ġcaip i
Ġkol yn
223 26
Ġ44 7
Ġ44 38
Ġ44 39
Ġhellman n
Ġmant cacau
33 60
Ġgros sa
Ġcatup ir
Ġfas ano
Ġvol cano
Ġsel etta
27 9
Ġ414 13
Ġlin tea
Ġave bov
Ġ93 36
Ġhal it
Ġ31 14
Ġgas pea
Ġser ies
Ġ105 8
Ġcg erg
Ġmer luza
Ġmarti mpanos
leg mac
cast ing
Ġinter roga
54 15
champ ig
Ġpis c
Ġ789601310 4
Ġspe ci
emp an
Ġder by
Ġ225 1
Ġeiri flon
ris ole
Ġschin car
Ġ156 38
Ġtranqu ila
Ġdark ness
trigo lar
Ġinfan c
Ġvas o
Ġsensa c
Ġit alia
soft color
Ġmari tima
Ġrevital iz
Ġreno va
Ġ613 48
Ġequil ibri
Ġben itaka
Ġbeij ar
Ġrc ell
Ġ149 80
Ġ149 31
Ġchok ko
Ġxtra cool
Ġ108 60
Ġintegra le
pm enta
Ġalte res
Ġ23180 484
Ġrou ge
Ġmart ch
ime ji
Ġlamb r
Ġ231834 40
Ġ231834 80
neut ro
Ġmf m
Ġsala me
Ġng tqt
Ġfantas tic
Ġ231824 00
Ġ231824 40
Ġoptim ix
Ġautoma tico
Ġgalinh legmac
Ġplut onita
Ġ0000000000 0000
Ġduc k
chim ichurri
Ġtour in
Ġ7896044 9
Ġ670 9
Ġ1495 5
Ġtat too
Ġchen son
Ġprofiss ion
Ġcarmin h
cent rum
Ġpetis cao
Ġmun ich
Ġvei cular
Ġacopla d
Ġfirma dor
Ġfirma dora
Ġ231804 24
Ġ231804 14
Ġmemb rana
cris p
legu mes
Ġrica eli
Ġacel er
Ġ6100 3
Ġpesse g
fib ras
fig ado
Ġrespira vel
Ġwit bier
Ġwickb old
Ġalla din
bata t
Ġcostel inhalimao
Ġcglit t
Ġacetil ciste
sapa tenis
Ġflop ito
Ġcelebra tion
mit tos
Ġpays an
Ġmino ra
Ġ1672 15
Ġsufre ch
Ġmcca in
Ġspagu etti
Ġdud uxo
Ġvals artana
Ġsegu ranca
Ġbart olo
Ġnikko h
Ġsss f
Ġirresis tivel
alfaz ema
esto pa
Ġdett ol
orqui dea
Ġaber ta
Ġlarac erola
Ġorem us
Ġalvo rada
Ġcarret ilha
Ġbrush ing
Ġravital y
Ġteix eira
Ġveram enta
Ġcamuf lada
Ġkolyn os
Ġinterroga cao
0 40
0 15
0 33
4 300
5 30
7 14
b eta
d ant
d ena
d white
d vd
e asy
g h
g iza
h y
h ell
h ill
l j
l er
m ir
n x
n te
n ity
o do
p iso
q clor
r se
t ur
x antin
z ina
Ġ eri
Ġc esprem
Ġc iclo
Ġp ole
Ġp eit
Ġp man
Ġp viagem
ra io
Ġs queez
re y
la b
an an
co res
Ġb ent
Ġ2 72
Ġ2 245
er no
Ġd ina
Ġl co
Ġl cos
Ġf x
Ġf ras
Ġf sb
Ġt n
Ġt faca
ca c
Ġa x
Ġa ga
Ġa ge
Ġa dere
Ġ5 42
ha ma
Ġv int
ti r
Ġco p
Ġco u
Ġma io
Ġma chao
ran ja
Ġh oney
Ġca mb
pa u
pa ixao
qu ilho
Ġpo es
sa que
sa ko
Ġ8 14
Ġo at
Ġo gc
Ġo vinhos
Ġi ws
le mento
Ġ7 106
Ġ7 276
Ġ6 14
Ġro jos
Ġj ubes
Ġmar chi
Ġtra va
Ġsa ilum
Ġsa quinho
Ġcon j
Ġes mal
Ġes kibon
Ġar mar
ne cessaria
Ġba f
Ġba rat
Ġfr sb
Ġpro upa
Ġw d
Ġw ester
Ġcar ga
Ġqu alim
Ġ50 8
Ġan tad
ac anela
Ġ30 10
Ġ25 00
Ġver des
so f
so p
Ġ150 17
Ġ150 48
Ġor bi
Ġ20 20
Ġ20 19
se parador
Ġsh itake
Ġinf lav
Ġu ira
ico co
Ġbo tijao
Ġpal i
Ġpal im
Ġ00 64
Ġ15 700
Ġ15 701
Ġ15 696
Ġsal erno
Ġ40 99
Ġz n
mar ron
Ġmara s
Ġmara tito
Ġel ena
Ġman u
cho w
Ġfor mg
Ġcamp e
Ġcamp ari
ad idas
Ġac ele
Ġmon iz
Ġlac bac
Ġdes a
Ġdes g
Ġbon bon
Ġcor onita
Ġad va
Ġad st
Ġpl ua
Ġpl eno
Ġda gran
Ġanti q
Ġ80 38
Ġ23 37
Ġ23 69
cu ma
Ġcla ri
cor ta
Ġ37 27
Ġgran des
13 3
Ġ170 70
Ġpalm iza
Ġgra mp
Ġpol ibril
Ġ35 20
Ġ600 3
ap ti
Ġpra da
eta o
Ġpara ggi
Ġcom fo
Ġ14 903
Ġex terna
Ġmax imo
11 15
Ġdu re
Ġprem ie
Ġsen inha
Ġmol dada
Ġmed alha
Ġsil dena
Ġlam inas
Ġmilho fgo
pt us
Ġvit oria
cat upi
Ġnatural mente
Ġas su
Ġbe terraba
Ġdia raio
35 1
wa ffe
Ġ130 5
Ġjasm coco
Ġ17 325
Ġbeb by
17 24
ill us
Ġ22 50
Ġbol itas
ub s
66 3
Ġcaes gatos
Ġ110 35
anti mofo
sp ort
Ġ175 91
Ġrad ia
Ġpred nis
19 2
Ġpron l
tr ol
Ġpeito ral
Ġwaf ers
Ġaca boom
cot ubs
Ġmi k
Ġmi ks
barra ca
Ġsport fresh
Ġfree dom
assa rapido
Ġmis ang
Ġgar c
Ġgar fos
goiab a
29 7
Ġ13 177
Ġpoder osos
Ġqjo reg
Ġbor dado
Ġproa ut
Ġpel es
78 7
Ġinspira dora
Ġelet rica
Ġfi go
Ġhel iar
Ġsul fite
Ġthe ebond
abo bora
abo brinha
Ġko patex
Ġ56 2
Ġpeixe aves
Ġoliva manj
Ġumid if
Ġgira s
Ġdeco rad
med alhao
Ġlan cy
Ġhidro tere
free g
Ġbroch ur
Ġfp st
Ġmb m
Ġdefin ido
Ġ78 40
Ġ74 94
Ġfel p
Ġren at
Ġ69 85
Ġ225 3
Ġbut t
Ġlu br
Ġori ent
Ġlumin uos
lux e
Ġnin fa
Ġ2318 2480
Ġcf id
83 90
Ġ77 38
Ġ7622300 9
Ġmultia tivo
Ġlaranj eira
Ġaconche g
Ġsco rante
Ġbetan im
rog ena
Ġ1250 1
Ġ117 6
Ġ1500 9
Ġos so
Ġhor ti
Ġdesamarela dora
Ġmit t
Ġmit tos
tort illa
Ġlombo catupi
Ġeuro pa
Ġ23180 404
Ġfortalec ime
Ġ1080 60
Ġ231834 10
Ġrefor c
Ġnata sha
Ġluc ky
neut rogena
Ġsala das
Ġpelo urinho
Ġ305 16
Ġpear luxe
Ġ231824 10
Ġ124 93
Ġurs inho
uras co
Ġbanan acanela
Ġfro ot
Ġ134 3
Ġ489 1
bra vo
Ġ780 6
Ġbich inhos
Ġcamo ra
Ġrigat oni
Ġprofiss ional
055 6
Ġmargar ina
Ġdk plast
Ġlun go
Ġ898 3
fica da
Ġpsemp re
511 69
Ġabras iva
Ġblan co
Ġtha i
Ġ41329 20
Ġtoale te
quim ica
Ġauth en
Ġenxa g
Ġwi pe
Ġnivela mento
Ġbandei rante
Ġabx icoco
Ġbei ja
Ġfelic ity
Ġguanab ara
Ġchul etao
Ġ22950 10
Ġvegan a
Ġsing le
confei tos
Ġamarra r
eter nity
Ġataca ma
Ġgaz ebo
func ional
caip iroska
Ġmamb anan
Ġequilibri um
giza o
xantin on
Ġeri ka
Ġpman ic
Ġdina mar
Ġformg as
Ġlacbac illus
Ġdagran ja
Ġpremie re
Ġsildena fila
Ġprednis ona
Ġhidrotere zacao
Ġlombocatupi ri
Ġmambanan mac
6 30
8 19
c jo
c andy
c lav
d w
e ven
f am
g n
g lt
h ipo
j eiro
k ick
l kz
m ante
r cp
r ucula
s i
t w
t ten
u ders
v ic
w o
z y
z in
Ġc us
Ġc vinagre
Ġc esta
Ġc lip
Ġc entro
Ġp fogao
Ġp calcado
Ġ1 300
Ġm kit
Ġs car
co uscous
Ġb uca
Ġ2 188
Ġd rop
Ġf ad
ca che
Ġa tar
Ġa sap
Ġn ia
Ġg y
ma mao
mp son
Ġv t
Ġv az
Ġv elo
Ġv esti
50 614
ri pante
Ġ4 456
as alsa
da cos
ti ja
ch uv
Ġli tro
Ġco alho
Ġco medouro
Ġco ustica
Ġco uros
Ġco conut
Ġma da
Ġun h
Ġh inomoto
Ġh ilton
et or
Ġe vita
qu ero
Ġ8 64
Ġ8 31
de ret
Ġo vel
Ġo rel
ig erina
os t
Ġ6 34
con da
con versor
Ġde e
Ġro x
Ġal mon
res isten
lo ratadina
Ġse mb
Ġcol ga
pe dacos
Ġsa f
Ġsa y
Ġsa idas
Ġdo ra
Ġcon e
ne ces
Ġba tido
Ġba hia
Ġto ff
Ġnes c
em bala
Ġqu entao
30 4
Ġ50 1
Ġcr ys
Ġ10 112
Ġ25 214
Ġper sia
Ġper gola
mo ido
Ġ150 6
Ġ150 7
Ġor quid
dor itos
60 1
se ca
sal via
Ġinf l
Ġ0 42
Ġ0 2006
der mo
Ġlav erva
Ġcoco b
am anteig
ck et
Ġ00 4
Ġpt or
Ġte f
Ġte ia
Ġte ci
Ġpre bio
Ġpre gadores
Ġ26 1
Ġel j
Ġve ggies
Ġ60 1
Ġ60 23
Ġmon ta
vo arroz
Ġle vo
Ġle vita
Ġdes loratadina
cola pis
90 378
Ġcor re
mas s
Ġext re
Ġ80 14
cu ida
Ġbril ha
75 7
Ġban ha
Ġrosa flor
Ġtom erv
Ġdi re
che k
che ta
Ġme xi
Ġme cada
14 1115
no t
no val
Ġcal deret
Ġum i
26 60
car reg
Ġcl igerina
Ġsuper ior
Ġ14 38
Ġ14 898
Ġdu e
95 1
Ġsta ge
Ġen ca
Ġ18 54
Ġmag ri
Ġsemo lado
Ġbe er
ian i
ces sador
Ġsoft ys
Ġsoft color
Ġdog chow
bol inha
Ġmult cereais
Ġbaun mor
Ġpla na
Ġsemola ovos
Ġcro mada
Ġtal h
vas elina
Ġbrin q
Ġtab le
Ġgla tten
ich ers
Ġtran ce
Ġplasv al
Ġgd mac
Ġat t
Ġat ure
Ġbca s
Ġbel ga
19 76
Ġfo go
48 6
Ġtemp ran
Ġcp ure
bal eiro
tr ucao
Ġ57 38
Ġ210 20
Ġ27 31
pro x
pro cessador
Ġvitam i
Ġsuav ip
Ġled bul
Ġoxig e
600 40
Ġ11 89
Ġfit ness
Ġru ivo
Ġnood l
84 34
Ġgio conda
Ġcereais choc
Ġquim i
68 1
Ġbat cen
Ġcomple x
Ġrec kit
Ġju juba
Ġfix o
Ġfil me
Ġchoco soy
pen eir
Ġada ptador
Ġsul minas
bab ador
tri ciclo
Ġoliv asalsa
Ġag radavel
Ġrepa ra
aroma tizad
Ġ78960 890
Ġsel eta
Ġcuida d
27 1
Ġbrig it
Ġcarn ar
Ġgira fa
Ġmos kito
Ġantibac teri
Ġcs ul
Ġ89 84
Ġtip os
Ġstra pped
Ġth erm
Ġmer co
Ġsac uc
Ġ02 32
ste via
54 18
fl r
mara v
Ġyak ult
mi udo
elim ina
Ġadult max
Ġvar i
Ġcur va
Ġdecor festa
Ġclar in
Ġclar is
Ġass ar
sho t
610 6
Ġ789600370 3
Ġpica pau
Ġsed utor
Ġgeriat rica
005 34
Ġsn ichers
Ġcri ac
cin ta
cin za
mand io
Ġgul lon
cur cuma
Ġop ti
ric ca
Ġfig ado
Ġtac to
Ġquer ubim
Ġmesc lado
Ġ149 60
Ġ149 37
Ġinti mas
Ġchok k
Ġchok ler
Ġphiladelph i
Ġ118 1
Ġpm c
final izado
mex ilhao
Ġdream ing
Ġamp li
Ġ1080 800
Ġ231834 20
Ġglo bo
pl ut
Ġsanf onada
Ġcica tr
Ġpetbr ilho
Ġtech n
Ġ231824 20
Ġsemides nat
Ġ4137 2660
114 6
chant y
Ġtext il
gli fa
Ġ7896 3360
Ġ8414 5
Ġtho mpson
deg radavel
Ġtat ua
Ġchan f
Ġecob lack
Ġsensation s
Ġambi entes
Ġvidr inhos
Ġcilind rica
Ġara gua
Ġmode lar
Ġmode ladora
Ġsuperf ic
Ġsuperf ixo
Ġ8416 213
Ġdegra de
Ġalhoceb ervas
Ġroad ster
Ġserv ice
Ġfeijo voarroz
Ġmastro iani
cata flam
Ġpino tage
Ġneutrali ze
aliv ium
Ġantica sp
Ġolimp ia
Ġ411554 9
Ġhambur gu
capel etti
bisna guinha
Ġ413700 7
Ġrecei tas
Ġatom ico
Ġvamp iro
Ġracer s
Ġgris alhos
Ġdoub le
redox on
sti cks
imed ia
Ġraf faello
floral yte
Ġjabutica ba
Ġveget ar
alum inio
Ġvento sa
Ġexter no
Ġdrum ette
Ġenxo fre
Ġbion ic
Ġinver ni
estomazil env
Ġlcos p
Ġuira pur
hipo glos
Ġcus cuz
Ġnia gara
Ġovel ha
Ġsemb ei
Ġtoff es
amanteig ado
Ġlevita re
Ġ8014 15
Ġmecada mia
Ġledbul b
Ġbatcen mand
Ġmoskito ff
" -
0 63
4 40
5 16
a er
a gu
b ene
c ps
e ga
e cha
e ys
h um
h esa
k in
k ed
l la
l ut
n al
n gr
n se
r in
s ang
v od
y or
Ġc sb
Ġc cereja
Ġp ral
Ġp ir
Ġp gato
Ġm inha
Ġs ra
Ġs cominho
Ġs fs
la fila
co o
Ġb ba
Ġb im
Ġb ica
Ġb loc
te book
al m
al ga
al eira
ar s
es teira
es fol
Ġl ja
Ġl oll
Ġl hama
Ġf sho
Ġt ico
Ġt ada
Ġt sun
ol ol
on hesa
ta mar
ta me
ta dela
Ġ5 45
Ġn ick
Ġn ania
Ġn onna
un x
Ġg ent
ma derm
to ra
el in
Ġv ela
Ġv inh
50 2
ri ba
ti lada
ch aleira
Ġli chia
Ġco gumelo
Ġco quel
ran e
Ġin iv
Ġh ene
Ġca va
Ġla x
Ġe colo
Ġpo lak
bis tequeira
ul mil
sa ker
de as
id ona
des colo
Ġ7 32
Ġ7 17
Ġ6 10
Ġde u
Ġde mo
Ġro su
Ġal ic
Ġal isa
Ġ9 95
ba re
ba gs
mac ia
up t
Ġse ag
40 3
Ġtra mo
Ġ400 1
pan t
pan el
pe pin
ref echa
Ġar tic
Ġar uba
ur fs
Ġmo cha
Ġmo cm
ne ck
ne osal
Ġr tc
Ġba hl
Ġplas tic
ter mo
Ġpro c
Ġpro ve
Ġpa pe
Ġpa ella
Ġcar olina
20 3
30 3
sh eys
ed ent
10 7024
Ġaz uma
Ġch um
12 42
su sako
Ġra r
Ġra to
Ġra sa
Ġra violi
Ġne oto
ist ina
ist nse
Ġbo av
Ġpt int
que rat
Ġte kitos
Ġ15 77
ano tek
fil ha
Ġel m
cho cotubs
ad vil
me ca
sor bet
Ġpas sport
Ġle van
Ġmulti us
Ġmulti prot
Ġdes per
Ġbon ar
90 390
Ġpe per
Ġpe pino
mas sas
Ġpl s
Ġ23 21
Ġ23 29
cor pus
cor retivo
Ġrosa to
Ġmor tadela
comp ost
Ġbi finho
Ġgal ze
Ġgran ts
Ġlig th
ci flo
Ġme ren
Ġsp ira
Ġbom banana
no tebook
ton ica
Ġped ras
fral das
Ġbl is
Ġap liq
Ġap iment
Ġbio tropic
Ġbio sof
Ġbio bags
Ġdu bo
Ġga ti
Ġred uto
Ġdr oll
Ġen cart
Ġama ranto
Ġesp ulmil
Ġmol i
Ġ18 7
Ġhu go
Ġferm ento
Ġice fresh
her sheys
Ġna ia
Ġpan e
Ġpan que
Ġpan ex
35 18
35 19
wa ffle
ces t
Ġprof ess
Ġcrack e
Ġbaun choc
Ġcan ud
Ġpla fon
Ġhidra mais
Ġhidra vit
Ġcro m
Ġtal c
Ġ22 10
Ġbol in
Ġauro ggets
66 78
Ġmat susako
Ġab refecha
Ġcristal wave
Ġcitr u
Ġfo fs
Ġ39 4
Ġfri go
Ġfri end
Ġ57 31
Ġ27 76
top z
Ġtor ino
85 2
Ġaj in
Ġcer ta
Ġtut t
Ġsur ubim
Ġore inte
form ina
Ġbu g
aria dos
Ġlegumes frutas
Ġscot h
Ġpassa tem
Ġpaul i
Ġcapri c
Ġ413 50
Ġzoo reta
Ġfab ise
ani mais
sup ra
Ġbor da
Ġmei re
Ġado rada
Ġdiv is
Ġrec ic
Ġrec rec
Ġ44 72
900 00
Ġbrasil iz
Ġiso term
98 6
Ġgala x
bab osa
Ġtap ioc
Ġgros sos
Ġang aro
Ġsm ile
Ġsm urfs
Ġlava zza
Ġrepa rac
Ġdeseng ordu
Ġsg lut
Ġruff ino
Ġ414 130
baby med
Ġtransp ar
rev ital
Ġlisa hair
Ġze en
Ġleve za
salon pas
Ġpin go
Ġpi etro
Ġser tao
Ġstra ik
Ġjard ineira
Ġphyto ervas
Ġrev est
evita mofo
Ġmet formina
Ġexp lo
Ġexce d
Ġran ch
pr il
pil h
Ġge ada
Ġ64 19
Ġcama da
Ġ789601310 7
capa cete
Ġspe ar
010 5
Ġcur ry
Ġcur ls
Ġlavand er
Ġmm f
Ġclar issimo
Ġaeros sol
Ġneston utri
Ġdra ga
Ġ156 85
Ġ789600370 4
sens odyne
oriza d
Ġ107 18
08 18
Ġvel ha
Ġ97 663
Ġvo gue
dis play
005 7
Ġ000 6
Ġuni que
Ġ1500 4
Ġprimo rata
Ġfib er
gx z
Ġorqui deas
Ġben ni
Ġtac tel
Ġquer inho
Ġ168 45
Ġis is
pulver iz
Ġbalsa mo
Ġsap onaceo
Ġgord ura
Ġgeral do
Ġ23180 444
kol inos
Ġak iplast
oc ulos
Ġhigel imp
Ġ231834 00
Ġglo be
Ġhipo alerg
Ġtrav ess
Ġsanf onado
Ġ4115 5
Ġcaf et
Ġaza co
escuma d
ceta phil
Ġchen et
Ġecono clean
colch onete
Ġara me
Ġstyl us
Ġare i
Ġ832 1146
gramp eador
Ġbolach ita
Ġ41417 6
vis or
Ġcastra dos
Ġgalv anotek
Ġderma feme
Ġtartar uga
Ġmormai i
Ġsilicon ado
Ġpert ut
Ġdescas cado
Ġbifas ico
Ġgia da
Ġvie is
Ġmante guinha
Ġecol on
pista che
rapad ura
Ġesfreg ona
Ġondula das
Ġcylin der
Ġdelux e
colore ti
Ġenrique cida
Ġmaracu j
Ġmedic in
Ġpoliet il
flogo ral
Ġapaix onada
Ġsimeticon a
Ġloop ing
Ġsensive is
Ġrepet isco
neutro fer
hell manns
sop eira
resisten cia
embala gem
Ġcorre tiva
Ġbanha o
Ġcarnar oli
Ġantibacteri ano
Ġampli ficada
sang ria
Ġsfs l
Ġfsho ot
Ġtada lafila
Ġtsun ami
Ġiniv is
saker ita
Ġdemo is
Ġrosu vastatina
Ġseag ers
Ġmocm or
Ġbahl sen
Ġneoto p
Ġboav istnse
ciflo gex
0 84
5 10
5 25
8 80
b raco
c inz
c chi
e colapis
f uro
f ast
h ig
h ib
i deal
j s
l m
n os
n ite
o ke
p ig
p rel
s d
s ch
s ul
t uc
v ei
v ul
x l
y o
Ġc sup
Ġp racao
Ġp maq
Ġm ich
Ġm ts
Ġs ino
Ġs casca
00 2
la ka
la dinho
la pril
co mb
co bre
Ġb h
Ġb p
Ġb olete
Ġb ells
al far
ar g
er ino
Ġd upa
Ġd ose
Ġd vd
or ge
Ġf urikake
Ġf ngr
ol ho
ol ia
Ġa der
Ġa bre
is sa
Ġ3 22
Ġ3 11
ro ma
ro ba
en ico
Ġ5 500
Ġn al
un o
il s
to la
Ġv et
Ġv est
50 6
50 252
Ġ4 28
Ġ4 648
da y
ti az
ch antily
Ġli xeira
do cigoma
Ġma chin
Ġin gre
Ġin pm
Ġh emme
Ġla sag
pa k
Ġe tapa
ul ito
sa gu
sa ke
sa ida
Ġk ent
Ġo us
Ġo pt
le ao
le mon
Ġ6 12
Ġ6 35
om ilho
Ġde de
Ġde caf
Ġro ladinho
Ġal pes
lo tion
Ġ12 2
Ġ12 74
Ġ12 62
up e
Ġx ery
Ġx shot
li ance
Ġmar vi
ga ti
ga lao
pe u
Ġsa cola
Ġdo uro
Ġcon ta
Ġcon forte
ref ri
Ġes se
uc ional
ur r
Ġr ustica
Ġba ck
Ġba cal
Ġw ilk
Ġw ells
Ġcar nu
Ġcar inhos
20 10
Ġ50 2
ole g
Ġnat mel
Ġnat hyd
Ġy l
ed one
Ġan cho
Ġam ma
ante pas
Ġ10 82
ela da
Ġ25 7
so ja
Ġ90 410
Ġor lista
Ġsan ti
Ġ20 11
Ġ20 729
60 6
Ġso cor
12 4
12 90
Ġvi bran
az zo
Ġq luz
Ġlt t
Ġ0 32
Ġ0 249
Ġra io
Ġ33 1
Ġbo tica
Ġpal itos
am en
que en
Ġ15 4
Ġ15 60
Ġsal eiro
Ġce ti
pel ucia
Ġ26 19
Ġlo vel
Ġlo ken
Ġman gan
24 12
lu la
Ġfor cel
Ġfor rad
Ġcamp est
Ġbar rila
Ġve ter
cal da
Ġmon ang
Ġcolor pan
Ġperf eit
Ġbon q
can udinho
pra ta
Ġanti der
Ġanti coc
iss im
bo a
Ġ23 00
Ġ23 20
cu ta
Ġbi er
Ġ70 94
Ġ70 91
Ġmas ks
fo ra
Ġme o
Ġfrut inha
Ġfrut ts
Ġpol vo
Ġ35 6
Ġcal cuta
Ġfresh ma
gelat inas
eta s
Ġ14 3
Ġap ref
200 1
Ġchocolate s
Ġsu g
Ġen gen
Ġnutri ca
Ġdup y
Ġesp ira
bi ke
Ġ18 49
Ġfla m
Ġpar rila
Ġcra lo
tor ra
Ġsho uders
Ġol ie
Ġnature z
Ġyoki to
Ġprof isso
Ġ17 2
Ġgu erino
Ġhidra te
Ġesf erogra
17 4
65 8
Ġbol inhas
Ġflores ta
Ġpes to
23 1
23 12
Ġole oso
Ġmil itar
cap il
Ġ36 00
Ġfin ca
Ġsens od
val da
Ġpow d
Ġceb alho
anta sia
Ġfar inh
alho es
Ġcoca da
ver b
Ġfri os
lin gua
Ġcolo re
Ġbra g
Ġbra co
Ġalcool ico
Ġ65 1
Ġav erm
Ġon edone
Ġbro w
Ġmac queen
Ġsuc ri
Ġcat chup
hid ro
Ġbu bo
Ġpaul is
pis tola
29 67
Ġ413 0090
Ġ413 948
Ġcin to
sup lemento
Ġflu conazol
Ġpul seira
Ġpel uc
Ġgom utcho
maca re
900 7
Ġfest ball
98 8
Ġamo ras
sec co
dog s
Ġcache a
del ic
Ġ520 9
Ġnov omilho
vi ol
Ġ414 119
Ġalim ento
Ġgira fe
Ġmos q
Ġray um
Ġframboesa hibisco
Ġhidro pon
Ġhal ter
tomate s
escor r
Ġrev ig
Ġbac teri
Ġ02 12
pat inete
Ġpila tus
Ġdello color
Ġfura to
Ġamaz o
Ġ112 5
Ġlong neck
Ġ789601310 6
mi es
63 90
Ġabo b
bor o
sk y
Ġder mo
Ġder macare
cacarola o
Ġjap on
Ġched bacon
Ġvac freezer
tam isa
Ġgoma dos
Ġ789600370 6
Ġsti ff
Ġblo om
Ġrestaura dor
Ġdeso do
Ġcf antasia
Ġlinhaca azeitona
Ġfre edent
Ġall nutri
Ġthree dogs
Ġ1250 2
Ġsauda ve
Ġnv q
Ġ4140 265
shoul d
odoriz ante
Ġpremi er
kat s
Ġvr j
Ġbeij os
Ġ41415 18
Ġkara oke
Ġ03 15
Ġsi tio
Ġ149 70
espuma deira
Ġis cas
Ġhigh ball
Ġfluoresc ente
Ġmagn ific
Ġmagn olia
Ġdilu ivel
alg icida
Ġazeit onas
Ġak azzo
ser um
Ġgeng i
Ġtoma das
oi kos
Ġencan tos
Ġblon dor
brilh us
Ġneutra liz
Ġtrufa do
rech eio
Ġlus tra
Ġgum mies
Ġembala r
Ġaza p
Ġnen en
Ġ924 1
Ġperol izado
Ġ1495 4
natu hair
Ġantiaderen t
Ġlubrif icante
060 1242
Ġ208 29
Ġmila no
Ġantiva zam
faz endas
cotonete s
ting idos
Ġdegra us
Ġya master
Ġbata vo
brus q
Ġ7896237 900
Ġrain bow
ome ga
Ġwil d
Ġbee f
vir rosas
Ġ78960037 37
Ġcerea i
Ġapimenta do
Ġdipirona gts
aspar gos
sach es
fura deira
utens ilios
Ġena lapril
maqu ilan
Ġ4123 328
Ġweizen bier
hct z
Ġgil ette
508 66
Ġenvol v
Ġces ar
Ġaten to
Ġ7897080 600
kim ilho
arma kos
queij eira
Ġ41108 50
Ġliban es
conv ite
Ġaru ana
Ġprecio so
Ġrenova dor
Ġwester n
Ġmaras quino
Ġadst ring
Ġdure poxi
Ġorel ha
Ġdire ct
Ġreckit t
Ġmerco toys
Ġopti cal
Ġhamburgu es
Ġuirapur u
tamar ine
Ġgalze rano
Ġfrigo ssol
Ġfriend s
Ġbrasiliz ar
Ġhipoalerg enico
Ġmachin e
Ġxery us
antepas to
Ġorlista te
Ġsocor ro
Ġlovel ys
Ġloken zzi
Ġolie vas
Ġhidropon ica
Ġyamaster ol
0 21
4 90
5 447
b do
b ord
c s
d im
d uc
d pack
d isquete
e a
e con
e ba
f c
f is
f ix
g ht
i ol
i tive
k em
k ell
m c
m sa
m ent
m ios
o re
o ut
o mara
p pe
p vm
r ones
t m
x icam
Ġ ilhos
Ġc frutas
Ġc dep
ra inha
in ar
Ġm ci
Ġs ia
Ġs ig
Ġs ilhou
re ps
la gen
an no
co st
co zinha
Ġb na
Ġb ummis
te to
te ens
al klin
ar k
er one
Ġd cachos
or to
Ġf ing
Ġf bt
ta mara
ro se
Ġ5 17
Ġn book
Ġn cc
ma co
ma ya
ri fa
ri tion
Ġ4 64
ti ras
ti cos
ve m
ve do
do se
Ġco im
Ġco que
Ġco ber
Ġma ille
Ġun o
Ġh g
et inha
Ġca veia
Ġla it
Ġe vel
Ġe vd
ic ar
Ġpo ps
ul e
us tri
Ġk d
Ġk ung
Ġo fer
id rat
id ual
des t
des embaracante
kg p
Ġ6 64
Ġ6 94
Ġ6 2006
con tr
Ġde ter
Ġde lak
Ġal ianca
Ġ9 17
Ġ9 73
ba ca
Ġj bl
Ġj ules
Ġ12 1
Ġ100 00
Ġse x
Ġse quilhos
40 614
li ma
li mo
Ġmar vel
po re
po lar
po osh
po wer
im ona
Ġes ome
Ġar bor
Ġmo reno
Ġpro s
Ġpro cacho
Ġpa te
Ġpa res
xa dor
xa cino
Ġqu acker
30 1
Ġy et
Ġan lo
Ġcr un
Ġ10 84
Ġ10 987
Ġ30 14
ort al
Ġbr ist
80 1
80 4
Ġch in
Ġ20 17
se co
se quilho
Ġtrad ica
st reps
12 00
Ġra b
Ġra ce
Ġbo de
Ġpal las
sand alo
Ġmin h
Ġmin io
Ġte m
pol eng
Ġ40 16
Ġz upp
Ġce ci
Ġcas tel
Ġcas eir
mar il
mar iola
fr is
Ġinte i
Ġman ta
24 27
Ġac q
Ġbar one
Ġbar reiro
25 00
Ġita c
Ġ60 2
Ġ60 32
Ġmon ster
Ġlac tos
Ġcap i
Ġpas tella
Ġmulti b
Ġmulti f
Ġmulti plo
Ġdes ing
Ġclass i
can el
Ġad te
Ġlimao cha
Ġda f
Ġ23 19
Ġdel ion
Ġcla ras
Ġmor cereais
Ġdi e
Ġdi da
for nia
ilha da
22 90
Ġgran jeiro
refres h
Ġfrut ale
Ġdan ish
Ġ16 15
Ġ16 17
14 00
Ġum ide
Ġcle omara
Ġpara d
Ġvita rela
Ġgre l
Ġ14 6
Ġ14 927
Ġap re
Ġex pan
Ġbio col
Ġbio vita
Ġbio prat
lava dora
Ġcha teau
Ġsc dpack
18 2
bi al
Ġ18 500
Ġlar manga
Ġpante ra
Ġrex on
Ġna po
Ġcra ker
Ġacti ge
pas s
Ġpei xeira
35 53
64 12
Ġ789 10
Ġ17 646
Ġ17 0057
Ġ75 5
Ġ28 000
Ġades i
Ġcd n
Ġbaun il
Ġcan for
ilan d
he teiro
Ġ22 9
Ġbrilh an
Ġbol inho
Ġflores sonhos
ich ia
dr p
Ġsabor top
Ġcu e
Ġab range
Ġat uma
Ġat trac
Ġfin est
Ġfin elin
tro k
Ġbel v
Ġ38 46
Ġfranc isco
Ġjum bi
Ġdef ine
Ġ280 1
Ġ27 6
Ġ27 11
Ġtr d
Ġnectar ina
Ġmi kito
Ġmicro pore
flo xacino
Ġ65 4
Ġ65 9
Ġric in
Ġant bac
Ġant iseptico
Ġon das
Ġarg ila
nut ry
Ġbamb inos
Ġrecon trucao
eir on
Ġlegu me
Ġru gas
Ġste vi
ket to
Ġbu q
Ġpela ti
Ġrose verm
Ġten den
Ġgio van
Ġ413 6
77 18
Ġbat m
46 3
gon al
son ris
210 11
Ġdoc il
Ġtutti frutti
Ġgom e
Ġcopa and
Ġcotton bab
maca maracuja
fos ter
Ġchoco cino
prote cao
Ġlas an
Ġind ustri
jer ked
Ġ43 60
palm eiron
56 85
get ten
del li
Ġgat s
Ġmaster fral
Ġast ro
Ġ165 1
Ġmos qu
Ġmos ketto
Ġperu ana
fla ne
Ġ789600 7200
organ iza
Ġsob ran
Ġpi rition
Ġth rones
eva p
Ġami go
Ġ02 13
Ġola f
Ġfixa cao
condiciona dor
escorre d
Ġrel va
Ġran ac
Ġbatata s
pr ingles
Ġ008 1
Ġfus ili
Ġ020 6
Ġge o
Ġcham ito
Ġflow p
Ġbarba cue
Ġspe c
pet is
Ġlavand ita
trav ess
Ġolivia ervas
toalh inha
vd k
Ġcitri odor
Ġcris p
fs dl
rad io
Ġfolha da
Ġqueen sb
Ġcrystal li
deal ichia
Ġblo ck
Ġden in
Ġden itos
Ġ7622210 75
83 12
Ġlorenz etti
Ġmole tom
umid ificador
Ġporta til
Ġzin c
Ġgolden plast
Ġ79 10
Ġ117 350
Ġsauda v
160 5
Ġunica sa
340 5
Ġ4140 28
Ġtek cor
Ġtl l
Ġ249 84
Ġer cap
Ġ613 5
Ġvinil ico
Ġmeta de
513 5447
Ġorqui dealichia
Ġben j
Ġfg oleg
Ġnatura is
Ġseduc t
big fral
Ġ118 2
Ġ108 63
Ġaves arroz
Ġak h
Ġtoma to
Ġdez ali
Ġindiv idual
Ġpastilha s
ben icar
Ġpion e
Ġ840 7
Ġ305 99
Ġsoul powe
Ġembor g
Ġavei ac
Ġpene rad
Ġbanan as
Ġjon h
Ġclin ical
Ġsugo manjericao
Ġlf g
fu et
Ġembala da
Ġembala dos
Ġ41325 89
Ġ7896044 95
Ġ924 110
Ġportugu es
Ġhalo gen
Ġpatcho uli
Ġmia ke
amole c
Ġpico t
Ġ060 7
Ġprocom f
Ġgrelha do
Ġlubrif icado
Ġ4000016 0090
amo ra
Ġprate ado
Ġedi tio
Ġmila o
Ġambi ent
Ġfos co
mu ffin
Ġcau teri
456 201
gal heteiro
Ġtara p
bit ter
Ġaspar tame
plu g
Ġ575 2
Ġpolia mida
Ġ413316 74
Ġ413316 7718
Ġeno env
pran cha
fum o
Ġtoale x
trig olino
Ġbcpto meca
Ġcali fornia
Ġvitarel l
Ġdentad ura
Ġnylo oks
Ġscho getten
Ġcass is
Ġdacol nia
Ġscaro co
Ġ41158 44
Ġator vastatina
Ġlavlo uca
Ġ25951245 58
Ġputz claro
Ġdad one
Ġries ling
valv ula
Ġ51000 3
fruc tus
Ġliofil iz
Ġ8012 15
Ġ1700 60
oph ie
zeit onas
4300 4290
Ġ1305 90
Ġhorti fruti
Ġauthen tic
Ġgy no
noval gina
neosal dina
Ġmeren gue
Ġdesengordu rante
Ġranch eir
Ġyl lum
Ġespira is
Ġdesodo rante
duc rem
mios an
Ġsia ms
rifa dor
Ġcoim bra
imona ggio
Ġesome prazol
Ġarbor io
streps ils
Ġlarmanga macamaracuja
Ġatuma zeitonas
Ġtenden cy
Ġindustri al
0 70
0 18
0 168
2 150
3 24
3 15
3 200
5 60
9 70
a parador
c ri
e uc
e tos
f emme
f rasco
i en
i un
i us
i ente
n um
p ct
r uta
s mo
s esa
u o
v rem
v ian
x ion
y ber
Ġ "
Ġc con
Ġc ip
Ġc choc
Ġc rel
Ġc carne
Ġc caro
Ġc quinoa
Ġp ilha
ra h
ra is
Ġ1 356
Ġm ir
Ġm bab
Ġs ie
re r
co ra
te en
al l
ar iz
es pan
er te
Ġd j
Ġd az
Ġd luz
Ġl b
Ġl l
Ġl ur
Ġf ive
Ġt uto
ol v
ol dos
Ġa po
Ġ3 26
ro id
Ġ5 12
Ġ5 21
Ġn ba
Ġn set
Ġn ord
Ġg or
ha st
il im
il gel
ma y
ma zol
mp er
el uz
Ġv or
Ġv ic
Ġv ero
Ġv ista
Ġv ovo
Ġv ariados
ab lo
Ġ4 42
ch et
ve da
ve dere
Ġre ju
Ġh r
Ġh im
Ġh kit
et in
Ġla k
pa pa
pa coq
ic an
Ġpo uc
ut s
sa m
sa ire
Ġ8 683
Ġ8 681
Ġk t
Ġk lot
Ġo me
Ġo bi
Ġ7 94
Ġ7 1605
Ġ6 288
con cent
Ġde d
Ġde te
Ġde maquilan
Ġal ian
Ġal dente
Ġ9 40
lo ve
ba cebol
gu mes
Ġj g
Ġj en
Ġj uca
Ġj abor
Ġ12 89
Ġ12 17
Ġx uxa
Ġse p
Ġtra ve
Ġtra ves
Ġcol m
hoc hoc
Ġsa far
Ġsa ko
Ġsa pat
Ġsa quinhos
Ġdo sador
Ġcon ha
Ġes col
uc il
uc um
ur unga
Ġmo la
Ġmo tion
ne cta
Ġba m
Ġba y
Ġba te
Ġplas d
Ġpro clear
Ġw ella
Ġpa per
xa me
Ġcar p
Ġcar ol
Ġcar roz
Ġcar bo
Ġcar pete
em e
20 505
Ġqu eluz
za dor
30 9
Ġy uri
ac nas
Ġ10 48
Ġ25 000
limp hidrata
Ġtri an
mo de
Ġ90 26
dor il
Ġso us
Ġsh g
Ġsh r
12 3
sal icil
Ġbab a
Ġbab ados
Ġinf ini
Ġ0 16
Ġ0 102
Ġflo real
am el
Ġ00 57
Ġmin salvia
ix ir
Ġsal tv
Ġ40 6
Ġ40 28
iso la
iso to
Ġz i
Ġpre esp
Ġno i
Ġno iv
Ġno mad
mar in
Ġmara sq
Ġ26 8
Ġ26 140
Ġreg e
Ġreg i
ila o
Ġlo tu
Ġlimp anno
Ġpr t
ud i
Ġman to
Ġcho que
Ġcho cam
ras il
ad u
sor o
Ġita lak
Ġ60 8
Ġ60 35
Ġmon ic
Ġcap pell
Ġle ga
Ġle ono
Ġdes am
Ġ24 13
Ġpe gada
Ġcor do
Ġfgo carne
Ġfgo figado
Ġanti frizz
bo ombo
Ġ23 36
Ġ23 67
ggi e
Ġprote ins
Ġfres q
Ġmor inga
Ġtom my
Ġdi ante
ita pioca
Ġbi ke
22 34
13 55
che etos
ara ruta
ale x
fo fo
Ġme te
Ġme yber
Ġpalm eira
Ġsp in
Ġ16 16
Ġgra us
Ġpira mi
14 12
Ġgel campo
Ġmen inos
Ġsab on
cere ale
26 1
Ġho ega
Ġlaranja abacaxi
Ġlaranja acerola
Ġcle gumes
ju juba
Ġoet cker
Ġvita min
Ġcom esti
Ġ14 27
Ġ14 371
Ġap i
Ġap lic
Ġcha mallow
Ġcere rais
Ġmaca d
Ġmaca can
Ġsu ica
Ġsu tia
ban quinho
Ġmed alhoes
32 3
Ġfla ke
Ġmilho frango
elo pe
Ġ45 5
Ġlux e
Ġas sen
Ġesc pta
Ġson hochoc
Ġtur que
Ġ17 20
Ġ17 155
Ġcam em
Ġcam eixa
est ilete
Ġph enix
Ġph armakos
Ġja k
Ġja mbu
Ġespa co
17 10
Ġque e
Ġgl ut
ill ero
Ġtal entos
Ġtab aco
66 2
Ġpic nic
Ġbig maxi
Ġsem en
Ġfac ia
cp r
Ġmil ion
Ġchur ra
Ġmand calab
gran o
Ġbel gas
Ġbel vedere
37 9
37 00
Ġflocos mor
Ġrf l
19 3
19 6
Ġfo ur
Ġfo am
Ġhar p
Ġur ucum
Ġblack top
Ġfri z
Ġfri xion
Ġbrilho ton
sol ucao
Ġmenta orquidea
Ġtr il
Ġtr isabor
cas illero
Ġaca itapioca
Ġger gel
Ġcala bacebol
Ġsha ker
Ġagua gergelim
fort ale
flo ra
pres er
Ġdura c
Ġtor rad
600 9
Ġfortale cedor
Ġ34 170
39 90
Ġtam er
Ġ11 20
Ġmis so
Ġflex cab
Ġbamb ino
Ġbal dinho
Ġgela p
Ġassa i
Ġpizza que
be an
be ge
Ġten az
ane is
Ġespecial idade
Ġchar min
29 1
Ġ413 26
Ġfe ver
Ġfe ast
Ġterra pe
Ġtint ura
Ġ66 78
Ġflu er
Ġvital mar
Ġkim ino
Ġcopa g
maca quinho
Ġsl hf
Ġbrasil eir
Ġbolonh ese
Ġbolonh sesa
Ġelet ron
Ġchoco mais
Ġmal b
Ġtd c
vol par
tri mazol
Ġmadeira s
Ġamazon i
Ġang us
Ġtos tado
Ġka las
Ġcalab res
Ġpromo cao
Ġact g
Ġ51 605
Ġassad uras
Ġmetal ic
bico s
lav itan
43 90
43 34
Ġprinces inha
Ġrt q
Ġ54 16
Ġinter folhas
fi ant
Ġbatata carne
Ġae reo
Ġge g
Ġdun hill
char q
lic ium
Ġaroma ch
Ġ61 60
Ġcur ly
Ġbono bon
Ġei ght
170 7
Ġglicerina d
Ġlu kinha
Ġ789600370 30
por co
Ġfolha do
multi processador
Ġven tilada
Ġblo cks
Ġds m
Ġcolle tio
Ġfemin ina
Ġfaro fa
Ġpont ilhada
cura u
005 33
Ġpoli est
Ġ7622300 85
Ġsorvete ria
Ġ113 511
Ġ410 3405
cou v
Ġ000 200
Ġdin din
Ġ249 67
Ġcru zada
conserva dor
Ġhor se
Ġclo trimazol
cla rif
av ei
kat vrem
Ġcen erv
Ġ41415 89
Ġ41415 34
Ġmesc l
Ġsi ri
Ġraiol it
gom utcho
Ġ108 64
Ġsals cebo
Ġzip loc
Ġspagh et
Ġdilu iv
Ġformig u
2075 3
kol ene
peixe aves
Ġskin ka
Ġ62 905
175 2
0068 8
neut ra
neut rox
Ġmf gy
Ġloc tite
Ġchurras c
Ġprog li
toddy nho
Ġtempe ra
bras art
Ġriso to
sobre cox
sobre coxas
Ġadvan c
Ġsin vastatina
Ġsy rah
Ġrus ti
Ġ8803 15
Ġ7898024 395
Ġpint ura
Ġlumi color
Ġgradua do
alle gra
bea uty
Ġtig re
Ġutens ilios
paco quinha
Ġ8414 59
nor maderm
Ġcura da
Ġ4000016 27
Ġestrut urada
Ġ78910790 130
Ġcondiciona do
Ġdinossa uros
Ġ226 1
Ġambi ente
Ġcilind ros
Ġgen ius
roup eiro
Ġib ira
Ġazed inho
fan cy
Ġrub y
518 53
Ġfeij peixeaves
dep urador
Ġmarila m
Ġglicer in
Ġ090 6
Ġqz nn
Ġpolia mi
Ġpirass urunga
Ġbod yl
Ġitalian inho
Ġ7917 2150
Ġbifas ica
Ġapimenta da
ceno u
aspar go
tropic al
fura d
ku ky
Ġ7893500 0
Ġ414044 90
Ġbeau for
Ġsurpr ise
Ġfrit ura
terr ina
Ġxil itol
Ġnav y
eparema flac
Ġapren d
Ġmillen iun
Ġajusta vel
Ġpole gui
Ġcou ve
Ġclari fiant
Ġfelp udo
Ġcalderet ta
mandio quinha
Ġcicatr iliss
Ġaragua ia
Ġ4115549 79
Ġpepino cha
Ġisoterm ica
revital izador
tuc upi
Ġconta gi
Ġwilk inson
torra deira
Ġneutraliz ante
Ġrelva z
Ġercap last
0168 243
vian gre
Ġcip ro
Ġccaro c
Ġlur pak
Ġnset le
Ġhkit ty
Ġome prazol
Ġsafar i
acnas e
salicil ico
Ġsaltv ip
Ġchocam end
Ġitalak inho
Ġleono ra
boombo x
Ġpirami de
Ġcomesti vel
Ġflexcab os
Ġsalscebo reg
) "
4 36
6 80
6 77
a ter
b elo
b ucas
c ard
c ime
e f
e char
g ri
g aro
g licerina
h olly
j elly
k ent
k anina
l c
m inha
m im
m ys
n om
n inho
o on
o ta
o uro
p itu
r p
r inos
s um
s ila
s elo
s assami
u elo
v iso
x c
x ar
Ġc color
Ġc tr
Ġc bacon
Ġc ilios
Ġp w
Ġp ist
Ġp dt
Ġp iro
Ġp caes
Ġp salada
Ġp vaso
in ero
in na
in color
in vis
Ġ1 31
Ġ1 376
Ġm ma
Ġm ess
re a
la fruit
co ba
co reto
Ġb uri
Ġb est
te i
te co
al ina
al fa
al bany
al gin
Ġ2 727
Ġd pantenol
Ġf v
Ġf ilha
Ġf ulo
Ġt abs
Ġa cha
Ġa ud
Ġ5 22
Ġ5 34
Ġn is
Ġn ista
Ġn inh
Ġn cg
Ġn erf
Ġn iag
Ġn ariz
ma to
to mada
Ġv ola
50 452
Ġ4 38
Ġ4 65
Ġ4 600
as tro
da vene
ch ed
ch ester
ve dil
Ġli c
Ġli f
Ġli ane
do is
Ġco v
Ġco bri
Ġco brinha
Ġma gua
ran d
Ġin col
ia k
Ġca mar
Ġca tar
Ġca vas
Ġca teto
Ġla vete
Ġla tit
pa rente
Ġe ra
ic i
ic lic
Ġpo esia
Ġ8 20
Ġ8 168
de las
de gra
Ġk n
Ġk em
Ġk ita
Ġo to
Ġo pa
Ġo tto
Ġo vinh
Ġi va
Ġi rand
le var
Ġ7 14
Ġ7 16
Ġ7 64
Ġde mer
Ġde bola
Ġro delas
Ġal go
Ġal liance
Ġ9 23
Ġ9 77
Ġ9 58
ba q
gu cou
at orio
Ġj orge
Ġx pe
Ġ100 2
Ġ100 5
Ġse ta
Ġse quil
inha do
li fe
li one
li cador
Ġmar ras
ga mela
ce ram
im s
im ucil
Ġdo cinha
Ġdo mper
Ġcon ic
Ġcon tin
Ġes teir
Ġar p
ur u
Ġba x
Ġfr uto
Ġpro secco
Ġto da
Ġto qu
xa do
Ġnes f
Ġnes ca
Ġnes fi
Ġcar inh
Ġcar vedil
Ġqu int
30 7
30 51
Ġ50 13
and u
and ar
sh i
Ġan do
Ġam inna
ac ess
Ġcr j
Ġ10 70
Ġ30 1
Ġ30 24
Ġ25 69
Ġipan em
Ġver dade
Ġbr c
Ġbr ino
Ġbr uxa
Ġtri colori
mo e
Ġch ei
Ġch iab
Ġ90 7
Ġor o
Ġor ly
Ġsan g
Ġsan pel
Ġso tido
sal t
Ġ0 28
su maya
Ġra ste
Ġlav alcool
70 6
70 64
cha til
gua hort
Ġbo ck
Ġbo teco
Ġri b
Ġ00 6
Ġ00 10
Ġmin nas
Ġte fl
Ġte quil
Ġ15 52
Ġsal m
iv as
pol ibril
pol uicao
Ġ40 11
iso ton
Ġce f
Ġcas cola
Ġmara gucou
Ġ85 15
Ġmorango chatil
Ġlo ratadina
Ġfor mil
Ġcamp er
ad it
Ġac ess
Ġac iclo
Ġorig mor
Ġbar u
Ġint uva
Ġni ina
Ġmon viso
Ġcolor b
Ġcap su
Ġ120 112
Ġpas so
Ġperf sen
Ġle po
Ġle af
Ġmulti c
Ġmulti gr
Ġdes in
Ġdes na
Ġbon zo
Ġ24 79
Ġ24 987
Ġ24 986
beb i
Ġpe x
Ġpe ke
Ġpe gad
can do
Ġad to
pra tic
Ġlimao ervas
Ġlimao oreg
Ġanti m
Ġanti transp
cu o
Ġbril u
cor d
Ġmor sucr
Ġem ba
Ġbi tes
Ġ37 1
22 78
Ġgran ol
Ġros ental
Ġcarne ceno
Ġter nu
Ġsp orte
14 40
14 75
Ġcal h
Ġcal if
Ġmen in
Ġsab orizado
Ġum bre
26 19
gre go
Ġlaranja cenoura
Ġbl up
100 01
Ġ14 29
Ġ14 367
Ġvigor zi
Ġap rf
Ġref resco
Ġref inada
Ġex ot
Ġbio degra
Ġfem ea
Ġmax tom
11 10
Ġdu gs
tel le
lan cador
cos to
ban ma
Ġbas ca
Ġnutri bras
Ġesp in
18 4
bi color
Ġuso facil
Ġmel issa
Ġcit ro
Ġsil e
Ġfla y
Ġpar to
Ġpar da
Ġlux uri
les te
Ġkit t
Ġkit che
cat ini
max xi
Ġha ag
Ġpan ko
len z
pas ti
Ġsoft lotion
Ġ28 55
est r
Ġfa to
Ġja pan
Ġja guar
Ġminu tos
Ġcan ga
Ġcan ario
17 2
17 1000
ko ff
Ġbarb ers
Ġcro ma
Ġcro can
Ġcro iss
Ġpote tampa
ext rat
Ġ22 15
Ġconf ian
Ġbol la
Ġmat in
Ġcoz inh
45 57
Ġlte cer
Ġfac iclic
Ġmil ford
Ġ19 1
Ġaco bre
Ġcristal copo
gran d
Ġbel far
Ġrad i
ile x
37 7
Ġ38 2
Ġcast rol
Ġhar oldos
Ġres cue
uma ca
van xpe
sorv erte
Ġfri ze
Ġprima ve
Ġalmo fa
Ġgr t
Ġgr in
Ġ27 1
28 6
cera veia
Ġcala br
pro fen
Ġpop max
per d
per u
Ġric inio
Ġtor ced
600 2
Ġfortale z
Ġ34 3
Ġ34 19
Ġbro cas
Ġ11 75
Ġceram ico
Ġenerg ia
Ġespe ci
Ġaj nom
Ġlegu m
Ġlum ina
Ġbal tico
Ġtut u
Ġprat s
Ġalc col
Ġfrutil i
Ġbu catini
lus tro
sel et
Ġ700 0
Ġdar do
Ġ275 9
29 9
Ġ413 00
Ġ413 74
77 3
Ġpoder oso
Ġsk il
Ġsk yn
Ġdoc inho
Ġ29 35
Ġbasic s
Ġiso la
Ġgala xia
Ġlou sa
Ġhel e
Ġpao zinho
Ġment ho
Ġpure zza
Ġfu eg
Ġ56 80
Ġessen za
del i
del icia
bl erone
Ġtos hi
Ġpolif l
Ġcach or
Ġmam mac
Ġmam ceraveia
cox in
Ġtrans for
Ġimper me
Ġumid ificador
Ġ414 150
Ġkob lenz
Ġsucr trad
gas trol
Ġhidro c
Ġhidro f
Ġ89 1
Ġpin cel
Ġpi quet
Ġtip iak
Ġser rano
Ġcoc inero
Ġalis ado
Ġpresunto queijo
Ġcresc im
Ġleb on
je gging
ins ent
champ gn
58 7
Ġcres ce
Ġcres pis
Ġuar i
Ġ112 7
Ġcalcinha biquini
Ġ789601310 5
Ġ789601310 35
sun max
Ġcid r
Ġtode cachos
pla x
63 11
Ġbudweis e
Ġje j
Ġlavand bem
cup cake
Ġstand ard
Ġsat sumaya
Ġmarm orizad
cremo zina
53 22
Ġber na
Ġlibe rada
Ġbos q
Ġtrit ut
ĠĠ Ġ
Ġ7622210 76
Ġacon c
83 34
Ġlima guahort
Ġ77 11
005 12
Ġneu g
Ġ113 49
Ġ79 11
Ġgranola x
Ġmari ana
Ġ117 77
Ġjac q
Ġly ptus
verm elha
Ġricota ervas
ss ic
Ġ249 72
Ġ249 78
Ġ249 62
Ġ249 71
Ġbuono ge
Ġchia manjericao
Ġcli m
Ġmalha do
Ġativa do
Ġvr d
Ġti fa
Ġbicho s
Ġpress ur
Ġ41415 84
Ġ412 32
Ġ412 211
facil ita
Ġadv ant
Ġ2613 8
Ġmuri ela
rec eita
Ġpret inho
ass ar
fogo gel
Ġmaval eri
flu imucil
Ġ1080 600
Ġ975 68
Ġsupe ralho
Ġchurras queiro
Ġpana che
Ġferram ent
Ġrom ana
Ġfron t
Ġitaip u
Ġjb s
Ġ305 15
Ġjacqu ard
Ġsin uelo
Ġzo ah
Ġchupeta s
Ġamante gado
Ġ235 42
Ġenxu ga
Ġanticar ies
Ġ4137 12
pur p
Ġgoela o
Ġ0000000000 120
Ġjon t
Ġsky loff
Ġacet inad
Ġprev im
Ġ7896044 994
Ġarr banma
Ġ134 26
Ġshin ing
Ġbronze ador
Ġparr illa
Ġmalz bi
Ġ060 50
Ġspon t
Ġtho maz
Ġ4000016 000
mela n
mela do
Ġ770 8
Ġ789115 005
Ġvarry mil
uga i
Ġ43408 50
Ġdiplo mat
Ġ218 83
Ġib upro
Ġchiken itos
Ġpresid ent
Ġarra zo
enxagu atorio
reche ado
Ġ411 1355
Ġ207 98
Ġtodecach inho
076 13
Ġmastro ani
Ġtenta coes
Ġgos tei
Ġ070 6
pran cheta
oliv er
Ġnt nn
Ġ41234 6311
Ġquat ro
Ġrisot inho
Ġantissep ti
trig oli
Ġlite salt
Ġvisco se
Ġcrok issimo
Ġ108080 129
Ġ918 58
Ġdentad uras
Ġ1765 3
Ġ413519 600
Ġkas ugai
Ġ7500 3
Ġdexclorfen i
Ġdexclorfen ira
426 14
Ġesto fa
Ġemerg encia
Ġ080 10
barbe ador
Ġava cuo
Ġreke pizza
Ġandre ani
Ġkom delli
Ġrist retto
Ġpetal ly
Ġjara gua
Ġetn ico
feno gts
Ġgarraf ao
Ġdentro fora
Ġaperi tivos
Ġ176 39
Ġ9336 76
Ġfad as
neces saire
Ġcocob rig
Ġtechn olog
Ġ4137007 2478
vod ol
Ġbim bo
rane o
Ġalisa re
Ġpape lao
Ġprofess ional
Ġtalc sandalo
Ġ41350 45
Ġzeen ny
vei culo
vul cano
arg ila
Ġopt cal
Ġnathyd ras
Ġengen h
Ġsaudave z
fis iog
Ġevel ise
fris ante
Ġparad ise
Ġ4136 2427
flane las
Ġpione er
Ġgyno clean
Ġccon ch
Ġdaz s
ablo k
Ġtraves ia
mode lador
Ġshr ink
Ġassen to
Ġmilion ar
echar pe
garo to
kent inha
pitu kats
Ġmess ias
Ġburi ti
Ġbest way
Ġacha tado
Ġnista tina
Ġvola nte
Ġcobri r
Ġkem tone
Ġiva i
Ġsequil os
Ġcarvedil ol
Ġchiab an
Ġsanpel leg
Ġraste lo
Ġmaragucou hor
Ġmorangochatil li
Ġaciclo vir
Ġcarneceno ur
Ġumbre lla
Ġbiodegra d
Ġhaag en
Ġfrize e
profen id
Ġajnom oto
Ġtoshi ba
champgn on
Ġlimaguahort geng
0 34
1 100
2 78
4 32
4 98
5 34
5 320
7 40
7 80
9 22
9 36
a ker
b um
c and
c ing
d ic
d inha
d itos
d inger
e jo
f ir
f inos
g ly
h roid
i q
i chin
i hair
k wa
k issimo
k ello
m inho
m endo
n esc
n ene
n atus
n isol
n icida
o e
o g
o range
p ica
p len
s l
s top
t ine
u y
v isc
x ic
x sol
z p
z ia
z ok
Ġc canela
Ġc ella
Ġp sh
Ġp inga
Ġp bandeja
ra la
ra po
ra cadeira
in da
Ġm co
Ġm ig
Ġs qu
Ġs ir
00 64
re que
re pol
re cida
la ggio
co re
co lirio
Ġ2 22
Ġ2 16
es pa
es ten
es weet
Ġd n
Ġd mais
or os
or iz
Ġl c
Ġl ff
ca ref
ca dr
Ġ3 200
Ġ5 18
Ġn ero
Ġn ing
Ġn ada
il idade
el imp
Ġv ot
Ġv capil
ri dor
as so
ch uch
Ġre cho
Ġre corte
Ġma gr
Ġma ita
ia m
Ġh old
Ġh imal
et y
Ġca cao
Ġca ras
Ġla bial
Ġe poxi
Ġpo mo
it h
it ran
ul in
ul ine
io es
bisc us
de cadr
Ġk h
Ġk m
Ġk ip
Ġk nor
Ġ7 105
Ġ6 74
con ete
om ic
Ġde xame
Ġal imenta
Ġ9 4
Ġ9 13
Ġ9 33
at ro
Ġj ane
Ġ12 75
Ġx odo
40 7
40 603
40 452
Ġmar v
Ġmar ques
Ġtra q
um er
um ix
Ġcol h
pan ts
ral inho
pe q
pe per
ce is
im ico
Ġsa ia
Ġsa po
Ġdo ci
Ġcon tain
Ġes q
Ġes tac
uc al
ur um
Ġr uth
Ġr dp
Ġba tid
Ġ250 99
Ġpro p
Ġpro gre
Ġpro conf
Ġto f
Ġto dos
Ġto blerone
Ġcar lt
Ġcar ib
Ġcar ies
20 6
Ġnat mor
ed as
ed uc
Ġan da
mol h
mol ico
Ġdent ure
ac tiv
ac essor
ela ni
Ġ25 24
Ġ25 15
ct ina
10 15
Ġver tix
Ġbr l
Ġtri d
Ġtri col
ona pom
so us
Ġ90 10
Ġsan sao
60 4
Ġso j
Ġso gra
Ġso utien
col etor
Ġsh e
Ġsh ira
ine cessaria
az eito
sal sep
Ġ0 24
Ġ0 105
Ġ0 128
mb e
Ġu eba
ico r
ist ral
Ġbo tao
ura o
Ġri p
jo ba
Ġ00 31
Ġ00 08
Ġte to
Ġte soura
Ġ15 382
Ġ40 1
Ġ40 714
iso late
Ġcas inha
ino t
Ġlo vete
Ġpr ing
ud el
gel l
Ġbar i
me us
me pi
Ġita col
Ġpas o
Ġpas te
Ġperf or
Ġmulti g
Ġmulti p
Ġmulti pis
Ġmulti funcional
Ġ24 3
Ġ24 7
Ġ24 99
beb id
Ġcor uri
Ġnut rella
Ġda masc
Ġ80 95
bo ck
Ġcla ranja
cor istina
Ġem mental
500 64
ib s
ib ilidade
comp asso
ita lac
Ġbi riba
22 501
Ġgran berry
13 1
13 9
Ġros ita
Ġros koff
Ġ70 2
cia re
Ġter ram
fo ur
Ġme can
Ġinst an
no ex
Ġho lan
ton i
Ġperd il
Ġ140 7
100 2
Ġsuper soft
Ġjo joba
Ġ14 93
Ġvigor zinho
Ġex cl
11 1
Ġcha me
tra o
95 170
Ġsu bl
Ġsu icida
Ġsta y
Ġen g
Ġama da
Ġbas que
Ġecon imico
Ġmel i
32 95
44 3
iab o
Ġextra forte
Ġna ir
Ġpar t
lac ri
Ġ45 13
cat s
38 5
min inecessaria
Ġha ban
Ġha ste
Ġpan ao
Ġpan na
35 2
35 4
64 5
64 7
Ġ789 8
Ġsos tevia
Ġ28 3
Ġ28 5
Ġbri ta
Ġcd entes
bol onhesa
cl ets
Ġpla ca
17 6
Ġ22 3
Ġpes cador
Ġbrin que
Ġlte aveia
Ġcaes aro
Ġ110 12
anti x
anti pulgas
Ġab so
Ġab raco
Ġat tive
Ġbrot inho
Ġfin esweet
Ġcristal iza
gran uts
Ġsens iv
Ġsens ibilidade
Ġoral b
37 2
sb c
Ġpred nisol
Ġhell ma
Ġele g
Ġ32 15
Ġhy oe
300 350
Ġ57 44
Ġ280 8
Ġgr uy
Ġgua che
pro f
Ġralado extra
Ġsuav ize
Ġmi uda
Ġpower dent
Ġav antix
Ġfl y
Ġfun tas
Ġesfre b
Ġesfre go
Ġant inos
Ġ34 16
Ġdona ta
Ġmis ion
Ġpass os
Ġpass eio
Ġclub e
Ġton ic
Ġmac c
Ġarte s
Ġbanh ei
Ġcer pa
Ġespag bolonhesa
Ġcalca dos
sap oleo
Ġdis quinho
ex tens
Ġsw iss
Ġcart ucho
Ġamer i
Ġsv k
Ġscot ti
Ġ413 197
Ġ13 39
tapete s
Ġterra z
210 3
Ġdoc um
Ġado be
Ġado cada
Ġkim ilho
Ġgom et
maca d
cel er
Ġinvis iv
Ġmal tado
blu eto
Ġtw i
Ġ76 2
33 3
Ġleg ionario
Ġessen cia
Ġbag s
filez in
Ġelef ant
Ġmam my
pi rel
Ġsg ord
Ġ414 140
Ġpanel x
Ġgira f
99 9
Ġyo g
Ġalf aluminio
Ġbb q
Ġmad vid
Ġdor mir
Ġemp orinho
Ġgour m
140 1
Ġmod uline
Ġmetal iz
Ġpur iss
fla na
Ġalma d
tab s
Ġlan c
Ġtalento rech
Ġtamp as
73 34
sy nt
Ġcoc ei
Ġdefin ity
Ġsus hi
Ġfura d
Ġescova da
du o
Ġ112 2
Ġ112 6
Ġge racao
Ġdun k
fon dant
Ġlil ith
pla t
Ġmaxi four
ett ini
Ġspe aker
Ġair licium
Ġren go
Ġsod ico
Ġcur r
repel ex
Ġabsol uta
Ġelectrol u
Ġass ort
Ġass emb
Ġched d
cro kissimo
pira tas
Ġviole te
Ġcoperal co
Ġ111 82
Ġabas iv
mul her
op ti
Ġamac ihair
Ġ789600370 65
Ġdiver tix
calc itran
dan clets
Ġnin ar
Ġform ula
Ġkera f
Ġrestaura ca
Ġcre a
Ġcre olina
Ġaut c
Ġ7622210 9
Ġ7622210 85
desentup id
achocola tto
Ġps m
Ġ064 2
Ġfis cher
249 26
Ġantia der
Ġthree cats
Ġ789610 2000
Ġcac ucar
Ġpaco quit
Ġ113 40
Ġ79 77
Ġuni q
food s
corn etto
Ġ4140 57
Ġgrad ual
Ġhigien izante
Ġphila d
Ġ249 50
Ġ249 77
Ġsandw ichin
Ġer dinger
Ġ613 3
Ġ613 53
mag istral
Ġmeta la
Ġnotur n
Ġ86 15
Ġapa recida
Ġci randa
Ġtru e
Ġkro kitos
Ġcpim en
Ġconch ig
Ġlei f
Ġsnack s
Ġsnack ers
Ġmmus cu
Ġmuri o
Ġwe fer
Ġstr ing
Ġstr udel
cava deira
Ġdefini tion
Ġsala d
flan cox
Ġriso v
Ġathle ti
Ġtabl et
260 6
Ġgabo a
emba re
Ġdesidrata d
Ġembor rachado
Ġwal k
Ġquinoa alho
Ġspo t
aper t
Ġgi use
Ġgi andu
Ġtart uguita
Ġvarie da
Ġcollection s
Ġjur umix
Ġgalin legu
Ġ41325 67
Ġ41325 672
Ġ924 12
Ġferra rato
Ġanj inho
Ġ060 60
Ġet ilico
Ġsar nicida
sil en
Ġmom etas
Ġchen ille
Ġcondiciona dor
Ġjura ssic
Ġrefrescan t
Ġmur um
Ġ183 75
Ġia te
517 8
box er
Ġumedec idas
Ġgli mepi
pad rao
Ġ832 7
810 994
cala bre
Ġparbol izado
Ġ014 1
Ġpeti toya
Ġreser ve
Ġmun do
518 61
Ġspanto o
Ġbow l
Ġdist racao
Ġ307 25
Ġ090 10
Ġfeijo ada
Ġ789633600 28
Ġwil de
Ġ030 10
Ġalfab eto
Ġgeomet rico
Ġpino t
Ġquei mado
Ġproven c
Ġpoderos as
Ġmoder na
Ġmaior ca
Ġafri ca
Ġcoo pex
Ġ41370 67
esf reg
Ġstrog arroz
Ġscaro c
Ġ9600 13
tid ian
Ġ256 95170
Ġvfa eco
oleos idade
Ġorigin ale
Ġhaus kraft
Ġpequen as
Ġcig ana
Ġ4005 900
Ġcasco rez
Ġpomelo verb
Ġreto uch
Ġqt z
Ġ169 320
Ġclos et
Ġ41439 810994
Ġeff ici
Ġmarsh mallow
Ġespan hol
Ġ41415860 994
recip iente
Ġspeci ale
Ġgramp eador
bene grip
yor k
Ġbica mada
esfol iante
descolo rant
alfar roba
Ġ428 75
Ġofer ta
Ġbrist ol
poleng hi
Ġapre ciare
Ġexpan d
Ġcauteri z
espan ador
Ġtuto ia
Ġvor us
sam ba
Ġobi kwa
Ġsous ete
adu bo
Ġmete oro
Ġapi ario
Ġclotrimazol cr
Ġspaghet toni
Ġprogli de
selo zok
Ġlatit ud
Ġdomper idona
Ġcapsu las
Ġpegad as
deli ket
Ġestofa dos
Ġlff g
caref ree
Ġvcapil it
chuch u
Ġmagr inh
Ġpomo do
decadr on
Ġdexame tasona
Ġalimenta cao
peper oni
Ġcontain er
acessor io
Ġlovete x
Ġmultipis os
Ġprednisol ona
Ġgruy ere
blueto oth
synt hroid
Ġgiandu ia
Ġgalinlegu me
Ġglimepi rida
Ġeffici ent
0 300
4 70
4 18
4 65
5 46
5 895
6 74
8 100
a ut
a dega
b g
b ca
b ut
b us
b ica
b orr
b etto
c lar
c ulos
d ish
e tico
e uth
f lesh
g ir
g erg
j ur
k om
k icaldo
l co
m ei
m ers
m isso
n ac
n iz
o ft
o real
p rev
p rep
r ist
s lip
s inot
t f
t ut
u dos
u iche
v ena
w ra
w al
y rox
z io
z eira
Ġ =
Ġ ?
Ġ uc
Ġ iogurt
Ġc ira
Ġc ente
Ġp y
Ġp ch
Ġp va
Ġp cu
Ġp ipo
Ġp polenta
Ġp lie
in leste
Ġm bi
Ġs tell
00 08
re cedor
la pap
an ol
co ral
Ġb orr
Ġb por
Ġb istro
al ta
al les
al cas
al pis
al bum
Ġ2 121
es cavadeira
er re
er ito
Ġd ros
or y
ml cond
Ġf f
Ġf im
Ġf ram
Ġf flor
Ġf inger
Ġt ca
Ġt do
Ġt itan
ol in
ol la
on id
on ida
ca ix
ca ju
Ġa ac
Ġa sep
is p
is on
ta pet
ro u
Ġ5 32
Ġ5 39
Ġn ha
Ġn it
Ġn im
Ġg an
Ġg tas
ha shi
Ġv l
Ġv cr
Ġv bo
Ġv ile
Ġv ene
50 851
Ġ4 18
Ġ4 285
as onic
Ġ500 5
ti rox
ch urasco
ve co
ve ge
Ġre de
Ġre quin
Ġma to
Ġma ti
Ġma las
Ġma de
Ġh en
Ġh ibri
Ġca ve
Ġca des
Ġca vela
Ġca ven
Ġla te
Ġla cr
Ġla fr
Ġla be
Ġla nd
Ġla fra
pa m
pa ticida
pa zinha
Ġe h
Ġe terna
it ter
it he
Ġ200 2
ul tra
sa ta
sa dia
de tox
Ġk ado
Ġo xi
Ġo vi
Ġo jon
id ida
Ġi v
Ġi dea
Ġi veco
le xo
os hi
Ġ7 10
Ġ7 79
Ġ7 125
va tri
Ġ6 15
om ico
Ġro g
Ġal w
Ġal ce
res tone
lo p
lo oks
gu et
gu za
gu ela
at ch
Ġj ul
Ġ12 1312
Ġx a
Ġx z
Ġ100 1
Ġ100 8
Ġse v
40 9
40 501
Ġmar cel
ga m
Ġ400 1030
po la
Ġcol eto
pan q
pan asonic
im eca
Ġcon des
Ġcon forado
Ġes ca
Ġar ticu
Ġmo b
Ġmo giana
ne to
Ġr b
Ġr sp
Ġr sbc
Ġba teria
Ġfr se
Ġto ke
Ġw atch
Ġnes ft
Ġcar qu
Ġcar me
Ġcar dio
Ġcar los
Ġqu ed
Ġqu ara
Ġqu ibe
30 2
30 8
30 10
Ġ50 50
sh imeji
Ġan ji
mol qjo
Ġam id
ac ne
Ġcr ink
Ġ25 16
Ġper io
10 300
Ġaz alho
ua pe
Ġtri pack
mo tor
80 30
Ġch l
Ġch ita
Ġch ili
Ġch rist
Ġpet isc
Ġ20 52
60 7
60 64
Ġso cks
st udio
12 78
Ġvi vid
Ġq clor
Ġbab by
Ġ0 75
Ġ0 103
Ġra cket
Ġ33 9
Ġne ct
Ġu don
cha peu
Ġcoco choc
am e
ck out
fa cao
Ġmin eir
Ġte las
Ġ15 602
ion i
Ġsal cool
Ġ40 8
Ġpre nd
Ġno is
Ġ26 358
Ġel i
Ġel o
fr tti
Ġlo ura
Ġlimp issima
lu ftal
Ġcho p
ad ut
Ġac ces
Ġac eito
Ġbar il
25 3
Ġve f
Ġve z
Ġ60 505
Ġmon al
Ġmon itor
Ġcolor ball
Ġlac fr
Ġcap top
Ġ120 13
Ġ120 68
Ġpas ti
Ġle via
Ġmulti color
Ġmulti cerea
Ġdes er
Ġdes ca
Ġcor tes
Ġcor tad
pra ia
Ġlimao geng
Ġfgo cenoura
Ġfgo molqjo
Ġanti cas
Ġanti emb
Ġanti pers
Ġsol ta
Ġ80 2
Ġ23 55
Ġ23 82
Ġsadia perd
75 3
Ġfres quinho
na to
na val
na pri
Ġdi fel
for ca
ka i
Ġgran ula
Ġ70 37
ale g
ant sept
Ġst res
Ġst olf
Ġst udi
Ġgra una
Ġbom bons
Ġmen o
car pac
gre g
Ġbl enda
Ġbl ckout
Ġimp a
Ġcl r
Ġsuper b
Ġ14 31
Ġ14 84
Ġap on
Ġbio a
Ġbio tin
Ġfem i
Ġmax il
89 7
Ġcha p
Ġcha pa
Ġcha cara
Ġga ia
lan d
Ġsu fr
Ġsu eca
Ġsen e
Ġsen h
18 50
bi f
bi fe
ven us
Ġmed ios
Ġcit rio
32 9
Ġlar gen
iab a
Ġ340 4
Ġextra tom
Ġfle ish
Ġna ch
Ġpar c
Ġpar ma
Ġacti va
38 8
Ġfort pack
Ġpan i
Ġson ia
frut t
ian e
64 34
Ġ789 730
Ġ130 2
tim un
ces tos
Ġprof is
tar get
ber inj
Ġ28 14
Ġmini box
Ġbri ga
Ġcd isp
Ġph ill
Ġval du
bol in
Ġbaun ilia
Ġriches te
Ġcos me
Ġcro d
Ġcro mo
Ġcro quete
ext rata
vas so
ph y
Ġbrin de
Ġgla ci
Ġsor vet
Ġsor betto
Ġmat cha
Ġbig ral
Ġcoz i
45 3
Ġadul tos
Ġtran cado
Ġitamb inho
Ġ110 1
Ġ110 11
Ġcu tic
Ġ19 99
Ġ19 139
Ġab sorv
pal it
Ġmand u
ny looks
36 9
Ġ175 65
Ġmd alv
Ġ38 44
Ġcp il
Ġche es
Ġfar nes
Ġfar inleste
Ġdef i
Ġkib er
Ġpq macia
cam isola
Ġbra c
Ġfaz e
Ġpimenta o
Ġ27 49
Ġmae filha
28 4
94 2
94 3
Ġbomba ck
uti cs
207 35
Ġfree g
flo ratil
Ġ65 6
Ġdiet ilgel
Ġ11 12
85 3
85 24
ili q
Ġcastan has
Ġ84 310
Ġcacau foods
Ġcer rado
amendo as
tit ucional
Ġ41 12
Ġfacil it
Ġmoran guete
Ġcalca do
Ġdis cao
84 61
Ġpassa ta
Ġpassa temp
Ġgelat inas
Ġmaci el
Ġespecial ita
sala d
Ġauto ades
Ġpos ic
Ġ413 71
Ġfe ra
68 2
Ġsand uiche
Ġnot u
Ġsk ill
Ġmei ga
Ġvital l
Ġbolon he
fres cor
brin cando
til o
maca co
maca xeira
Ġ127 3200
55 53
Ġ44 3
Ġiso plast
Ġparamo ut
Ġchoco mil
Ġchoco vinhos
Ġmal ta
Ġintens os
Ġfi xt
Ġfi restone
01 40
01 12
prote t
tri p
Ġgrend h
Ġsm trip
Ġfas hi
Ġ78960 280
Ġfam e
Ġumid il
Ġyo kai
Ġgour me
Ġhem etico
Ġavul s
Ġhidro cloro
bb y
Ġelect r
ior gus
Ġpi erre
Ġfruit tella
Ġser ie
Ġser rata
Ġfinas teri
73 12
Ġexp os
Ġtalhar in
Ġmt b
Ġpis cin
Ġfel i
Ġdun lop
Ġ64 9
rep on
passa deira
bor rifador
bor nato
energ il
Ġ69 48
Ġexc ell
dex as
Ġfei mac
Ġmm d
Ġvul cao
Ġume cta
pre bio
Ġquera ti
Ġquera vit
Ġstand art
Ġpeda c
eri es
Ġescu recedor
cab eca
Ġ59 21
cus cus
mic ina
Ġdiver tido
Ġob ba
Ġgam es
Ġmu g
Ġber ga
Ġnin ja
Ġjohn so
Ġrestaura c
Ġ195 60
Ġprotect fps
Ġden im
Ġ7622210 96
81 90
Ġacr ilex
Ġcf ibra
Ġlumino sa
Ġpapa gu
Ġcruz wal
Ġ25226 240
Ġig uape
tiza dor
Ġlen c
Ġ370 5
Ġfre vo
Ġcole cao
Ġemo c
gl itter
sem en
Ġgri pe
Ġty pe
Ġfood s
Ġrob le
Ġmaion e
Ġ4140 267
Ġtriang ul
Ġ40000 4
Ġ40000 32
Ġphila de
Ġop v
shoul ders
Ġ613 33
mag num
115 901
Ġperola d
Ġclo beta
Ġpap rica
Ġmeul eite
Ġhidrocau te
Ġmatiza dora
Ġnotur na
pip icat
Ġcen gate
Ġben gue
57 66
Ġ03 35
Ġci rio
Ġcy b
Ġchok ol
Ġbald ucci
Ġplan ts
Ġ83 12
Ġbomb eiro
Ġ2613 7
Ġcaramel izado
Ġnormal seco
Ġspagh ettini
Ġins titucional
Ġ000000 8461
Ġbre ak
film sol
manj ar
Ġrefor cada
Ġgol finho
Ġcara cu
Ġcapa taz
Ġdual pro
Ġdual ette
Ġdecora tiva
Ġourol u
Ġgrava dor
Ġaper ol
Ġpoly mer
Ġadvan ce
Ġtech nic
Ġexpress fun
Ġfigu e
Ġmaqu iag
luc retin
hom us
Ġproces sador
Ġinfin it
Ġsemides natado
Ġ4137 72
Ġcilin dro
Ġfol h
Ġwal it
Ġnatucar n
Ġdos es
Ġcongela da
Ġlusa f
Ġ0000000000 12
Ġ0000000000 000
Ġtour ing
Ġlaz uli
Ġshock ing
Ġflash man
Ġaur um
johnson s
Ġbronze ad
Ġbronze adora
Ġutens il
Ġbuf alo
Ġace bo
Ġklin do
Ġcura prox
Ġlubrif ica
amo lador
Ġbrazil is
leit bom
Ġprec ios
Ġtre b
Ġ41394 75
sundown fps
Ġ762230086 13
jard ineira
Ġhermet rico
gal inha
Ġmun guza
zan phy
Ġalb in
ceb ion
cort cr
Ġbata t
Ġmh b
ont borr
Ġantimancha s
Ġserv ir
Ġlambrus c
Ġgos t
Ġ304 94
Ġgeomet ria
cres p
Ġtha iland
tag ioni
Ġid ent
Ġid ge
Ġpert uto
cli pes
Ġadi tiv
Ġfecha mento
Ġolimp o
Ġdisc ip
Ġ411554 90
Ġcic l
Ġcic lista
Ġconto ure
Ġnivela dora
cappuc ino
rapad urinha
casa dinho
vermelho s
Ġ4123 32
Ġ00010 115901
Ġweizen bock
Ġseren ity
Ġlavlo ucas
hidrata cao
Ġdomini que
croc ante
Ġ25951245 38
Ġfan at
Ġconfor to
Ġesto fam
cre olina
Ġbad boy
Ġretard ante
sim onetto
Ġroca mbole
Ġrota tivo
Ġimporta da
Ġimporta do
Ġ41439 8100
betame xpe
nar id
som algin
zip loc
Ġ2495 4
Ġ2495 5
Ġcoqu erito
Ġlamp iao
Ġteam s
Ġantipul ga
Ġmagnes ia
Ġschincar iol
Ġacetilciste inaxpe
tur q
Ġaga ve
Ġpoes i
Ġassu grin
kick s
chuv eiro
Ġlevo tirox
Ġtherm al
Ġ41372660 994
Ġsuperfic ie
hum us
nal decon
Ġ1577 4
Ġdesper ta
Ġ414130 50064
Ġspear mint
Ġ41155 48
sch we
Ġdupa ra
tiaz ida
Ġ1274 600
gati ba
Ġbacal h
Ġancho va
Ġanticoc eira
Ġfreshma tic
Ġprofisso es
sky loff
Ġ4141518 216
Ġantivazam ento
bord on
econ omico
Ġsilhou te
Ġdelak asa
Ġpros eries
Ġrab bi
Ġjonh sons
concent rado
Ġescol ho
Ġhoega arden
Ġfoam y
Ġterrape utics
Ġeletron ica
couv esp
Ġsiri guela
Ġpiro xicam
Ġ4600 02
Ġ923 1401
Ġmarras q
Ġtequil eiro
cord eiro
Ġcroma dos
Ġcachor ro
Ġ762221076 29
Ġibupro fenogts
fisiog el
kello ggs
Ġpinga da
repol ho
espa guete
Ġprop rio
sous plat
Ġshira z
Ġgiuse ppe
Ġmurum uru
418 68
bca a
bus onid
bica bornato
euth yrox
mei ao
wra ppy
lapap ontborr
Ġbpor to
alles tra
alpis te
Ġtitan ium
Ġnha c
Ġrequin te
Ġhibri da
Ġcades ivo
Ġcaven dish
Ġcoleto ra
imeca p
Ġnesft s
Ġcaptop ril
Ġlimaogeng ib
Ġantipers p
napri x
Ġdifel icia
carpac cio
Ġlargen couvesp
Ġ789730 940
Ġphill iliq
Ġvaldu ga
extrata o
Ġhidrocloro tiazida
Ġfinasteri da
cuscus zeira
Ġcruzwal dina
Ġclobeta sol
Ġ414398100 64
Ġlevotirox ina
0 25
0 75
4 25
4 28
5 44
6 60
7 13
7 65
a tac
b ina
b lowtex
c len
c ene
c idas
c ilios
d up
d inh
e isen
f umaca
g ico
h son
i pe
i rit
j al
j or
j ei
l et
m ca
m uss
m anteigu
n p
p ha
s ini
s if
s ebo
s ans
s weet
s zp
s educ
t orte
t ula
u ela
v cenou
x ol
y as
z u
Ġ ""
Ġc ree
Ġc iza
Ġc antil
Ġc rosca
Ġc kt
Ġp d
Ġp pt
Ġp imp
ra pante
Ġm v
Ġm ab
Ġm ilan
Ġm je
Ġs id
Ġs sc
00 89
la ce
la minas
an ca
co p
co ber
Ġb iso
Ġb erg
Ġb illy
te mbe
al ux
ar m
Ġ2 119
es ol
es ul
Ġd re
Ġd face
Ġd maria
Ġf uro
Ġf ell
on ola
on utri
ca mbole
Ġa ju
Ġa ure
Ġa rald
ta ran
ro esa
ro cambole
Ġ5 29
Ġ5 98
Ġ5 376
Ġ5 1600
Ġn mp
Ġn ips
Ġg ab
Ġg osh
ma ch
to uc
to ons
Ġv p
50 856
ri ao
ri ty
Ġ4 48
as ep
Ġ500 7
ti la
ve get
Ġli an
Ġre ac
Ġre tencao
do ral
do late
Ġco el
Ġco ur
Ġma cha
Ġun ic
Ġun itario
Ġh s
Ġh oll
Ġh eng
Ġca ia
Ġla p
pa ul
Ġe ve
ic eb
ic urado
Ġpo cao
Ġpo st
Ġpo kem
it ine
bis olv
Ġ200 1
ul ose
go tad
sa tis
sa quinho
Ġ8 127
Ġ8 174
Ġk al
Ġk alo
Ġo ek
ig ente
Ġi tembe
des can
Ġ7 15
con for
Ġde la
Ġro c
Ġal q
Ġal inhado
res t
res sa
Ġ9 36
Ġ9 48
Ġ9 270
lo uca
ba g
ba ter
ba guete
ba mbu
ba ralho
at ux
Ġj v
Ġj ei
Ġj ft
Ġ12 12
Ġ12 11
Ġx e
ina o
Ġse cas
40 852
Ġmar cant
Ġ400 2
um im
Ġcol lagen
ral ose
pe laggio
ce win
ce pacol
Ġsa pa
Ġdo ctor
Ġcon o
Ġcon st
ref lex
od ona
Ġes za
uc ralose
ur in
ne os
Ġr oney
Ġba lanc
Ġba guete
Ġba cker
Ġfr szp
Ġto mara
Ġw ht
Ġw ill
Ġw ummis
Ġpa is
za do
za pr
Ġy una
Ġy upi
Ġan gel
Ġdent inho
Ġcr ua
Ġ10 47
Ġ10 122
Ġ30 2
Ġ30 13
Ġ30 21
Ġ25 213
Ġ25 299
Ġper it
ct ona
esc ur
10 34
10 64
10 401
Ġtri um
Ġtri bu
Ġtri ciclo
mo v
mo x
mo coca
mo edas
so vex
Ġch anti
Ġch antily
Ġ90 18
Ġsan rem
Ġ20 90
60 16
Ġso fite
st ilo
st reet
Ġsh imeji
12 34
12 56
ine tes
Ġvi es
Ġq da
Ġq boa
Ġ0 154
su i
Ġlav camomila
Ġ33 8
Ġu ma
Ġu fe
cha i
cha mel
Ġpal it
Ġpal inetes
am or
am ei
ip po
ip urum
ux iliar
fa tia
Ġchoc menta
Ġpt ar
anda dor
Ġmin ni
Ġ15 14
Ġ40 3
Ġz iper
Ġz iti
Ġazul i
Ġce u
one urin
Ġcas il
Ġ26 128
fil ina
fil trado
Ġreg en
ila x
Ġlo ir
Ġpr f
Ġman ut
24 90
24 34
24 363
refrig er
Ġcho com
ras s
Ġgo uda
Ġac ustica
Ġbar onia
Ġve gema
cal cu
Ġ60 20
Ġmon as
15 2
Ġlavanda confor
Ġdes ig
Ġdes nata
Ġdes emba
Ġ24 4
Ġ24 50
90 334
Ġpe an
Ġpe ter
Ġpe pp
can etinha
can esten
Ġcor tada
mas sinha
Ġnut re
esp etinho
Ġda toys
Ġanti fri
Ġanti poluicao
Ġsol da
Ġ80 30
bo tija
cu rity
Ġban mel
Ġdi ve
Ġbi ter
Ġbi polar
ka wa
Ġverm cz
Ġros so
uri dade
Ġmas g
Ġmas k
Ġmas cot
ale fv
Ġst k
Ġst on
Ġst veia
Ġter mop
Ġaero b
Ġdan ett
ros s
Ġ16 31
Ġ16 83
no ta
no bre
Ġmen i
Ġmen do
Ġcomp rim
Ġcomp art
car regador
Ġho te
Ġped r
Ġcle am
Ġ900 2490
Ġbl iss
Ġ140 45
Ġpara dis
Ġimp resso
papel eira
Ġcom odoro
Ġ14 429
Ġap ont
Ġbio ativa
Ġbio reflex
lava gem
11 900
Ġcha my
Ġcere am
Ġdu vel
man ia
Ġga tea
Ġflor sonho
lan er
95 3
Ġpres erva
Ġbas mati
Ġnutri tiv
Ġsc jon
34 1
Ġneutro c
Ġmed al
Ġmed ico
Ġmel ox
Ġmel ken
Ġhu ggi
Ġvit ril
Ġhe xa
Ġna toons
milho erv
Ġfort freezer
Ġbe ans
Ġbe urri
Ġbe chamel
Ġalum in
Ġalho oleo
64 3
Ġtur co
Ġprof lex
Ġ17 64
tar gi
Ġmini e
Ġjoh son
est ante
Ġfa vo
Ġmult y
Ġminu an
cl iss
cl ortal
Ġcan el
Ġpla tina
Ġespa tula
Ġ22 7
Ġ22 2030
Ġbrin k
Ġclean ing
23 991
66 6
Ġvan tag
Ġmat uridade
Ġsem icurado
adoc yl
Ġmil nut
Ġmil ken
anti pul
pal mer
Ġchur ros
Ġ260 5
Ġpamp a
gran ul
Ġ175 00
Ġbettan i
Ġbel inda
Ġclassico s
Ġres is
Ġpron tas
48 1
48 00
Ġart ilux
nes ina
Ġher os
Ġblack e
ver d
ver me
Ġ57 60
Ġ48 00
Ġ48 58
Ġfaz ul
Ġgr ing
mini chicken
Ġbc gra
Ġ27 4
Ġtr ink
Ġger bea
cera ve
pro b
cot ton
cot tage
Ġultra ball
vita m
Ġpast in
Ġsuav i
Ġala din
Ġfree gell
Ġfra pe
Ġdura fio
Ġtor tig
Ġrosas flor
Ġ220 2
600 8
Ġ34 9
Ġbro mop
Ġbro mex
bon at
bon ito
hamb ur
mal vatri
Ġmis teri
Ġtu fo
Ġpass er
Ġespe to
Ġfit nes
Ġsuc ra
Ġcer lao
Ġbal lant
Ġ41 109
Ġassa fort
Ġsur pres
loc tite
Ġlem br
21 10
Ġpos quimica
Ġchi al
Ġ413 200
Ġervas queratina
Ġtar sila
Ġ13 34
Ġ13 38
Ġlon d
210 1
Ġkol inos
Ġgill et
sup ino
Ġpia zza
Ġbor nier
Ġbor dea
Ġpim ente
Ġdiv in
Ġ29 26
78 3
til h
Ġju ju
cel ha
Ġfil ht
Ġfil ezinho
Ġfil trado
98 2
Ġ114 9
Ġ114 80
Ġchoco teen
Ġmal uca
Ġmal boro
Ġpg lace
Ġtd s
Ġfi renz
bab ete
Ġtw in
Ġlev s
Ġ76 30
Ġind ic
Ġpure z
Ġfu ji
Ġ43 905
Ġ56 24
Ġtos ca
Ġorto d
Ġ68 14
Ġlava d
Ġlava z
Ġvol k
par m
hi biscus
Ġatum bater
Ġmezz an
Ġtort ilha
vi terg
rosquinha s
Ġact ge
Ġalim ent
ag riao
Ġsant ini
cacho fra
Ġhem m
ly n
320 6
Ġpreta escur
Ġoceano as
Ġcs ucralose
organ izado
deseng ripante
Ġki kao
Ġser r
Ġesco v
Ġsani fil
Ġdefin ir
Ġinter dental
Ġola ria
230 9
fl ics
je ans
Ġamaz ing
Ġ020 1
Ġ112 8
Ġalmofada da
fon due
Ġlimo eiro
Ġstar k
Ġ789601310 66
passa tempo
79 39
Ġaven ida
Ġmaxi ma
Ġbret uti
Ġquin cast
Ġpat inho
Ġchic lets
Ġaroma tizad
Ġ61 12
Ġmarro cos
Ġlisos delic
Ġder mac
Ġcacho eira
Ġclar iss
Ġdom es
Ġdom ec
pre ds
700 0
05 3
bate d
Ġsum m
Ġcitri odona
Ġlu is
Ġpala t
rs ane
Ġ789600370 20
Ġ789600370 25
Ġ789600370 37
rad inha
Ġfolha g
Ġerv il
Ġmu rano
270 1
Ġ67 19
Ġber co
Ġlibe rad
cebol in
Ġtriun f
Ġreconstr uc
Ġcremos issi
Ġ7622210 8
Ġ7622210 66
Ġ49 10
bicar bonat
Ġfinal izador
Ġvo ce
Ġbomp orto
tiza do
Ġtub inho
dis ney
Ġdob le
Ġdob rasil
Ġfis ch
super sec
49 7
Ġnugg e
Ġchil el
Ġcost ura
Ġ113 8524
Ġ000 300
Ġrevital iza
var re
Ġdesid rat
cur y
Ġ40000 300
Ġ185 70
env elope
Ġ249 65
chi ke
Ġbuono g
Ġ613 11
mag nes
Ġtul e
Ġzinco pom
cla ri
Ġframb roesa
Ġbone cos
Ġben ja
Ġativa dor
olog ic
Ġti ana
Ġrisca do
Ġativ idades
Ġmaiz e
Ġgot inhas
Ġcub e
Ġpau laner
marm elada
Ġ789840995 20
flu o
kol yn
408 66
ser rote
Ġherc ules
Ġ789610250 94
Ġ975 7
Ġelem ento
Ġelem entos
Ġnata cao
228 26
bran c
Ġlanch onete
Ġbolog n
Ġdobra v
lr l
prat inho
Ġclor s
Ġng m
ben atux
ben zapr
cy ber
Ġrock ets
sobre co
Ġdt b
san y
hom em
Ġcaf p
Ġcaf fa
Ġ4137 119
Ġ4137 11900
Ġspo wer
Ġ0000000000 00
Ġrodo facil
Ġsof ia
Ġ8414 600
nor ipurum
Ġcura cau
Ġprocom fort
Ġwhis ke
Ġic y
Ġsque ze
tonaliz ante
Ġpesad as
Ġintel igente
Ġespir onola
Ġfos ca
Ġprec isao
Ġtapete s
clo reto
Ġgen ebra
Ġ832 8
Ġ1650 80
154 378
Ġcaracol ino
trat or
fin n
cris py
Ġ307 68
gex r
Ġpraf es
Ġfiamb res
Ġbrvd pi
Ġcomporta do
glu te
Ġ60040 103
Ġbondu ell
Ġ6100 7
Ġ78960037 00
Ġent re
Ġent repo
Ġbris as
Ġ76223008 37
Ġmediter raneo
cli pa
cli ps
Ġvie ja
Ġrespira r
Ġlit ros
Ġconto ur
Ġ108080 460
Ġ138 8
Ġmund ial
Ġsurpreend ente
bana iaba
Ġ678 2
Ġseren ety
Ġimpe rat
Ġ413510 200
Ġdad u
Ġpeixes imonaggio
antissep ti
Ġ4005 80
Ġtrico facil
Ġbit s
Ġstag cr
rechead inh
busco pan
Ġbetame tasona
Ġtaglia telle
dio van
Ġpk nt
Ġlix as
decon gex
Ġmanic rem
carn itine
Ġmagnes io
Ġ22010 10001
bond uelle
Ġ41413 48
Ġacetilciste ina
Ġciclo benzapr
Ġacele rado
Ġptor osa
Ġdesloratadina xpe
Ġtempran il
Ġ1080800 08
glifa gexr
hipoglos pom
516 14
pepin inhos
Ġptint ura
advil extra
Ġpanque ca
Ġexplo rer
gxz d
Ġpolietil eno
hig elimp
Ġingre d
Ġesferogra fica
Ġ4130090 50
Ġ413948 1475
Ġbacteri cidas
kell mat
Ġcober to
sonris alefv
Ġ41331674 60
smo ophie
Ġdete g
Ġjuca ra
Ġxuxa o
Ġcappell ine
Ġlega cy
Ġdiante iro
alex ina
Ġcamem bert
Ġdurac ell
mys tic
rea u
alfa jor
Ġcatar inao
Ġalgo da
Ġcef alexina
Ġalmofa d
Ġisola bio
Ġ41232 30
Ġ222 130
Ġterraz as
Ġ4132567 2532
Ġexpand ida
Ġmbi j
rou ge
Ġnim esul
Ġvene za
vege tais
Ġkado v
Ġxa xa
Ġmineir inha
Ġmonal isa
berinj ela
Ġexpos is
Ġumecta cao
Ġdiscip lin
atac and
cene vit
eisen bahn
manteigu eira
sans sini
Ġcree ese
Ġmilan es
Ġmje as
Ġaure a
Ġarald ite
taran tella
Ġgosh en
touc inho
asep xia
doral gina
Ġmacha do
paul ista
iceb lue
Ġpokem on
bisolv on
gotad v
Ġkalo ka
Ġoek ter
descan so
Ġ9270 3
Ġsofite li
Ġchamy t
Ġscjon hson
Ġmelox icam
Ġbeurri er
targi for
clortal id
palmer on
Ġgerbea ud
Ġtortig lione
Ġbromop rida
Ġbromex inaxpe
Ġmisteri os
Ġatumbater vcenou
Ġdomec q
preds im
Ġespironola ctona
Ġciclobenzapr ina
Ġnimesul ida
* -
* *(
0 16
0 23
0 39
0 85
2 17
2 77
4 15
5 12
5 70
5 35
5 65
5 42
6 20
6 21
7 120
9 31
; &
a gr
a fa
b ell
b tu
c ut
c arra
c ip
c ir
c qua
c ulito
d un
d enta
d pr
e po
e last
f al
f iamb
f enol
f kin
g ino
g alo
h ista
j an
j ilo
k h
l isa
m od
n ight
p izz
p tero
r uz
t remo
u ar
u acu
w ash
x ig
x yl
z ena
Ġ ĠĠĊ
Ġc k
Ġc v
Ġc corda
Ġc espinafre
Ġp ck
Ġp pizza
ra ce
ra viol
in di
Ġ1 37
Ġm q
Ġm gg
Ġm pp
Ġm ms
Ġm sabor
Ġm ignon
Ġm upy
Ġm flex
Ġs as
Ġs pele
00 4
re ke
la d
co qu
co quinha
co vado
Ġb q
Ġb iz
Ġb br
Ġb uch
Ġb dest
te e
al h
al on
al et
ar mac
Ġ2 14
es cap
es fi
er pa
Ġd d
Ġd ro
Ġd ce
Ġd ila
Ġd esm
Ġd ds
or im
Ġl es
ml rf
Ġf ada
Ġf ala
Ġf ts
Ġf pi
Ġf rente
Ġf ilao
Ġt ole
Ġt bo
Ġt frut
Ġt rf
ca car
ca mara
ca pelletti
Ġa massa
Ġa terna
is cao
is ana
Ġ3 24
ho use
en saladeira
Ġ5 89
Ġ5 48
Ġn c
Ġn ic
Ġn sa
Ġn ina
Ġn pro
Ġn ivel
Ġn ight
Ġn ong
un p
un grip
un pot
ma ve
ma resis
to sa
to cal
el ixir
Ġv ine
Ġv ant
Ġv entos
Ġv oy
ei rito
50 50
as solan
ti ga
ti vin
ch uc
ve e
Ġli on
Ġli ps
Ġre my
do bon
Ġco ut
Ġco cp
Ġco alhada
Ġco tidian
Ġun idade
Ġh ers
Ġca v
Ġca da
Ġca ct
Ġca tania
pa ras
pa ella
Ġe me
qu ivo
qu ibe
Ġpo e
Ġ200 00
ul id
ul so
ul min
ut ro
go bar
go ji
Ġ8 25
Ġ8 74
Ġ8 140
Ġ8 63
Ġ8 282
las tico
de f
de do
de xa
de fin
us ion
Ġk r
Ġk s
Ġk y
Ġk er
Ġk is
Ġk ida
Ġo ran
Ġo se
id r
Ġi ri
Ġi ti
Ġi mar
Ġi ten
Ġi ons
le an
le ve
os s
des oriz
Ġ7 28
Ġ7 29
va cao
Ġ6 40
Ġ6 65
Ġ6 68
con al
Ġde pos
Ġro lao
Ġal em
Ġal ki
Ġal ema
Ġal face
Ġ9 15
Ġ9 16
Ġ9 55
ba ton
gu ito
gu ry
Ġj an
Ġj us
Ġj ust
Ġ12 14
Ġ12 32
Ġ12 86
Ġx r
Ġx fresh
Ġx icara
Ġ100 50
Ġse q
Ġse gur
Ġse reg
40 252
40 856
inha me
po ol
pan tri
ral iso
pe ca
Ġsa g
Ġsa gatiba
Ġsa peca
Ġdo h
Ġdo zza
ref rat
Ġes ti
Ġes ck
Ġar d
Ġar m
Ġar color
ur b
Ġmo f
ne bac
Ġr ca
Ġr so
Ġr bl
Ġba ia
Ġba ga
Ġto pa
Ġw eb
Ġnes caf
Ġcar tas
Ġcar isma
20 20
Ġqu eb
and ita
sh im
Ġy ur
ed al
Ġan ton
Ġam w
Ġam ole
Ġam ed
Ġam anha
Ġam bro
Ġam andita
Ġcr fd
Ġ10 92
Ġ10 3990
Ġ30 76
Ġ30 4290
fe ta
fe ater
10 69
Ġaz ula
Ġver tic
Ġtri cot
Ġtri colore
mo coquinha
Ġch urasco
Ġpet ya
Ġ20 30
st ra
st rog
Ġsh ark
Ġsh erpa
12 30
12 24
Ġvi v
Ġinf usion
Ġ0 18
Ġ0 65
Ġ0 36
Ġ0 46
Ġ0 33
Ġ0 169
Ġflo ren
70 12
Ġ33 6
Ġu f
ico ptero
gua ran
Ġbo z
Ġbo tija
am id
eira o
Ġ00 000
Ġmin er
Ġte lada
Ġtp ras
Ġtp link
Ġ15 32
Ġsal ma
iv v
Ġ40 60
Ġ40 770
iso t
iso ft
Ġz inh
Ġazul preto
Ġce pe
Ġce gon
Ġce vada
ir ra
Ġno iva
Ġ26 3
amac ian
Ġreg al
Ġreg ist
Ġreg ener
fr t
Ġlimp pan
Ġsup sec
Ġman gueira
24 682
Ġfor ne
Ġgo el
esm er
Ġac cent
me g
temp r
Ġni kito
Ġni quel
Ġ60 5
15 11
15 44
Ġcolor if
Ġcap sula
Ġ120 11
Ġ120 110
Ġdes ungrip
olo ko
90 9
90 412
Ġpe pe
Ġpe cas
Ġpe potes
can juba
Ġcor in
Ġcor ta
Ġcor covado
esp re
Ġda i
Ġda mas
Ġda fru
Ġsol d
Ġ80 16
bo ys
ge ado
Ġdel ice
cu b
cu las
75 37
75 55
Ġprote ico
Ġprote tora
Ġban pia
Ġban aninha
cor p
500 3
22 2
22 71
13 7
ara dois
Ġ70 40
Ġst ron
Ġst rogonoff
tan i
Ġsp la
Ġsp ino
Ġsp ish
Ġsp iral
Ġgra pete
Ġ35 21
Ġcal di
ap lic
Ġsanit ar
Ġum idade
car ta
car nu
Ġfresh m
Ġ900 9
Ġimp ulso
Ġgre kh
Ġref re
mon t
mon tela
Ġex g
Ġex set
remo vedo
Ġbio protect
ada p
89 65
89 610
11 17
11 92
Ġdu ba
man dolate
color ido
cos ol
tos c
16 50
16 52
rela xado
Ġpres ide
Ġbas to
Ġbas ilico
34 98
Ġesp or
Ġesp orte
Ġmol inha
Ġmol isana
Ġ18 404
ven il
Ġfla vor
44 8
Ġ340 7
Ġvit ro
Ġna tiva
Ġpar fum
cj to
Ġ45 1
Ġ45 3
Ġmix zena
Ġinv c
ren da
ren ona
tor res
Ġas pe
Ġha bbit
Ġpan os
Ġpan ga
Ġol ho
Ġdia man
Ġesc ri
35 7
400 0
Ġ130 7
Ġ130 880
Ġ75 11
Ġ28 33
Ġmini k
Ġbri tani
Ġcd p
Ġph i
Ġph ys
Ġph armac
Ġgu ga
Ġgota x
cl er
Ġcan tos
Ġcan itos
Ġpla timun
Ġbeb er
Ġhidra baby
Ġespa rad
Ġespa quet
Ġpalmol iv
ram ina
ram ine
17 19
Ġque raliso
ph i
Ġtrigol i
Ġbol inh
Ġbrin or
Ġtab lada
dr ina
Ġvan n
Ġvan ila
Ġsabor oso
Ġcoz y
Ġsem orim
Ġ110 28
Ġslim s
Ġta re
Ġta cas
Ġta feta
Ġcu vee
cap uccino
pc lean
Ġaco b
Ġ260 2
36 1
Ġsens isoft
Ġbel inha
Ġrad iador
37 98
Ġ38 6
cueca s
Ġfo cus
Ġceb oloko
Ġele vacao
Ġ96 34
uma tex
72 1
Ġcup ca
Ġhy idr
Ġdef en
ver niz
Ġguar da
Ġmid night
Ġ48 5
mart ini
Ġfaz en
Ġgr phi
Ġgua ra
Ġgua co
Ġbc bco
gra f
gra de
Ġmega m
cas eirito
28 7
Ġ55 6
Ġ55 7
Ġpop up
Ġorgan izad
vita mina
Ġ115 16
Ġsuav es
Ġmi conazol
Ġala ra
Ġpilsen er
Ġnac ional
Ġlata o
Ġav iso
Ġfun il
42 7
Ġdura plast
Ġtor cida
Ġant b
Ġ220 30
Ġhyd rata
tc esc
Ġmac can
Ġrecon t
Ġ84 11
amendo in
Ġcot to
Ġlum my
Ġbal ls
Ġrep aro
Ġrep yl
Ġ380 5
Ġalk li
be y
Ġbu on
Ġpela gg
Ġcart uxa
Ġminho t
Ġviscon te
Ġqua ke
Ġ46 7
Ġ46 38
sala nova
21 70
Ġ275 46
ipa po
Ġpos ta
Ġfazend i
77 9
Ġbul dog
Ġbat maia
Ġlon drina
salsicha o
nutri bom
210 82
Ġdoc ucar
Ġpia o
Ġpia ca
Ġbor go
Ġbor bol
Ġlife b
Ġvital ma
frig i
Ġ29 25
Ġmana os
Ġpente pincel
Ġju venil
Ġlist rada
cel est
cel ular
Ġchamp ignon
Ġforma dor
Ġdb d
Ġlev or
Ġmov imento
Ġko ala
56 7
Ġsm k
aba jur
Ġoce a
Ġcatup i
Ġpor co
Ġshoul de
aroma tizador
Ġsel vagem
enxa da
Ġnapol i
pi re
pi renona
enda zol
Ġdeseng ripante
rata da
Ġtort u
pes o
Ġavela choc
Ġruff es
Ġtot brilho
vi deo
Ġgira torio
Ġyo gu
Ġmad eir
Ġsun s
Ġdor sal
Ġdeco te
Ġreche a
Ġtt f
Ġmos teiro
Ġemp al
67 32
Ġpur ga
gas s
Ġmine c
fla gass
Ġantarc ti
Ġhidro p
Ġmarac gal
Ġcs l
Ġcz n
ille ra
deseng or
Ġdelica t
Ġgas ei
Ġki ks
Ġser ya
Ġkod il
ang lo
Ġbody lot
73 11
Ġesfol i
bio tonico
Ġhair pantol
Ġsolt issim
Ġmama g
Ġ02 94
Ġtren to
Ġinter folha
Ġexp r
champ agne
Ġ020 2
Ġ112 28
lact ul
Ġrit u
Ġge umatex
Ġamora ti
Ġgf ao
Ġ64 66
Ġyak isoba
Ġ789601310 24
Ġ789601310 78
Ġjun co
79 1
79 180
Ġcid ra
208 74
Ġyama moto
Ġspe k
Ġpat ria
Ġmussa rel
fri gobar
energ y
Ġcul ina
Ġpip p
Ġ61 899
sk yn
Ġcont ton
pul seira
Ġmm r
Ġvul c
Ġched ar
Ġume c
700 8
Ġsoy natus
Ġcoro a
sho w
pira canjuba
Ġlavan bem
Ġlu fkin
Ġ970 84
53 603
mic an
dar ling
Ġdiver sao
Ġfolha ge
Ġlumin us
Ġpica d
Ġven u
Ġblo cos
escov inha
Ġ195 65
Ġ195 55
Ġcord illera
Ġcerej lav
Ġfand ang
Ġvas cos
Ġilum in
Ġ95 76
Ġlg t
Ġtub inh
005 11
Ġvia ton
Ġvia jei
Ġcole c
fun ghi
fac ial
Ġrefei c
Ġporta t
Ġpu xador
Ġ117 78
cou ver
Ġbou qu
Ġtek inha
Ġflore te
nat ure
Ġ40000 30
Ġ185 28
Ġviscont ti
Ġ135 7
mag ico
Ġhor mon
Ġclo rada
Ġ155 9
Ġxad r
Ġcoru j
Ġmartin s
Ġbotan ic
olog ie
Ġesmalte c
Ġ412 79
Ġ412 7537
Ġcinz ano
Ġinti max
Ġparme gi
Ġserig uela
crem eira
mais liso
Ġsle ep
Ġlei la
Ġarto i
big en
Ġgord ons
Ġ73 11
Ġxtra co
Ġev ivv
Ġpm entao
Ġintegra i
Ġplay er
Ġquerat in
Ġformig as
Ġincri v
alg ina
Ġofic i
Ġ789600400 38
Ġ789610250 26
Ġ740 2
ru te
Ġtoy esco
Ġexo tica
Ġchurras queira
Ġindiv i
zes al
Ġau k
Ġau ten
paraf usa
ben alet
onas ol
Ġdt x
Ġpoly wo
san ilux
Ġfacilita dor
red utor
Ġcabernet tempr
04 40
260 1
260 3
236 19
"" "
103 12
gat or
Ġacet inado
Ġ8415 4
dip ino
Ġhib i
Ġpatcho u
Ġace bro
Ġmassage ad
Ġcaro b
Ġ78961025 8
Ġ78961025 9
Ġchan elle
Ġchan celer
Ġ245 70
Ġecono bom
Ġ78910790 13
Ġcondiciona d
Ġpedig re
hel icoptero
semp re
Ġagra pl
mu cosol
642 356
055 66
Ġ1650 50
Ġ1650 60
Ġ1650 70
Ġagri ao
vid rex
ann ita
Ġarra so
Ġarra bb
Ġ411 987
518 52
dep ura
Ġpick up
Ġalb endazol
Ġ4000 39
Ġtaref as
Ġseven boys
Ġdescafe ina
Ġsinte tico
Ġgos tos
Ġwil son
Ġbee feater
cica plast
nis ulid
Ġtim olol
Ġix d
Ġtradi conal
Ġ414026 500
Ġ414026 92
lil lo
Ġglac ucar
Ġ789107900 0
Ġris chester
Ġproven cal
Ġdescas cad
555 378
Ġaguac ri
Ġ7917 2200
313 7
Ġmante i
Ġ925 500
Ġ30000 4
Ġtoal h
Ġ41370 63
Ġved ura
Ġbonit inho
cerea i
Ġcostel inha
Ġ413700 79180
Ġcglit ter
Ġacetil salicilico
esf irra
Ġ513 7
Ġalco o
Ġarbo reo
Ġaciz entado
Ġcopacab ana
Ġ4137889 165
pri mera
Ġ413519 6
Ġvinga dor
Ġ4119 50
Ġmoo ca
Ġstev ine
Ġ762221058 13
transp ulmin
ring ts
sin vasta
sin tocal
Ġcarmel ita
gno cchi
Ġcir cular
pep inos
Ġ228 42
Ġpenn oni
Ġregula res
Ġceno u
Ġceno ur
Ġpista che
Ġbit ter
Ġmatina is
Ġjara qui
Ġmimo sa
Ġby e
Ġ400005 27
lubrif ican
empan ados
Ġtn b
Ġcamb ui
Ġmanu tencao
Ġassu gr
Ġ76223009 90
Ġ30516 92
cache ado
Ġdee pclean
Ġalmon dega
dermo tivin
Ġenca tos
486 78
Ġ1080800 53
glifa ge
Ġpral ine
Ġreduto ra
Ġtravess ia
sul fite
Ġlasag na
Ġveter inario
Ġjapon esa
Ġ4140265 1976
contr ole
Ġ973 227
Ġanlo dipino
Ġ78910 750
trok n
Ġ4360 54
Ġ4115844 0089
Ġhortifruti culas
Ġpilha s
Ġsie te
chet tas
Ġdemaquilan te
Ġjen ipapo
Ġcarbo ciste
Ġinfini te
Ġfriz ante
fortale c
Ġaromach ologie
neutra li
Ġ78935000 24682
Ġpw r
Ġkn nor
Ġ958 8
Ġbaru e
Ġacobre ado
Ġ41374 75
Ġtransfor mes
Ġmuriela cqua
Ġ0000000000120 48678
melan cia
Ġ21883 11
Ġdexclorfenira mina
core ton
Ġ933 242
Ġcarlt on
Ġmecan ica
Ġexcl us
flana x
prev ent
Ġcente n
Ġdros pirenona
Ġhen k
Ġlate ral
pola ramine
Ġarticu lado
motor ola
Ġskill hos
Ġmalta dos
dexas on
Ġtreb esch
narid ringts
sif ao
Ġheng sten
Ġxe rem
Ġ1047 804
mov iment
Ġvegema is
Ġmonas tere
Ġtermop lastico
Ġmendo rato
Ġartilux mystic
Ġblacke white
Ġchial inha
viterg yl
Ġ4137119 165
carra paticida
cir culito
epo cler
indi go
Ġmpp v
esfi ha
Ġaterna tivapet
Ġnong shim
chuc rute
Ġcout ry
Ġcact us
Ġsereg y
pantri z
Ġesck ibon
Ġanton io
Ġambro xol
Ġazulpreto ve
Ġcolorif ico
montela ir
Ġesparad rapo
Ġespaquet in
Ġ27546 90000
Ġbatmaia zesal
Ġmaracgal ce
Ġyamamoto yama
parafusa deira
sintocal my
0 36
0 6732
2 89
2 32
4 11
4 73
5 378
7 90
7 22
8 23
a io
a de
a utor
a ussie
b br
b rio
b lanc
b upro
c do
d n
d eir
e v
e vit
e ppes
f m
f ran
f and
f ante
f yl
f ani
g de
g ira
g ens
h etti
i fa
i rito
j abo
k f
k is
m d
m ine
m usse
n an
n ao
n ida
n parente
o om
o tas
p b
p f
p ort
p ess
r up
r ina
s n
s ar
t b
t z
u te
u jo
v ono
w ars
x nu
z ila
Ġc pe
Ġc filtro
Ġc cominho
Ġc idade
Ġc yn
Ġc banh
Ġc spr
Ġc toq
Ġc visor
Ġp ix
Ġp fri
Ġp lavagem
ra cad
ra bico
in sol
in vic
Ġm ba
Ġm um
Ġm ica
Ġm ano
Ġm anteig
Ġm ostar
Ġs is
Ġs uri
Ġs fer
Ġs cool
Ġs und
Ġs imo
Ġs ize
Ġs tenda
re ve
re con
re ale
re peti
la gio
an h
an imal
an cora
co gum
Ġb in
Ġb un
Ġb eta
Ġb ell
Ġb tropical
te quil
al er
al pino
al cachofra
ar nica
Ġ2 191
es so
er ba
er mo
Ġd jo
Ġd sec
Ġl x
Ġl up
Ġl ende
Ġf en
Ġf cal
Ġf ish
Ġf eito
Ġt rem
Ġt cach
Ġt upe
ol cr
ca qu
ca sp
Ġa de
Ġa gr
Ġa choc
Ġa bala
Ġa br
Ġa qui
Ġa brilh
Ġa chocola
is din
Ġ3 14
Ġ3 42
ho ra
ho me
ro c
ro bo
ro micina
Ġn ori
Ġn fresh
Ġn issim
Ġg lub
Ġg org
il c
il et
il ity
ma go
el ga
el icia
ab c
ab ol
ri d
ri e
ri pt
Ġ4 22
Ġ4 167
as pir
da e
da m
da flon
ch io
ch ipa
ch urao
ve d
Ġli cor
Ġli qui
Ġre lo
Ġre mix
Ġco te
Ġco pi
Ġco ifa
Ġma y
Ġma es
Ġma qui
Ġun ite
Ġun hex
ran j
ran di
Ġin a
Ġin cr
Ġin colo
ia vo
Ġh ei
Ġh ira
et ril
Ġca y
Ġca ff
Ġca den
Ġca pell
Ġca ust
pa escova
pa pete
qu ot
Ġpo se
it romicina
Ġ200 3
io za
ut on
go es
go os
sa po
sa ithe
Ġ8 61
ja ra
de me
us ash
Ġk up
Ġk ical
Ġk aly
Ġi f
Ġi mo
Ġi ber
Ġi tens
Ġi basa
os te
os itor
Ġ7 35
Ġ7 19
Ġ7 46
Ġ6 48
Ġ6 28
Ġ6 76
Ġ6 73
Ġ6 379
gr il
om ed
Ġde dos
Ġro cker
Ġro ched
Ġal len
Ġal icia
Ġ9 250
Ġ9 46
Ġ9 924
Ġ9 267
Ġ9 236
ba las
ba mento
gu in
ent ol
Ġj ana
Ġj ph
Ġ12 40
Ġ12 95
Ġ12 34
Ġ12 35
Ġ12 33
up ia
Ġx bri
Ġx boom
Ġ100 12
Ġ100 95
Ġ100 65
Ġse gr
Ġse ko
Ġse curity
40 2
li ps
li chia
Ġmar ch
Ġmar sal
ga is
po o
Ġcol eira
Ġcol lant
Ġcol esti
ce dora
Ġcon do
Ġcon versor
Ġar ras
Ġar ibe
Ġmo zza
Ġmo gno
Ġba il
Ġba iao
Ġ250 310
Ġpro pol
Ġpro pran
Ġw t
Ġw ings
Ġpa pp
Ġpa dr
Ġpa iavo
Ġcar io
Ġcar inha
em o
cr ista
20 60
Ġqu em
Ġy p
Ġan n
ac er
ac elga
Ġ10 90
Ġ10 18
Ġ10 86
Ġ10 165
Ġ10 988
Ġ30 50
Ġ30 36
Ġ30 48
Ġ30 55
Ġ30 41
Ġ25 50
fe e
10 55
Ġaz pt
Ġaz itromicina
ona uto
Ġ90 40
Ġpet b
Ġso pr
Ġso mave
st ro
Ġsh ick
Ġsh iro
Ġvi vil
Ġvi xnu
Ġlt z
Ġ0 50
Ġ0 25
Ġ0 95
Ġ0 17
Ġ0 85
Ġflo reira
Ġra ma
der cos
Ġ33 98
Ġ33 73
Ġ33 93
Ġu grip
Ġcoco show
Ġbo ts
Ġbo oom
Ġpal h
Ġpal ermo
am ort
Ġbaby med
ux inha
ira cucareir
gg y
Ġmul he
Ġchoc bau
Ġchoc musse
Ġ00 7
Ġ00 20
Ġ00 66
Ġ00 1600
ki arroz
Ġte ca
Ġtp i
Ġ15 42
Ġ15 76
Ġ40 30
Ġ40 90
Ġazul verm
Ġpre cif
mar inho
Ġ26 120
Ġ26 53
fil inar
ila t
Ġel sa
Ġlo i
Ġlo tte
Ġwa v
Ġinte iros
Ġpr c
Ġpr y
Ġpr onauto
ud inha
gel ol
ras son
rat rip
Ġfor za
Ġfor mi
Ġac i
Ġac int
Ġbar ri
25 5
Ġve et
Ġve las
Ġve ggie
Ġni te
Ġni el
sor ine
Ġmon i
Ġmon tos
Ġmon tar
Ġmon reale
15 13
15 14
15 4390
Ġcolor id
Ġcab corpo
Ġ120 310
Ġle a
Ġmulti pack
Ġmulti plus
Ġdes comp
Ġdes embarac
Ġdes embaracante
Ġdes onida
Ġ24 00
cola g
90 356
Ġpe a
can j
can jao
Ġleite cer
Ġcor dao
erm el
erm int
esp iral
Ġlimao arroz
Ġfgo arroz
Ġanti i
Ġsol to
Ġ80 1
Ġ80 15
bo tox
bo cado
Ġ23 50
Ġ23 300
Ġ23 126
Ġ23 376
Ġ23 133
Ġ23 2309
ge ol
75 5
Ġcla v
Ġem ul
Ġtom y
esa da
comp lexo
for c
Ġbi e
Ġbi k
Ġbi jo
Ġ37 8
Ġ37 9
Ġ37 73
Ġ37 79
ka ma
ka ki
Ġgran ad
13 50
Ġros qui
Ġ70 5
Ġ70 14
Ġ70 23
refres c
Ġmas tr
Ġmas tiga
Ġst an
Ġcarne vegetais
Ġme top
Ġsp lum
Ġdental cl
Ġpira cam
gan chos
Ġpol imento
Ġbom bocado
14 13
14 34
14 1015
Ġ35 1
Ġcal l
Ġcal il
Ġcal ore
Ġcal otas
Ġ600 30
ap licador
Ġcomp r
ana dor
Ġsab ont
Ġsab rina
Ġho us
Ġho sp
Ġhig ie
farinha iracucareir
gre nd
Ġ900 7
Ġbl usash
Ġ140 94
Ġ140 47
100 1
ju ca
Ġpara b
Ġvd b
mon tila
200 7
11 30
Ġcha i
Ġcha tel
Ġcere ias
Ġmaca co
tra te
Ġred ut
Ġred ub
lan ti
95 2
95 4
95 6
16 700
Ġbras co
Ġbras mar
Ġen s
Ġen cartela
Ġpres en
Ġbas s
Ġnutri ti
Ġnutri ag
Ġconc en
34 8
Ġesp ina
Ġesp len
Ġneutro gema
Ġ18 412
ven costo
Ġfruta re
Ġcola g
Ġmel c
Ġtradic i
Ġtradic ion
Ġsil icle
Ġlar cravo
Ġlar mago
Ġpri cess
Ġtan q
Ġox y
Ġna utica
Ġna ratrip
Ġpar i
lac tos
Ġ45 94
Ġabaca t
38 1
Ġfort t
Ġfort limp
Ġas se
massa geol
if ica
Ġpan super
Ġbe pantriz
Ġol ital
Ġol hos
Ġhi bisc
Ġgaro ta
Ġ17 7
Ġcam esa
Ġfa v
Ġgu abi
Ġgu fani
Ġja ck
Ġja ms
Ġja care
ema ma
Ġcan c
Ġcan on
65 12
Ġgl ice
ko ko
ko ide
Ġcro cant
23 10
66 7
Ġsem ent
Ġ110 252
has ter
Ġta up
Ġcu ia
Ġ19 00
Ġ19 29
Ġab ility
Ġcampo ar
sp ice
sp rite
Ġ36 7
Ġat m
Ġjohnson baby
gran el
gran cookie
Ġ175 75
colher zinha
Ġblu et
37 93
Ġ38 90
Ġ38 52
Ġbanho massagem
Ġpow de
Ġfo g
Ġfo tos
lamp ad
Ġcamom il
Ġart hi
Ġcp es
Ġher ba
van il
Ġpil low
oso c
Ġcafe ina
ose da
Ġ32 8
Ġ32 10
Ġsec nida
tr c
lin h
Ġfer ros
Ġbra w
Ġqueijo pres
Ġbc be
Ġ27 1413
Ġmae te
Ġmr s
Ġmr bey
Ġtro ca
cas co
28 34
Ġaca d
Ġaca bamento
bisco i
Ġ55 819
ie c
ervilha s
Ġkibon bon
pro ct
Ġagua johnson
94 1
Ġultra protecao
Ġseca gem
Ġseco cresp
Ġ115 10
Ġsuav yd
cle a
Ġmi udinha
Ġmicro por
per t
Ġfra des
Ġvida veg
Ġ65 3
Ġ65 5
Ġav pe
Ġav cab
Ġfl r
pres s
Ġfun g
42 60
Ġtor re
Ġparaf u
Ġparaf ina
Ġant iss
Ġ11 701
mal lo
Ġmis te
nut s
tc f
Ġcastan h
Ġhidrata do
Ġsuc ess
ess tagioni
Ġ84 1724
Ġforte plas
Ġcer to
Ġespag hetti
Ġhava inas
Ġcreme hidratante
Ġgela dao
Ġcasa fu
Ġrs an
Ġpon tia
Ġ42 38
Ġbu ffe
Ġmaril yn
84 6
mat cha
Ġlegumes fgo
Ġcart onado
Ġten nis
Ġbord as
har ina
Ġgar conete
Ġ46 39
Ġpit zo
Ġpit stop
Ġpaul ist
Ġpen er
Ġ21 12
29 3
29 6
Ġ413 656
Ġ413 940
77 1
Ġ13 22
colo rald
Ġbat alha
Ġsau vi
Ġneg res
son ridor
210 6
sup ly
di uri
Ġbor ra
Ġmei erba
Ġvital da
caderno bro
74 3
74 12
Ġ29 67
Ġpente l
Ġgom os
Ġju ice
Ġcopa ib
Ġrap id
Ġ127 4800
Ġlist r
Ġchamp ag
Ġqj s
Ġcloro forte
Ġbrisa frescor
Ġparamo un
Ġkanechom n
vol farmax
Ġsul furo
bab a
tri x
Ġment alimao
Ġbola cha
ono tes
Ġfu ego
Ġ43 8030
Ġsach es
56 2
Ġtos ta
Ġsm i
dinho s
Ġ68 26
Ġlava gam
Ġcach inhos
Ġpor ca
Ġshcond pente
120 55
Ġmam ute
pi olho
cox inh
Ġsim on
Ġsim mm
pes to
Ġumid i
Ġbaudu co
Ġact ual
Ġlin d
Ġlin dor
Ġ51 309
Ġredon d
Ġof uro
Ġemp ori
140 4
Ġke v
rol ol
Ġcool kick
Ġ789600 720
Ġpresti gi
Ġhidro x
Ġlour is
Ġcs top
Ġinvisib l
Ġcz iper
Ġskar lo
lav ar
Ġparb orizado
Ġphy t
Ġelect ro
Ġki k
Ġser um
Ġ105 203
Ġcg liter
Ġcapp u
Ġcereal i
Ġmer cur
Ġrev iva
73 90
Ġalis adora
0000 25
Ġmama veia
Ġ54 9
Ġinter rup
bro inha
Ġeisen b
fi vela
fi ori
Ġexp los
Ġ78 23
54 140
54 773
Ġnas a
Ġsno op
Ġtir ol
Ġcres cer
Ġfus cia
Ġbud deme
dia mante
Ġge onotes
Ġstar s
Ġstar wars
Ġ789601310 3
Ġ789601310 58
Ġ789601310 69
Ġvin tag
Ġutil y
Ġutil ity
Ġflow ers
63 34
63 1440
Ġquin ua
Ġfash io
Ġ390 6
Ġpat ch
Ġmolin refil
Ġfati ma
marsh mallo
para d
bel vita
Ġcur umim
pul v
Ġfei ja
Ġio f
Ġio do
pre d
700 5
05 60
Ġsat in
125 32
Ġ72 75
cro uton
vd m
Ġspic y
Ġdra goes
Ġsele ction
Ġ215 90
Ġ156 20
Ġdiver so
ges tan
Ġcris py
Ġplenit u
Ġmu it
Ġ67 80
Ġlibe ra
multi f
Ġbos s
Ġ63 304
Ġaut an
cebol inhas
Ġ7622210 93
Ġfand an
Ġcf ranja
Ġcf ranj
Ġvern inz
Ġ25924 207
Ġ77 44
Ġall pha
Ġcri cket
super bom
Ġanima is
Ġ720 2
Ġgt x
110 1
Ġexcel enc
800 4
alo pe
Ġgib i
Ġevol uc
gl ia
cin to
Ġmira fiori
Ġpull m
Ġpaco quita
orig ami
Ġ79 13
Ġgul lo
Ġgul oso
Ġ000 3
Ġ000 259
Ġfon d
Ġfon dant
Ġfon seca
Ġuni color
Ġrob in
Ġtek bond
var gem
Ġdin goos
nat ucrim
Ġ40000 54140
Ġ249 70
Ġ249 66
Ġmaos unhas
Ġop tima
Ġer itex
Ġaqu oso
abaca te
Ġpilot refil
Ġben ny
Ġbotan ico
Ġti erra
Ġti juca
Ġsupra soy
mr m
Ġ41415 7200
Ġ86 32
Ġ86 31
delph ia
Ġtru ques
facil itador
Ġmanj ar
Ġenla tada
Ġ92 953
Ġ108 400
Ġfrizz e
Ġcaramel os
Ġunivers itario
Ġyok lon
Ġ789840995 13
Ġmeg al
Ġeucal y
Ġ789600400 13
Ġ789610250 9
Ġgerg ilim
Ġperfe ction
06 39
Ġtf in
Ġsam ira
Ġams ter
Ġencan t
Ġsala o
Ġmarf in
Ġcomb inad
244 89
Ġdecora tivo
Ġaf ro
Ġborb ole
Ġcook top
Ġmona co
Ġzo ur
227 19
Ġautoma ti
esfre bom
Ġcarre teiro
Ġturqu es
Ġguard ioes
Ġmandio q
Ġfol ico
Ġwal ita
Ġspo om
sua vencosto
bac ardi
114 62
Ġlp esada
Ġsof hair
Ġespagu et
Ġ7898024 397
Ġ41325 75
923 78
Ġnen ezinho
Ġ924 3
Ġferra ri
Ġ8415 40
Ġcresp issimo
Ġmoc inho
dip ros
Ġtig elas
Ġxtr w
Ġsere no
fem ina
Ġcran x
Ġcale ra
Ġtc f
Ġgrelha ditos
219 84
pu xa
Ġpedig fil
Ġclare ad
Ġrosqu inh
Ġ43408 12
Ġfris an
Ġatrev ida
Ġ713 1
810 656
Ġgatil h
Ġ2349 801
Ġ762230086 19
Ġpeti doro
presto b
reche adinho
Ġree fyl
Ġmascul ina
Ġ186 98
Ġpren sada
Ġ41417 1192
Ġ41417 631440
Ġ189 64
Ġ189 67
Ġ0000 7
brus queta
tran s
Ġ413316 7012
Ġ789802439 65
Ġcoloni al
Ġpers ona
Ġ040 70
Ġcastra do
Ġeno tabs
Ġbello kao
Ġgeomet rica
Ġderma femme
cres pos
Ġblan kita
Ġ60040 10
teclado mouse
Ġ414026 90
Ġ414026 900
Ġpega forte
cula re
Ġtras nparente
Ġbala blue
Ġestre las
Ġ41234 356
Ġ41234 630
Ġderm oseda
Ġgia coba
Ġjub ille
Ġ925 510
Ġcim sal
Ġapli cador
Ġtagl iat
Ġautomo tivo
Ġcicatri z
mus sa
mus culare
estoma zila
Ġkb mp
Ġ666 6
Ġamonia co
moran g
447 18
Ġpbanh eiro
Ġscho tc
Ġ810 587
Ġ678 1
Ġbelg ian
Ġ41158 44718
Ġ413035 12532
Ġ4119 787
confort sec
Ġshcol cond
Ġraf ia
Ġ413510 22719
Ġ414149 20
Ġ414149 2000
Ġ413693500 313
prol ol
Ġ2328 7
Ġaten as
Ġcapel li
Ġcapel etti
Ġesplend ido
Ġ7897080 6000
Ġ228 69
Ġpenn ette
Ġava caqu
Ġ546 2
Ġves u
Ġrota tiva
fruc tis
Ġ12016 650
pedig r
busco fem
repo flor
Ġ23270 47
Ġ23270 41
Ġ40000160 64
Ġ41415860 64
Ġ81935 82
Ġtaglia tella
Ġ400005 4260
Ġzen fone
lubrif icante
Ġ9336 77
Ġ78960449 600
Ġfras es
Ġfras cos
Ġzn c
Ġ76223009 89
fam ilia
Ġ1300 000025
Ġvelo ur
Ġ634 753
Ġrox as
dermo dex
cuida do
Ġvari ed
Ġsuperfic ies
aer olin
Ġpir ulito
Ġnick s
Ġecolo gy
Ġ732 1
Ġ732 11462
Ġ610 10
pepin inho
termo prato
Ġchum bo
Ġpeper i
Ġdivis ori
Ġrecic la
Ġrecic lado
Ġ414176 300
Ġpolietil en
Ġlasag ne
galao zinho
Ġforcel ine
Ġantider rapante
Ġ4140265 2967
Ġadstring ente
baca x
Ġchin esa
Ġdida tico
Ġaveiac an
Ġaveiac ermel
Ġ4132589 190
Ġmir tilo
Ġgor gon
Ġconha q
clarif icante
Ġformigu eiro
Ġ400001627 113
Ġcipro floxacino
holly wo
rinos oro
Ġaud rey
Ġcontin ental
Ġemba cant
Ġradi ant
Ġ41300 9007
facilita do
Ġ412346311 112
Ġaciclovir cr
gly care
mendo rato
nene quinha
pica dinho
Ġmig uel
atro fem
Ġestac ionario
Ġcarib bean
Ġanda res
Ġshe fa
icor t
Ġtesoura s
Ġpaste uz
Ġhaban ero
Ġcristaliza das
Ġdunk el
Ġairlicium fps
Ġ61353 25
Ġ41325672 10
Ġnit rus
Ġapon tador
bif ao
Ġcitrio dora
vasso urinha
Ġcpil low
Ġ4112 69
Ġfixt il
Ġestofam ent
schwe eppes
torte ira
cober tor
Ġbiso prolol
canesten cr
prob entol
Ġbordea ux
Ġfirenz i
Ġdomes tico
varre dora
Ġbenja mim
Ġcaffa rel
Ġ413009050 48
542 38
denta d
Ġdila d
Ġeme rald
Ġker u
Ġiti kawa
stra ik
Ġcegon heira
Ġspiral ux
Ġduba i
Ġescri torio
Ġ557 443
Ġgasei f
algina c
mucosol vanxpe
neutrali zador
Ġtrebesch i
Ġhengsten ber
autor radio
brio che
bupro vil
fand angos
jabo randi
Ġcbanh eir
Ġpix els
Ġpfri os
Ġmica e
Ġsis al
Ġsuri mi
Ġsfer rie
repeti dor
Ġlende as
Ġabala r
Ġachocola tado
aspir ina
Ġcopi max
Ġunite d
Ġhira ta
Ġcaden ce
Ġcapell ini
Ġkup iec
Ġ9924 54238
Ġjana ina
Ġmarsal la
Ġcolesti ramina
Ġmozza rella
Ġpropran olol
crista is
Ġazpt vm
Ġsopr nao
Ġvivil ite
Ġmontos co
Ġlimaoarroz leg
Ġmastr uz
Ġmastiga vel
Ġmetop rolol
grend ene
Ġblusash ort
Ġredub io
Ġencartela d
Ġnutriag ro
Ġsilicle an
Ġlarcravo canela
Ġnaratrip tana
Ġjams ine
Ġsecnida zol
Ġ55819 4
Ġsuavyd ente
Ġmicropor osoc
Ġsucess os
Ġcasafu eg
Ġmeierba er
cadernobro churao
Ġsulfuro so
Ġsnoop y
Ġ414171192 89
estomazila bacax
Ġavacaqu eri
# (
% "
% )
0 42
0 197
2 100
2 74
3 75
3 66
3 37
3 191
4 64
5 80
5 23
6 40
7 25
7 94
7 108
8 25
8 16
9 17
a mb
a uto
a ranha
a pex
b es
b ur
b ela
c im
c ente
c lip
c flores
d v
d ist
d one
d iane
e q
f ram
f idel
g ero
g ard
g est
g hee
h de
h ante
h ine
h ir
h rs
i il
i fil
i kitos
j ale
j imo
k d
k da
k rem
l ig
l he
l ight
l ongo
m uco
m cb
n h
n eira
n ibs
o ps
o vinho
o vas
o vinhos
o hde
p ido
p lan
r ona
r oll
r ill
r riso
s pa
s no
t and
u q
u gio
v t
v ona
v br
v elo
y to
y ard
Ġ '
Ġ erg
Ġc q
Ġc uc
Ġc fo
Ġc ps
Ġc pp
Ġc maracuja
Ġc goiaba
Ġc vassourinha
Ġp ca
Ġp ha
Ġp le
Ġp ina
Ġp ub
Ġp ipa
Ġp mop
Ġp canjiquinha
ra f
ra sh
ra pper
in co
in terr
Ġ1 19
Ġm da
Ġm sa
Ġm ice
Ġm tl
Ġm undia
Ġs ct
Ġs if
Ġs tim
Ġs my
Ġs peto
re i
re tira
re hidrat
an dog
an pom
co ro
Ġb ck
Ġb ira
Ġb old
Ġb ram
Ġb lanca
Ġb renda
te q
te sol
al u
al en
al fine
ar u
ar gola
Ġ2 100
es em
es se
er ol
er it
er gan
Ġd m
Ġd z
Ġd ress
Ġd reno
or b
ml i
ml pet
ml uxo
Ġf b
Ġf oo
Ġf facil
Ġt her
Ġt ss
ol ine
ol me
ol ito
ol onapom
on ga
ca res
Ġa ran
Ġa um
Ġa se
Ġa vo
Ġa ka
Ġa uri
Ġa dega
Ġa granel
is er
is ado
is orb
Ġ3 500
Ġ3 89
Ġ3 66
ho ral
ta pe
ta pas
en ch
en go
en ne
Ġ5 60
Ġ5 200
Ġ5 16
Ġ5 178
Ġn s
Ġn er
Ġn ippo
un ti
un tado
un iplast
Ġg m
Ġg inas
Ġg hot
Ġg eme
Ġg estante
ma das
ma feme
to v
to mluxo
el on
Ġv isage
ei az
ab racad
ri ol
ri ma
ri um
ri ka
Ġ4 17
Ġ4 99
as ol
as ta
as sept
as abi
da ma
da mas
ti mao
ti cons
ti rinhas
ch anti
ch itos
ve et
ve ga
Ġli eb
Ġre cos
do b
do sador
Ġco d
Ġco mo
Ġco int
Ġco per
Ġco gum
Ġco rad
Ġma gaz
Ġun il
Ġun isse
Ġin ala
Ġin cl
Ġh us
Ġh lr
Ġca qu
Ġca iro
Ġca dil
Ġla sa
Ġla gr
Ġe ras
ic ella
ic idida
Ġpo tas
Ġpo tao
it ral
Ġ200 52
ul us
io io
sa c
sa ic
Ġ8 65
Ġ8 67
Ġ8 376
Ġ8 291
ja dinha
las to
de mont
Ġk v
Ġk or
Ġk os
Ġo sa
Ġo de
Ġo vin
Ġo kaki
ig an
le m
le uca
des a
des via
Ġ7 901
Ġ7 902
va por
va dinh
Ġ6 19
Ġ6 98
Ġ6 750
Ġ6 106
Ġ6 328
om ron
Ġde m
Ġde fr
Ġro bo
Ġal bo
Ġal tu
Ġal liz
Ġal ibe
Ġ9 35
Ġ9 64
Ġ9 56
lo u
lo rata
lo real
lo oon
Ġj ar
Ġ12 13
Ġ12 91
Ġ12 97
up ril
Ġx i
Ġx arope
Ġx xl
Ġx andog
Ġse me
40 26
40 81
40 851
Ġmar j
Ġmar ca
Ġmar ve
Ġmar uch
Ġmar ula
Ġmar jer
Ġtra to
Ġ400 4
Ġ400 12
um et
Ġcol r
ral os
ce go
ce rado
Ġsa k
Ġsa ca
Ġsa fe
Ġsa ida
Ġsa gat
Ġsa ku
Ġdo w
Ġcon ce
Ġcon ica
Ġcon ver
od el
Ġes tra
Ġes tab
Ġes cada
Ġes tevia
uc an
Ġar dente
ur so
Ġmo g
Ġmo ti
Ġmo ela
Ġmo use
Ġmo saic
ne ba
ne cr
Ġr y
Ġr se
Ġr ing
Ġr uz
Ġr ds
Ġba las
Ġba lac
Ġba ile
Ġba tomluxo
Ġfr b
Ġplas ul
Ġ250 3
Ġpro bio
Ġpro ced
Ġpro confort
Ġto as
Ġw es
Ġw ass
Ġw rapper
Ġpa lac
Ġpa lav
Ġpa ineira
Ġnes tea
Ġcar i
Ġcar val
Ġcar reg
em an
Ġqu ick
30 5
30 50
30 12
30 68
chin i
chin ich
sh itake
Ġan te
Ġan ci
Ġan ella
Ġan ota
ac ero
ac tive
Ġ30 3
Ġ30 8
Ġ30 31
Ġ25 215
Ġ25 106
Ġ25 2444
Ġ25 2234
10 601
Ġaz t
Ġbr m
Ġtri cor
Ġtri cloro
ona cr
eb as
so apex
80 35
Ġch ester
Ġch eme
Ġ90 41
dor ilax
Ġsan if
Ġsan ilar
Ġ20 74
Ġ20 766
Ġ20 201
Ġ20 555
Ġso ve
Ġso que
col he
col heres
st rass
xt ron
12 31
az u
Ġq led
Ġq contr
arra u
Ġ0 44
Ġ0 39
Ġ0 76
Ġ0 727
Ġ0 288
mb ynho
su ip
Ġflo ur
Ġra tos
Ġra vena
der mafeme
70 2
70 30
ica st
Ġne to
Ġu bs
gua ma
Ġhid rol
Ġbo ra
Ġbo pp
Ġbo he
Ġbo vin
ip ress
Ġri ga
Ġri che
eira s
Ġcrem ok
Ġcrem esem
fa to
Ġchoc brigad
sand rena
Ġ00 400
Ġ00 17
Ġ00 72
que ca
iz inho
iz em
Ġte i
Ġte ste
Ġtp jas
Ġ15 1
Ġsal da
Ġsal oon
pol icella
Ġ40 26
Ġ40 370
Ġ40 1030
iso y
Ġz x
Ġz eca
Ġazul ejo
Ġpre ven
ir on
ir onage
Ġno ze
Ġno gueira
Ġno ug
Ġcas ille
sha k
mar co
mar iza
Ġmara t
Ġ26 40
Ġ26 70
Ġ26 600
Ġ26 141
fil d
fil tr
Ġel vis
Ġlo iros
Ġwa g
Ġwa ter
lt c
lt hermo
Ġpr r
Ġpr s
lu pa
cer vej
cho cook
Ġgo j
esm alt
Ġac ero
Ġac ende
Ġbar c
cal m
cal man
cal ota
sor ines
Ġ60 9
Ġ60 72
Ġmon de
Ġmon za
Ġmon bi
Ġmon tana
Ġmon odo
15 8
15 9
15 17
Ġcap x
vo kda
Ġ120 7
Ġperf eita
Ġmulti m
Ġmulti u
Ġmulti pla
Ġdes l
Ġbon ba
cola gen
Ġpe cor
can ud
Ġleite ria
Ġnut fi
Ġad s
Ġad re
Ġad her
Ġda gu
Ġ80 37
Ġ23 2
Ġ23 39
Ġ23 263
Ġbco bor
cu tiv
cu ticu
Ġbril lant
Ġprote tica
Ġban caram
cor us
Ġrosa do
Ġmor ro
Ġmor oc
Ġmor chant
Ġmor cego
ido g
500 8
ib upril
Ġnatu form
Ġdi ego
for mas
for terine
for lha
ita t
Ġbi jon
ing red
22 99
22 257
22 286
Ġgal van
Ġgal eto
Ġgal fidel
Ġgran a
13 00
che te
che ese
Ġ70 69
Ġmas te
Ġmas ha
Ġlig t
Ġst ory
fer rero
fer rugem
Ġplus xpe
Ġdan e
Ġdan esa
Ġsp irit
Ġ16 20
Ġpol os
14 7
no pel
no van
no tus
Ġcal ori
Ġgel eiaz
Ġcomp o
ana to
Ġsab fem
car in
car reta
Ġho p
Ġho bby
Ġbl z
Ġbl ush
Ġ140 90
Ġ140 92
100 5
100 00
Ġimp orio
ice fresh
Ġcom es
Ġcom em
Ġcom ida
Ġcom bat
Ġsuper corda
Ġ14 8
Ġ14 30
Ġ14 70
Ġ14 42
Ġap l
Ġap lapis
Ġref ugio
Ġex cutiv
ke fir
Ġbio tina
Ġmax im
Ġcha mby
Ġcere je
Ġdu da
man ual
tra ct
Ġflor me
Ġ450 5
ium i
lar ja
lar xpe
Ġred al
lan ch
lan tis
Ġtop bike
95 8
95 9
95 48
Ġpinho bril
vinagre te
vinagre iro
Ġsu fres
Ġprem isse
16 2390
Ġest cion
Ġbras fr
Ġen cerado
Ġpres su
Ġpres ilha
Ġama m
Ġbas quete
Ġsc ript
Ġ325 3
Ġ325 8
Ġ18 2
Ġ18 12
Ġ18 11
Ġ18 45
Ġ18 429
ven s
Ġfruta e
Ġmed ias
Ġcola da
Ġmel frt
32 1
Ġfla re
Ġpri vadinh
Ġmic k
Ġferm entado
Ġmag ne
Ġmag na
Ġvit alia
gur u
Ġhe x
Ġna tiv
Ġna ipe
Ġpar ty
Ġ45 10
Ġ45 96
Ġlux ca
Ġmix to
Ġacti col
38 6
Ġsho ot
Ġfort protect
Ġfort zip
Ġdia gonal
Ġbet h
Ġson ic
frut tare
35 62
tim er
Ġabacaxi hortela
Ġ17 70
ber in
Ġcam inha
Ġcam emb
Ġcam inhao
Ġ28 90
Ġ28 65
Ġval policella
bol ibol
Ġfa isao
Ġcan aleta
Ġcan guru
ilan t
Ġpla util
Ġmais e
Ġmais vita
Ġhidra m
Ġhidra ul
Ġreal ce
17 9
65 4
65 2619
ped ras
ext reme
Ġ22 851
Ġbrilh ant
Ġconf eit
ph arma
Ġbol g
Ġpes o
Ġtab choc
Ġtab lad
Ġgla cia
Ġgla mor
23 3
Ġcare lis
Ġpic le
Ġvan ili
Ġbig max
Ġitamb ynho
Ġcarm en
Ġ110 36
Ġ110 19
cp om
Ġgoiab in
Ġta mb
Ġta gli
Ġmil n
Ġmil im
Ġ19 140
Ġab racadeira
Ġat v
Ġat lhe
Ġat lantis
Ġhot we
Ġ260 6
Ġ260 71
gran u
Ġbel em
Ġ38 48
Ġcast r
Ġquad rata
Ġfo ucal
Ġhar ibol
Ġres id
Ġres tit
Ġres fri
mm er
Ġart ros
Ġ330 8
nes caf
Ġche fs
72 34
Ġ32 96
Ġsec reto
Ġblack blue
Ġfar ta
Ġqual itat
Ġbis urada
300 53
tr isorb
Ġ57 24
Ġbra ga
150 8
tamp ao
Ġemb uti
Ġacao total
gra p
Ġtr l
Ġtr p
Ġtr uta
Ġtro pi
cas ta
Ġ88 8
Ġ88 74
Ġaca c
Ġ55 3
Ġ55 30
Ġ55 38
Ġ55 46
pro vol
94 9
94 12
Ġvis eira
vita minas
vita win
vita lab
207 48
purif ic
Ġsuav ignon
Ġmi kit
Ġmi ikitos
Ġmicro ban
Ġmicro pop
per forma
Ġlis boa
Ġfree ze
Ġfra d
Ġfra te
pimenta calab
flo reira
pir cing
ette s
mel xpe
mel horal
Ġav g
Ġfl uss
Ġfun is
Ġesfre ga
Ġfortale cedora
Ġ34 200
Ġ34 71
Ġon ly
bon zo
Ġceram ic
Ġflex or
Ġpass io
Ġsuc esso
Ġ84 1710
Ġcacau zi
Ġbanh eir
Ġcot oline
Ġlum e
Ġbal y
Ġbal looon
Ġcasa demont
Ġassa da
Ġalk l
Ġste la
pap ermint
pap rika
Ġtomate azeite
Ġbu o
Ġbu ona
Ġdis ne
84 1724
mat te
mil harina
sel ene
Ġliv ro
Ġminho c
Ġpassa te
extrato mato
Ġpen se
Ġnu vem
Ġnu vens
Ġchi may
Ġ413 77
Ġ413 282
Ġfe ch
Ġ13 40
Ġbat ist
Ġva cou
Ġneg resc
Ġalo h
Ġalo pur
210 5
210 8
Ġfaber fino
Ġ66 1
Ġ66 7
Ġflu id
Ġado rad
Ġdiv o
Ġinsp ir
ens itive
74 760
Ġcolonia tempo
Ġsolu cao
78 1
mer th
Ġdul ei
ula na
Ġju gais
Ġ127 66
Ġ44 9
900 076
cel erg
ulado s
Ġchamp anh
Ġsono ra
Ġaloe vera
Ġfil m
Ġfil ter
Ġfil ez
Ġouro gal
98 3
Ġ114 73
Ġchoco candy
Ġmal i
Ġintens ivo
blu eb
Ġbj inho
tis e
Ġfi or
Ġfi el
Ġhel p
Ġmela do
Ġsul f
udo id
Ġlev pag
Ġ76 140
Ġcache col
180 7
abo ve
Ġ05 1
reg rig
Ġamazon fibras
Ġsm tm
Ġ68 19
Ġgat inhos
qui che
Ġrepa rador
Ġsel inho
Ġnapol ita
Ġgerm an
Ġgerm icidida
Ġ165 10
Ġtort inh
Ġtort uga
27 97
vi oleta
Ġbarbe que
Ġalim e
Ġactive tiras
Ġpiracanj b
Ġcaram ujo
Ġmad onna
Ġsant ulana
Ġemp ac
Ġemp lasto
Ġ335 45
Ġavul sos
Ġframbo e
perf uma
Ġcool ki
assad uras
Ġray un
Ġza ra
Ġza mo
Ġcastanho s
Ġze in
Ġ234 7
Ġ234 98
Ġinvisib lthermo
Ġskar chitos
cesta o
Ġ89 79
Ġdelica das
ger iat
Ġpin ceis
Ġpi col
free z
Ġth anos
Ġfroz e
Ġkod i
Ġphyto er
ang ipress
Ġdry power
pren dedo
Ġalis e
Ġami gos
Ġtira mancha
pat inho
Ġinter d
Ġinter forlha
pin go
Ġeisen ba
bri ga
Ġdello plus
Ġ78 7
Ġ78 6100
Ġargin ia
Ġprolon ga
54 12
54 190
Ġfura cao
Ġneo pre
Ġ74 250
Ġ74 7120
Ġstraw berry
champ i
Ġalca trao
estre las
liqu ido
capp u
Ġhamb urger
Ġyak isso
Ġ789601310 39
Ġ789601310 55
Ġsimona g
passa dor
Ġbarba timao
Ġquin to
imento cremer
Ġspe e
Ġ390 1
Ġfati ad
Ġmussa rella
energ ia
Ġ69 45
010 11
010 32
010 44
010 206
dex ilant
Ġaroma tizado
Ġ61 90
Ġder mas
cup uacu
Ġ830 7
Ġamb ra
Ġdom in
Ġrol h
pos t
125 901
cro quete
Ġ550 366
gi es
cremo krem
Ġfut ura
Ġdra geado
Ġond s
Ġlu xtron
Ġcryst white
Ġpala tar
rs an
Ġspa gue
bacon zitos
Ġ789600370 14
Ġ789600370 26
Ġ789600370 28
Ġ789600370 68
Ġ789600370 67
ges ic
Ġ258 33
eli de
Ġ67 197
Ġ04 100
Ġjohn mli
eros od
Ġform en
Ġkera ti
Ġnos s
Ġqueij inho
ĠĠ ĠĠ
Ġcre c
Ġ7622210 94
Ġ7622210 78
Ġ7622210 819
Ġcf urador
Ġpredile ct
Ġpapa ya
Ġball one
abri larxpe
Ġ77 26
Ġmioran z
Ġ7622300 87
Ġcri cri
carro co
110 12
Ġchil eno
Ġagul h
rez as
Ġsek yto
225 6
cin olonapom
000 3
Ġ113 82
Ġchocol eit
apon t
apon tad
Ġ117 8
Ġ000 700
ov omalt
Ġir res
Ġacop l
Ġhydra derm
Ġrequei j
ave eno
Ġop rima
Ġ613 14
Ġos ram
Ġdus t
115 5
Ġcli chia
cla mida
Ġaqu ela
Ġmatiza d
pip inela
Ġcen ra
Ġ07 16
Ġbella trix
Ġelegan c
Ġ41415 2
Ġ41415 9007
Ġ41415 900076
Ġdenta da
Ġ86 26
Ġ86 33
osh iro
Ġ03 17
Ġferro tabua
Ġbisn g
gold en
Ġis ent
Ġpetisco s
Ġterrano v
tort uguita
Ġnordes t
Ġ2613 32
Ġev isc
baun ilia
Ġpup py
Ġdream s
Ġplay boy
Ġ789840995 75
Ġins ifil
Ġmala queta
fra g
fra um
Ġrou g
Ġ157 13
Ġpopp ies
Ġfortalec im
Ġplu ggy
Ġgeng ib
film ito
Ġ789610250 7
Ġ789610250 90
06 606
py rid
Ġ62 94
Ġmont blanc
Ġdeli rium
Ġcec c
Ġencan tado
dif elicia
bran ca
tell ini
Ġchurras quin
Ġvina g
Ġlanch on
Ġ3000 4
Ġexper tise
Ġpastilha laranja
Ġdecora das
Ġhipo glos
ben clamida
Ġbioprati ko
Ġfantas tica
pl yne
Ġmicrofib r
Ġpoly cart
Ġsanf ona
Ġtech no
Ġgali inha
mis tic
Ġzo g
Ġzo urr
Ġrevigo rant
luc ky
iti tos
emba raco
emba freezer
Ġrus tic
Ġchina to
farinh eiro
venal ot
Ġ4137 25
fen tiz
fen ergan
rola dinho
ele ka
ele fante
doc eira
Ġwal l
Ġmiss oshiro
Ġfro tas
Ġgi unti
Ġ415 1650
Ġtart aro
Ġcj d
Ġbisco it
chim ich
Ġelas ti
Ġfluff ly
Ġembala do
Ġ7896044 94
923 90
bron ze
Ġdupl os
af asta
Ġbetta jeans
Ġace clo
Ġcran e
Ġcasill er
Ġinstantane a
Ġslo va
alis ado
Ġtho mas
Ġmarico t
Ġpolengu inh
Ġ78961025 860
219 77
fett uccine
pu xador
Ġtat to
Ġali en
Ġ78910790 12
Ġ78910790 127
rod iz
panto gar
Ġhorten cia
Ġhorten cflores
Ġmur ca
rox melxpe
Ġoc ulos
Ġsilvest rin
Ġtodo dia
517 73
Ġara mada
Ġpetis q
Ġ43408 13
Ġ43408 117
apres untado
Ġ41414 1100
Ġ41414 11012
Ġ41418 50
Ġ41418 48
cit oneurin
Ġgli benclamida
Ġ832 1
Ġ713 4
Ġ7898409950 6
cala med
Ġec lip
Ġperi tif
154 33
Ġ41394 757
Ġ762230086 11
Ġ289 647
Ġ014 2
Ġ014 951
fan xpe
faz enda
gt carne
Ġ411 403
Ġ8416 214
Ġgame of
Ġterr ina
Ġvei culo
Ġvei culos
rila x
Ġels ys
Ġacuca reiro
Ġdurat ti
Ġ41417 652619
Ġdon nopel
ond ulados
cris ps
brus chettas
Ġflip top
Ġceto pro
Ġabras iv
1030 1
Ġpolia mid
Ġpolli frutti
Ġ789633600 65
Ġempan ar
Ġ60040 100
Ġamare las
catch uo
Ġcarel lis
Ġquei jadinha
Ġparacetamol gts
Ġ762230099 14
Ġ78911500 55
cran ber
fib rato
vick vapor
Ġcof ianca
Ġris cal
Ġ015 9
555 356
Ġmoder no
Ġrey m
Ġballan tin
Ġfecha do
Ġ30000 43
Ġpec cin
Ġenxa queca
Ġtanga ra
Ġlyso for
Ġaman h
Ġapli cado
Ġbisna g
Ġcdo feij
bisna guito
Ġkb ms
Ġkb mcb
Ġveu ve
Ġcidre ir
Ġcrims om
kani kama
maqu ina
sapa ta
2532 356
Ġnylo o
Ġ4137889 517
Ġ4137889 3295
Ġ00010 125901
Ġbelg ica
Ġcylin de
Ġ413035 100
Ġ413035 15433
Ġmut ti
Ġvil ed
confort s
Ġcher r
Ġchul et
Ġimpe rador
Ġ22950 106
Ġadap tad
Ġortodon tico
Ġ410335 80
prol ong
Ġ960 8
Ġ414185 400
Ġumect ante
Ġ4139412 500
Ġcir c
neo co
Ġries l
effaclar gel
kim eleka
Ġves tido
Ġ41108 504
Ġgirasol i
Ġandre an
Ġcontro lado
Ġrist or
Ġ23270 46
Ġ413030 2271
Ġcoqu itel
Ġvalv ula
Ġmillen ium
tur mix
Ġax is
Ġ2020 90
Ġacele rador
Ġ108060 129
Ġ108060 460
clav ulin
zin co
Ġ864 9
Ġptor neira
chek performa
Ġcomplex flac
Ġrepara ca
Ġvari et
Ġ84145 987
Ġ84145 991
Ġ8416213 3
Ġ8416213 4
063 94
Ġpral in
Ġ545 271
tora gesic
Ġecolo gico
Ġdesper te
Ġ414130 54190
babymed kit
Ġ41155 486
ciflogex spray
prel one
prel ones
Ġmich elon
comb iron
Ġ311 4081
Ġnal k
Ġingre di
Ġesferogra f
Ġ4130090 504
Ġrevig or
Ġbacteri cida
Ġlustra dor
dim ension
Ġ464 210
Ġ917 104
Ġsex ta
limo eiro
Ġ1084 30053
Ġumide c
Ġ78910 75
Ġgiovan n
Ġ4360 62
Ġmosqu iteiro
Ġsobran celha
petis queira
Ġ762221075 48
Ġ4115844 2967
Ġ130590 460
Ġhr d
Ġ794 171
Ġtrian cinolonapom
Ġzi in
Ġnoiv os
Ġcordo b
Ġcordo ba
flora x
Ġ4103405 9548
Ġ841459 98
card izem
cime gri
cime cortcr
sum o
life buoy
Ġ2569 2170
moe da
Ġloratadina xpe
Ġ414150 59
Ġ414150 565
gastrol env
Ġ4141584 6678
Ġ1080600 53
Ġ1080600 08
Ġ413712 60
Ġ413712 64
Ġ7896044994 9
Ġ91858 1
Ġ91858 6
cand icort
dic lin
oros ol
Ġ1275 500
Ġ0008 00
lacri filmsol
Ġ7898 2797
Ġ413197 6064
Ġdocum entos
Ġcrea tion
Ġ76222109 76
Ġ414057 2000
Ġleif he
Ġmometas onacr
calabre sa
Ġ4137067 000
kom an
tut ti
Ġuc cuba
Ġpy rena
Ġpcu id
Ġasep xia
Ġ4001030 115
Ġcondes sa
Ġ5050 9
Ġcrink le
Ġnois ettes
Ġcortad inha
Ġchap arrau
Ġfleish m
Ġcutic ul
Ġberga der
Ġ762221096 20
Ġ400004 74760
Ġfigue ras
Ġacebo lado
Ġlubrifica d
Ġ4139475 216
Ġcicl mato
428 53
dup lex
Ġdre her
Ġfell ina
Ġeve rest
Ġkal il
Ġ948 791
Ġsapa tilh
neos orosol
calcu ladora
Ġpeter longo
Ġmasg itral
Ġcomprim idos
Ġcleam mint
Ġplatina d
Ġ222030 1
malvatri kids
Ġpasser ini
Ġ41109 17
Ġlevs lim
Ġaliment ar
Ġdermac reme
rsane o
Ġ1138524 658
Ġ000300 10601
magnes ia
Ġ000000000000 010206
Ġmagnesio vitalab
Ġ222130 3
bisolvon xpe
hista min
jan umet
tremo co
xyl itol
Ġvine yard
Ġlion el
Ġkis ab
Ġdoh le
Ġtopa zio
Ġweb er
Ġamole ce
Ġazula d
Ġfloren ca
8965 1290
89610 250
torres mo
Ġaspe rezas
Ġ130880 460
Ġphys ical
Ġ9576 3
nature tti
Ġhormon io
Ġ4127537 0090
sinvasta cor
Ġexclus ive
ade forte
kis uco
recon st
Ġfcal fe
Ġiber ico
Ġarras ar
Ġbail en
Ġ1086 200
Ġdescomp lic
canj ic
Ġ60030 1101
Ġ653 641
Ġ413656 100
diuri x
Ġkik koman
vdm f
Ġeucaly ptus
Ġ00007 89610250
trans formers
Ġ41234630 13
Ġvesu vi
Ġgorgon z
amb roxmelxpe
bes erol
cim elide
hir udoid
jale co
light ner
muco fanxpe
sno w
tand rilax
vona u
Ġerg ologic
Ġpha za
interr up
Ġstim ulus
Ġbold oni
Ġbram ix
alfine te
Ġdress ing
Ġtss xpe
olme tec
Ġaum ento
Ġase plyne
ench imento
engo v
Ġginas tic
Ġgeme os
assept cares
Ġlieb fraum
Ġrecos n
Ġcorad ini
Ġunisse x
Ġhus ky
Ġcaqu icast
Ġpotas s
desvia dor
Ġ6750 88
Ġalibe y
Ġ935 516
lorata med
Ġmarjer ic
Ġ40012 800
Ġbalac ream
Ġbaile ys
Ġproced imentocremer
Ġpalac ios
Ġanota coes
Ġ252234 00
Ġsanif iil
Ġ039 100
suip y
Ġbovin us
Ġcremok rem
sandrena gel
Ġsaloon line
Ġnoug at
filtr um
chocook y
sorines ol
Ġmonbi jou
Ġmonodo me
Ġbcobor do
cuticu la
Ġbancaram el
novan lo
notus s
Ġgeleiaz ero
Ġestcion ario
pharma ton
Ġabracadeira s
Ġatlhe tica
Ġhotwe els
Ġrestit uicao
Ġresfri ado
Ġembuti r
Ġcacauzi in
Ġ41377 22
Ġalopur inol
merth iola
Ġinterforlha do
Ġ67197 856
Ġ414159007 19
Ġinsifil mado
pyrid ium
Ġaceclo fenaco
Ġ414141100 75
vickvapor ub
Ġkbmcb d
cimegri pe
Ġ414150565 77
Ġvineyard s
" *
* *
0 45
0 47
0 8024
0 351
0 658
0 6009
3 19
3 94
4 19
4 72
4 39
5 72
5 21
5 641
6 34
7 10
7 64
7 67
7 378
7 952
8 45
9 26
9 33
a qu
a las
a pe
a ero
a cr
a che
b etal
b urguer
b iam
b ucal
c il
c ita
c itos
c rep
c lot
c arden
d inos
d olino
d ilat
e an
f ic
f eite
f ose
f uros
f urikake
g lic
g alv
h an
h ix
i er
i ml
i eri
j ito
j upia
k l
k al
k es
k us
k le
k ers
k alo
l d
l ina
l iss
l olly
l ister
m v
m est
m ostar
n il
n ero
o b
o u
o us
o ce
p ita
p rf
p licador
r olly
r ilux
s ela
s cox
s cott
t ub
u im
u sao
u ger
v ib
v ale
v isage
w ht
w clear
x cm
y cra
z ar
z one
z iper
z ette
z erosod
Ġ ilha
Ġc et
Ġc cor
Ġc est
Ġc vel
Ġc tomate
Ġc rep
Ġc fs
Ġc forro
Ġc beterraba
Ġc etin
Ġp and
Ġp eb
Ġp ud
Ġp ese
Ġp color
Ġp ento
Ġp flo
Ġp unto
Ġp inos
ra z
ra dia
ra forca
ra cpom
in p
in ia
in gr
in st
in ka
in din
in tens
Ġm isk
Ġm ish
Ġm erg
Ġm este
Ġs ix
Ġs fr
Ġs ped
re pe
re ir
re nata
la x
la dy
la tare
la delphia
an so
an gel
co li
co ck
co raco
Ġb il
Ġb lt
Ġb urg
Ġb ibs
te ta
al tin
al icat
al uga
ar on
ar ina
ar ga
ar ssol
Ġ2 117
Ġ2 162
es om
es kibon
es parad
er ica
er burg
Ġd l
Ġd w
Ġd pa
Ġd oni
Ġd val
Ġd sc
Ġd inox
Ġd iges
Ġd gus
or quid
Ġl m
Ġl ga
Ġl cm
Ġl ula
Ġl ilo
Ġl bs
Ġl esstagioni
ml l
ml tresemme
Ġf od
Ġf anda
Ġf iam
Ġt go
Ġt if
Ġt oni
Ġt relo
Ġt cacho
ol h
ol ich
ol ucao
on v
on z
on ac
ca ina
ca racoes
ca mera
Ġa q
Ġa io
Ġa ral
Ġa pe
Ġa lan
Ġa val
Ġa van
Ġa bert
Ġa dela
Ġa rac
Ġa uxiliar
is il
is as
is ion
Ġ3 16
ho to
ta k
ta ua
ta ren
ta tica
ta vel
ta tiva
ta tion
ro k
en su
en ino
Ġ5 26
Ġ5 27
Ġ5 372
Ġn h
Ġn ed
Ġn ud
Ġn iss
Ġn sol
Ġn inos
Ġn amor
un e
un za
un idade
un ificante
Ġg s
Ġg in
Ġg ras
Ġg ian
Ġg onz
ha mas
il lo
il heira
ma res
ma lan
ma guar
ma cher
to to
to so
to ura
to que
to uch
mp e
mp ra
Ġv illy
ei da
ab ac
ab all
ab racadeira
50 250
50 46
ri es
ri der
ri din
Ġ4 34
Ġ4 66
Ġ4 46
Ġ4 924
Ġ4 121
Ġ4 453
as p
as imonaggio
Ġ500 0
ti er
ti ara
ti dy
ch f
ch an
ch inho
ch ica
Ġli do
Ġli trao
Ġre do
Ġre id
Ġre util
Ġre est
Ġre kem
Ġre idrat
do o
do br
do urado
Ġco al
Ġco ti
Ġco col
Ġco brin
Ġco sec
Ġco urinho
Ġco fee
Ġma p
Ġma et
Ġma cial
Ġma tac
Ġma fri
Ġun itar
Ġin al
Ġin ova
Ġin colar
Ġin ov
Ġh m
Ġh um
Ġh dog
Ġca in
Ġca ers
Ġca vera
Ġca zeit
Ġla st
Ġla br
Ġla tr
pa io
pa inco
pa latare
pa tativa
Ġe copo
Ġe ag
Ġe protect
qu ar
qu ela
qu iv
qu elar
qu iabo
ic ela
ic ell
ic ional
Ġpo ma
it in
it ri
it ud
it racpom
bis oft
ul x
go ia
sa t
sa mar
sa quinhos
sa patinho
Ġ8 60
Ġ8 38
Ġ8 211
Ġ8 408
Ġ8 646
Ġ8 999
las cas
de cond
de maq
Ġk f
Ġk bt
Ġk repon
Ġk ross
Ġo w
Ġo cas
Ġo per
Ġo ptico
ig ual
id al
id ence
Ġi za
Ġi mb
Ġi mbu
Ġi verme
le y
le to
le vel
os tatica
des d
des on
des il
des maia
des orizado
des orizador
des chini
des itin
Ġ7 12
Ġ7 93
Ġ7 602
Ġ7 859
Ġ7 1500
Ġ7 604
Ġ6 126
Ġ6 987
Ġ6 279
Ġ6 3793
om nic
om altin
Ġde ad
Ġde me
Ġde vil
Ġde upe
Ġro jo
Ġro mant
Ġal z
Ġal le
Ġal ga
Ġal tos
Ġal ber
Ġal yn
res sor
res fenol
Ġ9 12
Ġ9 90
Ġ9 19
Ġ9 21
Ġ9 92
Ġ9 54
Ġ9 420
Ġ9 106
lo iro
ba ix
ba gts
rem esa
gu ers
at udo
Ġj mb
Ġ12 18
Ġ12 37
Ġ12 63
Ġ12 81
Ġ12 83
Ġ12 1055
up ira
Ġx sh
Ġ100 56
Ġse cr
inha ca
li las
li um
li biam
Ġmar g
Ġmar isa
Ġmar una
Ġ400 10300
um eb
po ps
po vilho
po vit
Ġcol c
Ġcol mam
Ġcol etor
pan et
pan ifica
Ġsa j
Ġsa que
Ġsa ir
Ġsa rador
Ġsa umer
Ġdo v
Ġdo do
Ġdo sa
Ġdo br
Ġdo gao
Ġcon cept
Ġliq pal
Ġes ter
Ġes cola
Ġes cama
Ġar b
Ġar ca
Ġar os
Ġar vo
Ġar man
ur s
ur ry
Ġmo a
Ġmo las
Ġmo jito
ne on
Ġr k
Ġr xe
Ġr mca
Ġba ila
Ġba hamas
Ġfr gel
Ġ300 7
Ġ300 9
Ġ250 9
Ġpro mix
Ġto a
Ġto k
Ġto ts
Ġto wer
Ġto deschini
Ġw b
Ġw in
Ġw gr
Ġw inder
Ġpa es
Ġpa ixa
Ġpa isa
Ġpa malan
xa rel
Ġcar te
Ġcar do
Ġcar tel
Ġcar desil
em bar
cr ist
20 291
za c
za o
30 15
30 66
Ġ50 3
Ġ50 53
cond res
ole wa
Ġy ali
Ġan i
Ġan o
Ġan des
Ġan ual
Ġan inoshoyu
mol ieri
Ġam on
Ġam ino
Ġam iza
Ġam inos
Ġam ucan
Ġdent colgate
ac tine
Ġ10 30
Ġ10 24
Ġ10 15
Ġ10 500
Ġ10 200
Ġ10 28
Ġ10 8190
Ġ30 696
Ġ30 363
Ġ25 9
Ġ25 10312
ct rat
fe c
fe ch
fe ren
esc arola
esc alope
limp ad
10 70
10 11
10 92
10 73
10 62
Ġaz pto
Ġbr ux
Ġbr ule
Ġtri f
Ġtri vento
Ġtri polar
mo ta
mo ti
ona de
80 3
80 64
Ġch if
Ġch alim
Ġch umb
Ġch ivas
Ġ90 12
Ġ90 13
Ġ90 11
Ġ20 80
Ġ20 225
Ġ20 197
Ġ20 209
Ġ20 756
Ġ20 755
60 32
Ġso ut
Ġso pao
Ġso fru
col g
se guet
st il
st ane
st uger
Ġ350 4
12 61
12 86
Ġvi ra
oleo creme
Ġbab om
Ġ0 11
Ġ0 21
Ġ0 43
Ġ0 135
Ġ0 555
Ġ0 728
Ġ0 4000
su b
su ino
Ġflo cada
Ġflo rasson
Ġra der
Ġra me
Ġra bi
Ġra bbit
Ġra bana
Ġlav abo
70 37
Ġ33 7
Ġ33 00
Ġ33 79
ica re
Ġne omic
Ġu rash
Ġu bisoft
cha s
gua rante
Ġbo cao
Ġbo deg
Ġbo oster
ura r
am ico
Ġri tto
Ġri gati
iog ard
Ġmul h
Ġchoc alho
Ġ00 25
Ġ00 02
Ġ00 5003
cafe in
Ġmin eirinho
Ġmin esol
iz ine
Ġte arssol
Ġ15 500
ion e
Ġsal das
iv er
Ġ40 5
Ġ40 25
Ġ40 3700
inf antil
Ġz w
Ġz cz
Ġsua va
Ġpre gos
Ġce rem
Ġno b
Ġcas h
Ġcas ab
Ġcas ado
Ġcas adinho
mar ie
Ġ26 4
Ġ26 5
Ġ26 6
Ġel ixir
fr urri
Ġlo uc
Ġlo ck
Ġwa ffle
Ġlimp adora
Ġlimp atudo
lt aluga
Ġinte ita
Ġpr d
Ġman tim
Ġman timentos
24 334
cer d
cer me
Ġcho cor
cho pp
ras p
ras tevia
Ġgo i
ad inos
ad ulx
Ġac n
Ġorig e
Ġorig ina
Ġbar ca
Ġbar bi
Ġbar ista
Ġbar dolino
Ġbar kle
Ġni bs
Ġni quelar
Ġ60 6
Ġ60 16
Ġ60 875
Ġmon st
Ġmon del
Ġmon oi
15 15
15 500
15 32
15 66
Ġcolor ir
Ġcolor idos
Ġlac re
Ġcap uz
Ġcab ron
Ġ120 52
Ġpas toso
Ġperf ct
Ġperf se
Ġperf etto
Ġmulti mix
Ġdes sal
Ġdes salgado
Ġdes ejo
Ġbon j
Ġbon trato
Ġ24 754
cola c
can ter
Ġcor retivo
Ġcor rida
mas ca
mas ctrat
Ġad vent
Ġext ras
Ġda ma
Ġda el
Ġdesc anso
Ġanti r
Ġanti v
Ġanti qu
Ġanti ox
Ġ80 26
Ġ80 17
Ġ80 43
Ġ23 46
Ġ23 370
Ġ23 229
Ġ23 371
Ġdel l
Ġdel t
Ġdel uxo
cu ia
cu tia
cu telo
cu gina
75 1
75 10
75 378
Ġcla ean
bom b
cor re
cor tar
na y
Ġem bac
Ġem ment
ib r
ib us
ib uf
ib aby
Ġdi aro
Ġdi ant
Ġdi feren
old spice
Ġ37 76
22 1
22 10
22 13
22 89
22 85
13 8
ara me
Ġoleo crem
Ġ70 20
Ġ70 92
Ġst re
Ġst ile
Ġst olich
fer r
fer til
Ġter re
eiro ext
Ġme fen
Ġme zza
Ġpalm i
tal i
tal iq
Ġfrut mel
Ġdan ce
Ġsp l
Ġsp low
ros sa
Ġ16 56
Ġ16 62
Ġ16 005
Ġ16 86
Ġ16 927
Ġgra g
Ġpol icia
14 6
14 59
Ġ35 38
no tas
Ġcal m
Ġcal ig
Ġcal das
Ġ600 6512
ap ito
Ġcomp ressa
Ġwh isk
Ġwh ells
Ġsab vid
car te
ton ic
Ġfresh fps
gre l
erv i
Ġ900 0
Ġ900 6
Ġbl in
Ġbl ur
Ġ140 49
100 81
Ġpara br
Ġcl te
Ġcl ortal
Ġcl ycra
Ġ180 2
Ġcom od
Ġ14 48
Ġ14 202
Ġ14 890
Ġref s
mon i
Ġex e
Ġex tens
Ġex mc
200 89
200 74
200 01
Ġfem enino
Ġmax floc
Ġcha cos
Ġdu q
man ce
man juba
Ġflor i
Ġflor ipa
br c
Ġvde bco
color ball
lan der
lan taliq
95 5
Ġsu fl
Ġsu fra
16 2378
Ġest regu
Ġbras ma
Ġbranco sao
Ġsta tus
Ġdr in
Ġdr ur
Ġen d
Ġen graxa
Ġen cata
Ġen costo
Ġama erica
Ġsc rit
34 2
34 12
Ġesp res
Ġesp inafre
Ġneutro ge
Ġ18 10
ven eno
ven zer
ps yl
Ġmed fio
Ġmed alhao
32 94
32 71
Ġterm ina
xi filina
Ġfla me
44 9
Ġpri ladelphia
sen sor
Ġcond glace
pt s
pt t
ell sol
Ġice fres
Ġice aer
Ġextra or
Ġextra secante
her b
her bal
Ġvit ral
Ġhe in
Ġna pele
iza vel
Ġvid ratto
Ġ45 74
Ġ45 93
Ġmix se
Ġcra zy
min ib
tor ia
Ġsho k
Ġfort fogao
Ġas d
Ġas ia
Ġas us
Ġas teria
Ġpan ico
Ġpan etone
Ġbe an
Ġson inho
Ġhi de
Ġalho s
Ġalho oregano
cial is
tim um
Ġfran guinho
Ġhav ana
Ġprof i
Ġ17 50
Ġ17 80
Ġcam is
Ġ28 47
Ġval d
Ġmult funcional
Ġgu eixa
Ġgu itar
Ġja ci
Ġja cob
Ġcan udinho
Ġhidra cor
Ġespa da
Ġlixo plas
65 1
65 7
ped ias
ko ba
Ġbarb as
Ġcro mus
ext r
Ġ22 75
Ġ22 153
Ġ22 860
Ġ22 3990
Ġ240 3
Ġbol iche
Ġhidrat leve
tica s
23 30
23 507
23 164
Ġcare intens
Ġvan couver
Ġmat ruz
45 7
45 506
Ġtran parente
Ġcarm em
Ġta ma
Ġta mbo
Ġta hine
Ġta chinho
Ġgd uro
Ġ19 7510
ox r
ox x
sp id
Ġ36 8
Ġ36 73
Ġjohnson c
my lantaliq
Ġ260 1
Ġfin is
Ġfin issimo
Ġcristal izado
Ġgranado ant
Ġmand arina
Ġpamp ulha
36 2
gran s
gran de
gran cia
Ġ175 4
Ġsens ite
Ġbel s
Ġbel ian
ile f
Ġmd k
Ġ38 77
Ġ38 51
Ġcast cacau
Ġquad ra
Ġquad re
Ġquad ro
Ġfo gus
rel li
Ġres sec
Ġpron tin
Ġ39 27
Ġbla k
48 8
Ġart rilux
Ġtemp tation
esta b
anta do
72 90
72 78
van ce
bal lant
Ġqual it
Ġdef u
Ġamendo issimo
tr on
Ġfri a
Ġfri b
Ġfri ut
Ġfri tos
Ġfri tar
Ġstri p
Ġmid ra
Ġcolo rella
Ġ210 4
Ġ210 8
Ġ210 24
Ġ210 43
salgad inhos
Ġmanga rat
Ġmenta euc
gar fos
cas inha
28 3
Ġpc te
Ġ88 5
Ġ88 22
Ġger ge
cera zette
Ġsha chet
pro c
pro g
pro mo
pro bak
pro povit
94 34
Ġpredil leto
Ġsuav izante
Ġmi ol
per nil
Ġfra cas
flo x
Ġflamb o
Ġflamb yn
mel ia
mel lo
Ġ65 79
Ġfl ux
42 73
Ġdura cao
Ġtor cido
Ġtor menta
bolinho s
Ġ220 9
Ġ34 1
Ġ34 39
Ġbro ok
Ġbro melia
Ġpass i
Ġton s
Ġton kat
Ġfit n
Ġfit food
Ġmac us
Ġ84 160
Ġcacau coco
Ġarte x
Ġglic eri
Ġbal i
Ġbal onhesa
Ġbal uar
Ġgela to
Ġgela deira
Ġrs as
Ġru iva
Ġtut ta
Ġalk alina
Ġore chi
ket c
be ef
Ġ42 71
sap onac
Ġpolpa mix
Ġbu ong
84 7
Ġ420 31
Ġpela d
Ġpela tas
Ġten tad
mil o
Ġ700 1
Ġkar i
Ġgar i
[...]
