{"<s>":0,"<pad>":1,"</s>":2,"<unk>":3,"<mask>":4,"!":5,"\"":6,"#":7,"$":8,"%":9,"&":10,"'":11,"(":12,")":13,"*":14,"+":15,",":16,"-":17,".":18,"/":19,"0":20,"1":21,"2":22,"3":23,"4":24,"5":25,"6":26,"7":27,"8":28,"9":29,":":30,";":31,"<":32,"=":33,">":34,"?":35,"@":36,"A":37,"B":38,"C":39,"D":40,"E":41,"F":42,"G":43,"H":44,"I":45,"J":46,"K":47,"L":48,"M":49,"N":50,"O":51,"P":52,"Q":53,"R":54,"S":55,"T":56,"U":57,"V":58,"W":59,"X":60,"Y":61,"Z":62,"[":63,"\\":64,"]":65,"^":66,"_":67,"`":68,"a":69,"b":70,"c":71,"d":72,"e":73,"f":74,"g":75,"h":76,"i":77,"j":78,"k":79,"l":80,"m":81,"n":82,"o":83,"p":84,"q":85,"r":86,"s":87,"t":88,"u":89,"v":90,"w":91,"x":92,"y":93,"z":94,"{":95,"|":96,"}":97,"~":98,"¡":99,"¢":100,"£":101,"¤":102,"¥":103,"¦":104,"§":105,"¨":106,"©":107,"ª":108,"«":109,"¬":110,"®":111,"¯":112,"°":113,"±":114,"²":115,"³":116,"´":117,"µ":118,"¶":119,"·":120,"¸":121,"¹":122,"º":123,"»":124,"¼":125,"½":126,"¾":127,"¿":128,"À":129,"Á":130,"Â":131,"Ã":132,"Ä":133,"Å":134,"Æ":135,"Ç":136,"È":137,"É":138,"Ê":139,"Ë":140,"Ì":141,"Í":142,"Î":143,"Ï":144,"Ð":145,"Ñ":146,"Ò":147,"Ó":148,"Ô":149,"Õ":150,"Ö":151,"×":152,"Ø":153,"Ù":154,"Ú":155,"Û":156,"Ü":157,"Ý":158,"Þ":159,"ß":160,"à":161,"á":162,"â":163,"ã":164,"ä":165,"å":166,"æ":167,"ç":168,"è":169,"é":170,"ê":171,"ë":172,"ì":173,"í":174,"î":175,"ï":176,"ð":177,"ñ":178,"ò":179,"ó":180,"ô":181,"õ":182,"ö":183,"÷":184,"ø":185,"ù":186,"ú":187,"û":188,"ü":189,"ý":190,"þ":191,"ÿ":192,"Ā":193,"ā":194,"Ă":195,"ă":196,"Ą":197,"ą":198,"Ć":199,"ć":200,"Ĉ":201,"ĉ":202,"Ċ":203,"ċ":204,"Č":205,"č":206,"Ď":207,"ď":208,"Đ":209,"đ":210,"Ē":211,"ē":212,"Ĕ":213,"ĕ":214,"Ė":215,"ė":216,"Ę":217,"ę":218,"Ě":219,"ě":220,"Ĝ":221,"ĝ":222,"Ğ":223,"ğ":224,"Ġ":225,"ġ":226,"Ģ":227,"ģ":228,"Ĥ":229,"ĥ":230,"Ħ":231,"ħ":232,"Ĩ":233,"ĩ":234,"Ī":235,"ī":236,"Ĭ":237,"ĭ":238,"Į":239,"į":240,"İ":241,"ı":242,"Ĳ":243,"ĳ":244,"Ĵ":245,"ĵ":246,"Ķ":247,"ķ":248,"ĸ":249,"Ĺ":250,"ĺ":251,"Ļ":252,"ļ":253,"Ľ":254,"ľ":255,"Ŀ":256,"ŀ":257,"Ł":258,"ł":259,"Ń":260,"Ġc":261,"Ġp":262,"ra":263,"in":264,"Ġ1":265,"Ġm":266,"Ġs":267,"00":268,"re":269,"la":270,"an":271,"co":272,"Ġb":273,"te":274,"al":275,"ar":276,"Ġ2":277,"es":278,"er":279,"Ġd":280,"or":281,"Ġl":282,"ml":283,"Ġf":284,"Ġt":285,"ol":286,"on":287,"ca":288,"Ġa":289,"is":290,"Ġ3":291,"ho":292,"ta":293,"ro":294,"en":295,"Ġ5":296,"Ġn":297,"un":298,"Ġg":299,"ha":300,"il":301,"ma":302,"to":303,"mp":304,"el":305,"Ġv":306,"ei":307,"ab":308,"50":309,"ri":310,"Ġ4":311,"as":312,"Ġ500":313,"da":314,"ti":315,"ch":316,"ve":317,"Ġli":318,"Ġre":319,"do":320,"Ġco":321,"Ġma":322,"Ġun":323,"ran":324,"Ġin":325,"ia":326,"Ġh":327,"et":328,"Ġca":329,"Ġla":330,"pa":331,"Ġe":332,"qu":333,"ic":334,"Ġpo":335,"it":336,"bis":337,"Ġ200":338,"ul":339,"io":340,"ut":341,"go":342,"sa":343,"Ġ8":344,"bisc":345,"ja":346,"las":347,"de":348,"us":349,"Ġk":350,"Ġo":351,"ig":352,"id":353,"Ġi":354,"le":355,"os":356,"des":357,"kg":358,"Ġ7":359,"va":360,"Ġ6":361,"gr":362,"con":363,"om":364,"Ġde":365,"Ġro":366,"Ġal":367,"res":368,"sab":369,"Ġ9":370,"lo":371,"ba":372,"rem":373,"gu":374,"ent":375,"at":376,"Ġj":377,"Ġ12":378,"mac":379,"up":380,"Ġx":381,"ina":382,"Ġ100":383,"Ġse":384,"40":385,"inha":386,"li":387,"Ġmar":388,"Ġtra":389,"ga":390,"Ġ400":391,"um":392,"po":393,"inho":394,"Ġcol":395,"pan":396,"ral":397,"hoc":398,"pe":399,"ce":400,"im":401,"Ġsa":402,"Ġdo":403,"cao":404,"Ġcon":405,"ref":406,"od":407,"eite":408,"Ġliq":409,"Ġes":410,"uc":411,"Ġar":412,"ur":413,"Ġmo":414,"ne":415,"Ġr":416,"Ġba":417,"ero":418,"Ġfr":419,"Ġplas":420,"Ġ300":421,"ter":422,"Ġ250":423,"Ġpro":424,"Ġto":425,"Ġw":426,"Ġpa":427,"xa":428,"Ġnes":429,"Ġcar":430,"em":431,"cr":432,"20":433,"Ġqu":434,"za":435,"30":436,"Ġ50":437,"chin":438,"cond":439,"and":440,"ole":441,"sh":442,"Ġnat":443,"Ġy":444,"ed":445,"Ġan":446,"mol":447,"Ġam":448,"Ġdent":449,"ac":450,"ante":451,"Ġcr":452,"Ġ10":453,"Ġ30":454,"ela":455,"Ġ25":456,"Ġper":457,"ct":458,"fe":459,"esc":460,"Ġipan":461,"limp":462,"10":463,"ort":464,"Ġaz":465,"ua":466,"Ġver":467,"Ġbr":468,"Ġtri":469,"mo":470,"ona":471,"eb":472,"so":473,"80":474,"Ġch":475,"Ġ90":476,"Ġ150":477,"Ġor":478,"dor":479,"Ġpet":480,"Ġsan":481,"Ġ20":482,"60":483,"Ġso":484,"col":485,"molho":486,"Ġnest":487,"se":488,"Ġtrad":489,"st":490,"Ġ350":491,"Ġsh":492,"xt":493,"12":494,"ilho":495,"ine":496,"Ġvi":497,"desod":498,"rango":499,"Ġ-":500,"oleo":501,"az":502,"Ġq":503,"Ġlt":504,"sal":505,"Ġbab":506,"arra":507,"int":508,"Ġinf":509,"Ġ0":510,"mb":511,"su":512,"Ġflo":513,"Ġra":514,"der":515,"Ġlav":516,"kit":517,"70":518,"Ġ33":519,"ica":520,"Ġne":521,"Ġu":522,"cha":523,"ao":524,"Ġcoco":525,"ico":526,"gua":527,"Ġhid":528,"ist":529,"Ġbo":530,"ura":531,"Ġpal":532,"am":533,"Ġund":534,"ip":535,"Ġri":536,"ck":537,"Ġbaby":538,"ux":539,"leite":540,"suco":541,"ira":542,"eira":543,"gg":544,"racao":545,"iog":546,"Ġmul":547,"jo":548,"rig":549,"Ġnestle":550,"Ġcrem":551,"fa":552,"amp":553,"Ġchoc":554,"sand":555,"Ġ00":556,"Ġpt":557,"uro":558,"choc":559,"que":560,"cafe":561,"anda":562,"ki":563,"Ġmin":564,"Ġype":565,"iz":566,"util":567,"Ġte":568,"Ġtp":569,"Ġ15":570,"ix":571,"ĠĊ":572,"ion":573,"Ġsal":574,"iv":575,"pol":576,"Ġ40":577,"iso":578,"eia":579,"inf":580,"ano":581,"Ġz":582,"Ġsua":583,"Ġazul":584,"uso":585,"Ġpre":586,"Ġce":587,"pel":588,"ir":589,"one":590,"Ġno":591,"Ġcas":592,"sha":593,"Ġcx":594,"mar":595,"Ġmara":596,"Ġ26":597,"fil":598,"ino":599,"amac":600,"Ġreg":601,"ila":602,"Ġrech":603,"Ġel":604,"Ġ85":605,"Ġmorango":606,"fr":607,"Ġlo":608,"desinf":609,"Ġwa":610,"Ġlimp":611,"lt":612,"Ġsup":613,"Ġinte":614,"Ġpr":615,"cm":616,"ud":617,"td":618,"hav":619,"gel":620,"Ġman":621,"24":622,"refrig":623,"Ġcxa":624,"lu":625,"cer":626,"Ġqtd":627,"Ġcho":628,"cho":629,"ras":630,"rat":631,"Ġfor":632,"Ġgo":633,"Ġplasutil":634,"Ġclas":635,"Ġcamp":636,"mao":637,"Ġsad":638,"agua":639,"ad":640,"esm":641,"Ġac":642,"Ġorig":643,"Ġbar":644,"25":645,"reme":646,"me":647,"Ġint":648,"temp":649,"Ġve":650,"Ġni":651,"cal":652,"roz":653,"sor":654,"Ġita":655,"Ġ60":656,"Ġmon":657,"Ġsuave":658,"15":659,"Ġaer":660,"Ġcolor":661,"Ġlac":662,"Ġcap":663,"vo":664,"Ġcab":665,"Ġ120":666,"Ġpas":667,"Ġperf":668,"Ġle":669,"Ġlavanda":670,"Ġmulti":671,"Ġdes":672,"Ġbon":673,"enta":674,"Ġ24":675,"beb":676,"upa":677,"olo":678,"lor":679,"cola":680,"90":681,"Ġpe":682,"Ġclass":683,"Ġplast":684,"can":685,"ado":686,"Ġleite":687,"ito":688,"Ġcor":689,"mas":690,"Ġnut":691,"Ġ750":692,"Ġad":693,"Ġext":694,"pra":695,"erm":696,"veja":697,"Ġ3340":698,"Ġpto":699,"Ġbran":700,"Ġpl":701,"ers":702,"esp":703,"Ġlimao":704,"Ġfgo":705,"Ġda":706,"Ġml":707,"bala":708,"oki":709,"Ġroupa":710,"Ġdesc":711,"Ġanti":712,"tint":713,"iss":714,"Ġsol":715,"Ġ80":716,"bo":717,"Ġ23":718,"Ġsadia":719,"Ġbco":720,"ge":721,"Ġdel":722,"cu":723,"Ġbril":724,"Ġverde":725,"Ġuva":726,"ggi":727,"75":728,"Ġprote":729,"Ġban":730,"abs":731,"Ġcla":732,"bom":733,"cor":734,"Ġrosa":735,"terg":736,"Ġfres":737,"ree":738,"Ġmor":739,"na":740,"ido":741,"aro":742,"Ġem":743,"500":744,"Ġtom":745,"esa":746,"creme":747,"ib":748,"Ġnatu":749,"Ġdi":750,"comp":751,"for":752,"deterg":753,"old":754,"gela":755,"eit":756,"ita":757,"Ġbi":758,"ids":759,"ilha":760,"polpa":761,"Ġ37":762,"pao":763,"pote":764,"vela":765,"ing":766,"ka":767,"22":768,"Ġgal":769,"Ġverm":770,"Ġgran":771,"gate":772,"13":773,"ht":774,"che":775,"ini":776,"ara":777,"copo":778,"Ġoleo":779,"Ġpent":780,"Ġros":781,"uri":782,"Ġ170":783,"Ġ70":784,"refres":785,"far":786,"Ġmas":787,"isco":788,"ale":789,"uta":790,"fei":791,"Ġcolgate":792,"vete":793,"Ġlig":794,"Ġregina":795,"oll":796,"ant":797,"Ġst":798,"ente":799,"Ġcarne":800,"ard":801,"ite":802,"Ġ[":803,"Ġlaran":804,"fer":805,"orr":806,"ena":807,"cia":808,"Ġter":809,"Ġline":810,"ci":811,"Ġkids":812,"fo":813,"eiro":814,"Ġinteg":815,"Ġplus":816,"Ġme":817,"Ġpalm":818,"Ġseda":819,"Ġaero":820,"tal":821,"Ġfrut":822,"Ġdan":823,"tan":824,"Ġsp":825,"refresco":826,"ker":827,"Ġquero":828,"ros":829,"ori":830,"Ġmarata":831,"Ġ16":832,"Ġgra":833,"sorvete":834,"Ġdental":835,"Ġpira":836,"Ġinst":837,"gan":838,"Ġpol":839,"Ġbom":840,"Ġdove":841,"Ġbaud":842,"14":843,"Ġ35":844,"no":845,"Ġcal":846,"Ġ600":847,"pano":848,"ap":849,"Ġsanit":850,"Ġgel":851,"Ġmen":852,"Ġcomp":853,"ana":854,"Ġwh":855,"Ġsab":856,"Ġpra":857,"cere":858,"Ġum":859,"26":860,"Ġgold":861,"car":862,"Ġvig":863,"Ġtrat":864,"Ġdoce":865,"Ġcong":866,"alha":867,"Ġho":868,"Ġhig":869,"ton":870,"farinha":871,"Ġfresh":872,"gre":873,"erv":874,"Ġlaranja":875,"cerveja":876,"Ġveja":877,"sabao":878,"Ġped":879,"fral":880,"Ġcle":881,"Ġperd":882,"Ġmarco":883,"Ġ900":884,"gelat":885,"ya":886,"Ġbl":887,"Ġboni":888,"Ġ140":889,"ola":890,"100":891,"Ġzero":892,"cool":893,"eta":894,"eca":895,"vos":896,"ys":897,"ju":898,"colate":899,"Ġoet":900,"Ġpara":901,"tata":902,"Ġimp":903,"arroz":904,"Ġvita":905,"chup":906,"ry":907,"Ġvd":908,"papel":909,"Ġcl":910,"ice":911,"Ġpreto":912,"Ġ180":913,"Ġcom":914,"mist":915,"Ġsuper":916,"Ġjo":917,"Ġgre":918,"Ġ14":919,"Ġvigor":920,"Ġap":921,"Ġref":922,"mon":923,"espon":924,"ns":925,"Ġex":926,"remo":927,"ke":928,"prato":929,"rot":930,"vina":931,"Ġprotex":932,"zon":933,"seve":934,"ida":935,"veia":936,"maion":937,"set":938,"Ġbio":939,"200":940,"Ġfem":941,"Ġneut":942,"Ġlight":943,"ada":944,"ese":945,"esponja":946,"Ġliso":947,"Ġmax":948,"Ġoetker":949,"lava":950,"89":951,"orta":952,"chos":953,"Ġfloral":954,"11":955,"Ġcha":956,"Ġcere":957,"coco":958,"Ġmaca":959,"Ġdu":960,"man":961,"tra":962,"Ġlacte":963,"vea":964,"Ġseara":965,"batata":966,"Ġelseve":967,"Ġga":968,"mg":969,"cau":970,"Ġflor":971,"arrafa":972,"azeit":973,"tel":974,"Ġaba":975,"Ġ450":976,"ium":977,"br":978,"Ġchocolate":979,"lar":980,"inal":981,"Ġvde":982,"Ġred":983,"color":984,"lan":985,"cos":986,"Ġtop":987,"95":988,"Ġpinho":989,"Ġ230":990,"vinagre":991,"tos":992,"Ġtoya":993,"Ġnivea":994,"esco":995,"xo":996,"Ġsu":997,"Ġprem":998,"ban":999,"jao":1000,"Ġmultiuso":1001,"16":1002,"Ġest":1003,"Ġbras":1004,"Ġmaggi":1005,"Ġbranco":1006,"Ġsta":1007,"cereal":1008,"azeitona":1009,"rela":1010,"ft":1011,"Ġdr":1012,"Ġen":1013,"imenta":1014,"Ġpres":1015,"toalha":1016,"garrafa":1017,"Ġama":1018,"Ġbas":1019,"Ġnutri":1020,"erva":1021,"Ġsc":1022,"ff":1023,"Ġsen":1024,"deira":1025,"Ġ325":1026,"Ġdup":1027,"Ġwafer":1028,"saco":1029,"Ġconc":1030,"34":1031,"Ġesp":1032,"Ġcampil":1033,"Ġneutro":1034,"18":1035,"bi":1036,"Ġecon":1037,"caldo":1038,"Ġuso":1039,"Ġmol":1040,"Ġ18":1041,"ven":1042,"ely":1043,"Ġfruta":1044,"ps":1045,"Ġcachos":1046,"Ġmed":1047,"ucar":1048,"Ġmaria":1049,"Ġcola":1050,"Ġmel":1051,"gad":1052,"und":1053,"Ġcit":1054,"Ġtradic":1055,"32":1056,"Ġterm":1057,"xi":1058,"Ġsil":1059,"uriel":1060,"Ġfla":1061,"Ġlar":1062,"anha":1063,"44":1064,"Ġpante":1065,"Ġrider":1066,"Ġpri":1067,"Ġmic":1068,"iab":1069,"vinho":1070,"lado":1071,"Ġ340":1072,"Ġsalon":1073,"sen":1074,"Ġtan":1075,"Ġlam":1076,"Ġhu":1077,"Ġmilho":1078,"Ġcond":1079,"ctar":1080,"pt":1081,"Ġferm":1082,"ell":1083,"Ġmag":1084,"oo":1085,"Ġice":1086,"Ġextra":1087,"her":1088,"Ġrex":1089,"Ġprot":1090,"issin":1091,"Ġvit":1092,"ipo":1093,"Ġfle":1094,"Ġox":1095,"gur":1096,"Ġhe":1097,"Ġna":1098,"elo":1099,"Ġpantene":1100,"Ġpar":1101,"endo":1102,"Ġtres":1103,"Ġniely":1104,"marg":1105,"ixa":1106,"iza":1107,"Ġvid":1108,"Ġmuriel":1109,"lac":1110,"Ġ360":1111,"kar":1112,"alte":1113,"orte":1114,"cj":1115,"Ġjas":1116,"Ġ45":1117,"Ġlux":1118,"Ġmix":1119,"Ġabaca":1120,"les":1121,"Ġinv":1122,"Ġcra":1123,"Ġacti":1124,"pp":1125,"Ġkit":1126,"inset":1127,"ren":1128,"ista":1129,"eijo":1130,"Ġbarra":1131,"cat":1132,"azeite":1133,"38":1134,"end":1135,"Ġnissin":1136,"Ġbuc":1137,"fralda":1138,"Ġnatural":1139,"det":1140,"min":1141,"Ġtotal":1142,"tor":1143,"Ġlactea":1144,"Ġpct":1145,"Ġoriginal":1146,"Ġsho":1147,"Ġsemo":1148,"ala":1149,"max":1150,"milho":1151,"cader":1152,"Ġfort":1153,"pic":1154,"Ġas":1155,"Ġintegral":1156,"massa":1157,"Ġaniv":1158,"if":1159,"ional":1160,"Ġha":1161,"Ġpan":1162,"len":1163,"Ġbe":1164,"cd":1165,"Ġol":1166,"Ġfd":1167,"Ġdia":1168,"Ġumed":1169,"Ġesc":1170,"Ġbet":1171,"Ġson":1172,"porta":1173,"Ġhi":1174,"pas":1175,"Ġalum":1176,"igree":1177,"Ġcrist":1178,"frut":1179,"Ġpei":1180,"35":1181,"Ġalho":1182,"ian":1183,"64":1184,"Ġ789":1185,"wa":1186,"Ġ320":1187,"sham":1188,"iper":1189,"zz":1190,"cial":1191,"olly":1192,"400":1193,"Ġ130":1194,"Ġrich":1195,"tim":1196,"achoc":1197,"Ġfran":1198,"Ġtur":1199,"Ġgrego":1200,"escova":1201,"Ġpremium":1202,"ces":1203,"Ġdori":1204,"iogur":1205,"Ġsanremo":1206,"Ġjasm":1207,"isk":1208,"Ġnature":1209,"Ġtix":1210,"Ġyoki":1211,"Ġabacaxi":1212,"Ġtixan":1213,"ovo":1214,"ange":1215,"maionese":1216,"Ġmasc":1217,"Ġhav":1218,"ish":1219,"Ġprof":1220,"ive":1221,"yne":1222,"Ġclara":1223,"Ġgaro":1224,"rada":1225,"Ġhiper":1226,"Ġ17":1227,"masc":1228,"Ġcrack":1229,"Ġ75":1230,"tar":1231,"Ġkg":1232,"Ġsoft":1233,"ber":1234,"ez":1235,"Ġbolo":1236,"fd":1237,"ling":1238,"Ġsos":1239,"Ġcam":1240,"Ġsorr":1241,"Ġgaroto":1242,"Ġfrango":1243,"ilar":1244,"Ġ28":1245,"Ġdog":1246,"Ġmini":1247,"Ġjoh":1248,"Ġtradicional":1249,"Ġbri":1250,"Ġades":1251,"Ġpapel":1252,"est":1253,"Ġcd":1254,"Ġph":1255,"Ġclassic":1256,"Ġovos":1257,"Ġval":1258,"bol":1259,"lte":1260,"Ġfa":1261,"shamp":1262,"alia":1263,"gol":1264,"Ġbauduc":1265,"uto":1266,"limpa":1267,"esmalte":1268,"Ġmult":1269,"Ġgu":1270,"Ġbaun":1271,"Ġmonange":1272,"ento":1273,"Ġlv":1274,"Ġja":1275,"Ġsli":1276,"izza":1277,"Ġgota":1278,"Ġminu":1279,"cl":1280,"ema":1281,"Ġcan":1282,"cerv":1283,"ilan":1284,"Ġpla":1285,"alip":1286,"Ġsorriso":1287,"Ġcopo":1288,"Ġmais":1289,"onete":1290,"Ġbeb":1291,"Ġhidra":1292,"Ġmus":1293,"Ġnad":1294,"Ġninho":1295,"last":1296,"Ġsemola":1297,"Ġriches":1298,"Ġespa":1299,"Ġpalmol":1300,"he":1301,"ario":1302,"Ġlixo":1303,"Ġreal":1304,"Ġesf":1305,"bre":1306,"Ġcos":1307,"ram":1308,"Ġlimpol":1309,"Ġ2626":1310,"isque":1311,"ream":1312,"17":1313,"65":1314,"Ġque":1315,"Ġgl":1316,"ill":1317,"ped":1318,"Ġtex":1319,"ggies":1320,"ko":1321,"Ġao":1322,"Ġmarcia":1323,"Ġroll":1324,"emme":1325,"Ġbauducco":1326,"vin":1327,"rana":1328,"Ġbarb":1329,"Ġtang":1330,"Ġcro":1331,"Ġpote":1332,"Ġvermel":1333,"Ġtal":1334,"eng":1335,"ext":1336,"Ġ22":1337,"Ġbrasfrut":1338,"Ġmc":1339,"Ġbrilh":1340,"cuja":1341,"Ġgalinha":1342,"tico":1343,"norr":1344,"vas":1345,"Ġconf":1346,"ph":1347,"Ġ240":1348,"Ġmarilan":1349,"Ġvir":1350,"ten":1351,"Ġtramon":1352,"Ġtrip":1353,"Ġtrigol":1354,"Ġbrilux":1355,"Ġbol":1356,"geleia":1357,"bolo":1358,"alipto":1359,"deo":1360,"ub":1361,"Ġflores":1362,"Ġarroz":1363,"Ġmaracuja":1364,"Ġomo":1365,"Ġhidrat":1366,"Ġminuano":1367,"Ġpes":1368,"Ġnadir":1369,"Ġbrin":1370,"Ġtab":1371,"Ġgla":1372,"Ġestrela":1373,"Ġfrutas":1374,"refr":1375,"Ġknorr":1376,"Ġfat":1377,"feijao":1378,"Ġdanone":1379,"Ġsor":1380,"erg":1381,"Ġarisco":1382,"Ġorg":1383,"ich":1384,"Ġitalac":1385,"Ġhuggies":1386,"Ġauro":1387,"Ġclean":1388,"tica":1389,"via":1390,"alim":1391,"Ġcrf":1392,"23":1393,"66":1394,"Ġcare":1395,"Ġtresemme":1396,"dr":1397,"Ġpic":1398,"Ġvan":1399,"Ġmat":1400,"Ġul":1401,"Ġrexona":1402,"Ġalyne":1403,"Ġtramont":1404,"Ġsabor":1405,"uca":1406,"Ġbig":1407,"Ġlouro":1408,"Ġcoz":1409,"45":1410,"ls":1411,"Ġadul":1412,"Ġtran":1413,"okies":1414,"Ġaurora":1415,"Ġlte":1416,"Ġplasv":1417,"nson":1418,"Ġole":1419,"isa":1420,"Ġsem":1421,"Ġitamb":1422,"ioca":1423,"Ġfac":1424,"Ġsoja":1425,"adoc":1426,"onia":1427,"Ġpedigree":1428,"chic":1429,"Ġcaes":1430,"Ġcarm":1431,"Ġ110":1432,"Ġ800":1433,"Ġbebe":1434,"cp":1435,"oni":1436,"Ġgoiab":1437,"Ġslim":1438,"has":1439,"Ġxux":1440,"Ġta":1441,"anteig":1442,"Ġplasvale":1443,"rao":1444,"Ġmil":1445,"coxa":1446,"Ġmaxt":1447,"anti":1448,"Ġtrigolino":1449,"Ġcu":1450,"gelatina":1451,"Ġgd":1452,"Ġ19":1453,"Ġprint":1454,"Ġab":1455,"cap":1456,"acucar":1457,"ord":1458,"Ġxuxinha":1459,"pal":1460,"alcool":1461,"Ġcampo":1462,"ox":1463,"pc":1464,"sp":1465,"Ġaco":1466,"Ġ36":1467,"rf":1468,"Ġat":1469,"Ġhot":1470,"Ġjohnson":1471,"my":1472,"Ġbca":1473,"Ġpalmolive":1474,"Ġlamen":1475,"rado":1476,"Ġbrot":1477,"Ġchur":1478,"Ġcaju":1479,"Ġ260":1480,"Ġeconom":1481,"prot":1482,"Ġfin":1483,"guard":1484,"Ġ125":1485,"Ġcristal":1486,"Ġlacta":1487,"Ġgranado":1488,"Ġargan":1489,"Ġmand":1490,"ny":1491,"Ġitambe":1492,"dt":1493,"Ġpamp":1494,"36":1495,"lada":1496,"Ġvidro":1497,"Ġerva":1498,"gran":1499,"tro":1500,"Ġfrisco":1501,"iante":1502,"Ġ175":1503,"guar":1504,"Ġtrifil":1505,"colher":1506,"Ġsens":1507,"Ġoral":1508,"Ġcondor":1509,"isse":1510,"Ġbettan":1511,"Ġblu":1512,"Ġbel":1513,"Ġtto":1514,"Ġcolg":1515,"Ġrad":1516,"ile":1517,"Ġmd":1518,"vex":1519,"37":1520,"ais":1521,"Ġ38":1522,"acu":1523,"Ġclear":1524,"Ġperdig":1525,"Ġcast":1526,"sb":1527,"cueca":1528,"aveia":1529,"Ġintim":1530,"Ġmaxton":1531,"Ġquad":1532,"Ġfranc":1533,"vel":1534,"Ġbanho":1535,"val":1536,"inz":1537,"mes":1538,"Ġpred":1539,"ipoca":1540,"Ġbettanin":1541,"Ġlolly":1542,"Ġflocos":1543,"Ġjum":1544,"Ġrf":1545,"Ġcitr":1546,"Ġsb":1547,"Ġdec":1548,"Ġ160":1549,"Ġbov":1550,"Ġpow":1551,"19":1552,"Ġclassico":1553,"Ġfo":1554,"Ġhell":1555,"Ġhikar":1556,"sals":1557,"Ġmonica":1558,"Ġwhite":1559,"Ġaveia":1560,"Ġhar":1561,"catchup":1562,"rel":1563,"Ġur":1564,"Ġres":1565,"mm":1566,"Ġliza":1567,"Ġpron":1568,"Ġhikari":1569,"Ġ39":1570,"lamp":1571,"Ġgoiaba":1572,"Ġbla":1573,"Ġceb":1574,"Ġele":1575,"Ġcamom":1576,"48":1577,"Ġart":1578,"Ġbox":1579,"Ġpiracan":1580,"Ġ96":1581,"Ġtemp":1582,"doce":1583,"Ġrisque":1584,"ink":1585,"Ġ330":1586,"Ġipanema":1587,"iskas":1588,"esta":1589,"Ġlact":1590,"Ġcp":1591,"uma":1592,"nes":1593,"izena":1594,"anta":1595,"Ġche":1596,"Ġbrinort":1597,"72":1598,"vej":1599,"Ġcup":1600,"Ġher":1601,"van":1602,"andaia":1603,"Ġroup":1604,"Ġpil":1605,"lasanha":1606,"sorv":1607,"Ġperdigao":1608,"Ġintimus":1609,"oso":1610,"Ġcafe":1611,"ose":1612,"Ġ32":1613,"Ġsec":1614,"rante":1615,"mate":1616,"itta":1617,"Ġblack":1618,"Ġeuc":1619,"Ġpampers":1620,"Ġpuro":1621,"Ġhy":1622,"Ġfar":1623,"pray":1624,"bal":1625,"Ġqual":1626,"salg":1627,"Ġbranca":1628,"alho":1629,"Ġdef":1630,"fruta":1631,"Ġcracker":1632,"Ġbis":1633,"300":1634,"Ġcoca":1635,"jou":1636,"iva":1637,"Ġpomar":1638,"Ġamendo":1639,"Ġcosta":1640,"ver":1641,"qj":1642,"quei":1643,"Ġmaguar":1644,"Ġbijou":1645,"Ġmolho":1646,"tr":1647,"Ġfri":1648,"Ġbrilho":1649,"alvej":1650,"Ġinox":1651,"Ġstri":1652,"Ġ57":1653,"Ġkib":1654,"Ġ280":1655,"Ġbanana":1656,"Ġprima":1657,"atum":1658,"Ġ540":1659,"lin":1660,"Ġjandaia":1661,"file":1662,"Ġorigem":1663,"Ġguar":1664,"Ġpq":1665,"Ġmid":1666,"Ġpeito":1667,"Ġvanish":1668,"Ġsazon":1669,"ways":1670,"Ġfer":1671,"Ġ48":1672,"dy":1673,"dao":1674,"Ġcolo":1675,"anteiga":1676,"mart":1677,"Ġcream":1678,"cam":1679,"Ġrefil":1680,"Ġwaf":1681,"Ġbra":1682,"Ġ210":1683,"ilon":1684,"Ġfaz":1685,"Ġlimppano":1686,"Ġsanta":1687,"salgad":1688,"Ġalmo":1689,"nectar":1690,"Ġrichester":1691,"fit":1692,"Ġbroth":1693,"Ġfilho":1694,"150":1695,"wh":1696,"Ġroy":1697,"ria":1698,"Ġgr":1699,"Ġgua":1700,"sabonete":1701,"cinha":1702,"ovos":1703,"Ġqueijo":1704,"Ġcamomila":1705,"Ġnovex":1706,"okie":1707,"tamp":1708,"tira":1709,"Ġmanga":1710,"Ġemb":1711,"eixa":1712,"rosas":1713,"Ġstrike":1714,"Ġpimenta":1715,"sol":1716,"mini":1717,"Ġbc":1718,"Ġacao":1719,"Ġ269":1720,"abel":1721,"Ġalcool":1722,"pera":1723,"gra":1724,"Ġ27":1725,"Ġmaizena":1726,"Ġmariza":1727,"Ġroyal":1728,"Ġmenta":1729,"gau":1730,"mingau":1731,"Ġmae":1732,"Ġmancha":1733,"Ġmega":1734,"sard":1735,"gar":1736,"icao":1737,"Ġmr":1738,"Ġtr":1739,"Ġvirrosas":1740,"Ġtro":1741,"cas":1742,"28":1743,"urif":1744,"Ġmaguary":1745,"Ġcepera":1746,"Ġpc":1747,"feito":1748,"Ġblue":1749,"godao":1750,"Ġeconomico":1751,"raco":1752,"lub":1753,"Ġ88":1754,"Ġoder":1755,"Ġaca":1756,"Ġnesfit":1757,"ms":1758,"Ġger":1759,"Ġalways":1760,"bisco":1761,"Ġ55":1762,"Ġfanta":1763,"Ġarcor":1764,"cera":1765,"Ġheinz":1766,"ie":1767,"lala":1768,"odka":1769,"Ġcala":1770,"Ġmesa":1771,"Ġnescau":1772,"ervilha":1773,"tox":1774,"Ġglade":1775,"Ġkibon":1776,"xe":1777,"Ġbona":1778,"Ġforoni":1779,"lenco":1780,"Ġfrancis":1781,"Ġleao":1782,"ene":1783,"Ġamalia":1784,"ervas":1785,"Ġsha":1786,"pro":1787,"Ġoderich":1788,"Ġbrothers":1789,"ts":1790,"Ġagua":1791,"vodka":1792,"Ġralado":1793,"250":1794,"94":1795,"Ġwaw":1796,"Ġbomba":1797,"Ġvitam":1798,"cot":1799,"Ġ3744":1800,"Ġpiraque":1801,"ppy":1802,"torrada":1803,"loro":1804,"Ġultra":1805,"Ġpop":1806,"Ġwhiskas":1807,"iogurte":1808,"Ġvermelho":1809,"uti":1810,"Ġseca":1811,"Ġbaw":1812,"Ġtrigo":1813,"Ġnectar":1814,"jarra":1815,"oto":1816,"Ġeven":1817,"imo":1818,"Ġvis":1819,"Ġcookies":1820,"Ġorgan":1821,"Ġadulto":1822,"Ġup":1823,"Ġsache":1824,"Ġseco":1825,"Ġimpala":1826,"vita":1827,"Ġ115":1828,"207":1829,"Ġamar":1830,"Ġsorti":1831,"qua":1832,"Ġpast":1833,"Ġsonho":1834,"Ġpredil":1835,"purif":1836,"desodor":1837,"Ġturma":1838,"Ġ(":1839,"ivers":1840,"Ġ480":1841,"Ġsuav":1842,"cle":1843,"tus":1844,"Ġdetox":1845,"Ġmi":1846,"ete":1847,"vho":1848,"Ġsort":1849,"Ġmicro":1850,"barra":1851,"fort":1852,"top":1853,"carne":1854,"per":1855,"Ġala":1856,"faca":1857,"Ġmabel":1858,"Ġmusc":1859,"Ġbonare":1860,"pg":1861,"forma":1862,"Ġlis":1863,"Ġsport":1864,"nata":1865,"margar":1866,"idas":1867,"balao":1868,"Ġfree":1869,"assa":1870,"shampoo":1871,"Ġfra":1872,"amaciante":1873,"pimenta":1874,"Ġled":1875,"uty":1876,"Ġrosca":1877,"Ġpilsen":1878,"ure":1879,"pilha":1880,"Ġpower":1881,"biscoito":1882,"flo":1883,"plast":1884,"itos":1885,"Ġnac":1886,"sopao":1887,"Ġgato":1888,"Ġoxig":1889,"Ġcopob":1890,"Ġflamb":1891,"pir":1892,"requei":1893,"Ġlata":1894,"Ġvida":1895,"ette":1896,"iona":1897,"mel":1898,"Ġgur":1899,"Ġ65":1900,"bril":1901,"caixa":1902,"Ġav":1903,"Ġshoy":1904,"Ġfl":1905,"pres":1906,"Ġfun":1907,"Ġtio":1908,"Ġsbp":1909,"Ġbaunilha":1910,"42":1911,"Ġsept":1912,"Ġric":1913,"crm":1914,"Ġbrigad":1915,"relo":1916,"Ġdura":1917,"osto":1918,"inh":1919,"caneca":1920,"Ġdiet":1921,"Ġesfre":1922,"31":1923,"Ġgraos":1924,"Ġlinea":1925,"Ġnutr":1926,"soura":1927,"eno":1928,"mama":1929,"Ġtor":1930,"dos":1931,"Ġduo":1932,"yl":1933,"bolinho":1934,"Ġrosas":1935,"Ġparaf":1936,"Ġdeck":1937,"Ġant":1938,"Ġ220":1939,"goma":1940,"600":1941,"Ġspray":1942,"osso":1943,"Ġfortale":1944,"ferm":1945,"Ġ34":1946,"Ġon":1947,"39":1948,"Ġbro":1949,"Ġtam":1950,"Ġtralala":1951,"bon":1952,"uch":1953,"sopa":1954,"Ġveg":1955,"Ġ11":1956,"Ġ395":1957,"Ġceram":1958,"pasta":1959,"racoes":1960,"85":1961,"Ġarg":1962,"confeito":1963,"Ġcremoso":1964,"Ġinten":1965,"ili":1966,"hamb":1967,"Ġfilhote":1968,"manteiga":1969,"ty":1970,"Ġdona":1971,"rio":1972,"enx":1973,"Ġenerg":1974,"mal":1975,"Ġmis":1976,"Ġtu":1977,"nut":1978,"Ġbd":1979,"Ġret":1980,"Ġplax":1981,"wny":1982,"Ġaa":1983,"tivo":1984,"Ġflex":1985,"Ġhyd":1986,"Ġcoala":1987,"Ġpom":1988,"tc":1989,"Ġpv":1990,"Ġbamb":1991,"Ġpass":1992,"Ġclub":1993,"Ġton":1994,"Ġespe":1995,"ret":1996,"Ġfit":1997,"Ġcastan":1998,"Ġaj":1999,"Ġmac":2000,"gado":2001,"Ġhidrata":2002,"imp":2003,"Ġsuc":2004,"Ġpalha":2005,"ick":2006,"Ġrecon":2007,"ess":2008,"eir":2009,"quinha":2010,"Ġdubom":2011,"Ġ84":2012,"Ġcacau":2013,"Ġpetry":2014,"uz":2015,"Ġxg":2016,"Ġarte":2017,"lampada":2018,"arrao":2019,"ok":2020,"Ġhorte":2021,"Ġcons":2022,"Ġforte":2023,"Ġbanh":2024,"garfo":2025,"Ġcer":2026,"amendo":2027,"Ġeucalipto":2028,"pirul":2029,"Ġcot":2030,"Ġlegu":2031,"Ġglic":2032,"Ġespag":2033,"camis":2034,"Ġlum":2035,"Ġhava":2036,"Ġcreme":2037,"Ġbea":2038,"Ġbal":2039,"tit":2040,"Ġcroc":2041,"Ġ41":2042,"clean":2043,"ual":2044,"Ġcif":2045,"Ġgela":2046,"Ġcasa":2047,"Ġassa":2048,"ileia":2049,"Ġrs":2050,"Ġru":2051,"Ġtut":2052,"Ġfacil":2053,"Ġpomarola":2054,"pizza":2055,"tiva":2056,"Ġprat":2057,"Ġrep":2058,"Ġdowny":2059,"Ġ380":2060,"Ġmoran":2061,"Ġcopobras":2062,"Ġpizza":2063,"Ġsur":2064,"Ġacqua":2065,"Ġdafruta":2066,"loc":2067,"Ġbrilhante":2068,"iro":2069,"Ġfc":2070,"Ġalk":2071,"tella":2072,"tas":2073,"Ġore":2074,"ianca":2075,"Ġlem":2076,"ostar":2077,"Ġpeq":2078,"fda":2079,"unt":2080,"Ġcat":2081,"Ġnood":2082,"Ġcomfort":2083,"Ġste":2084,"granola":2085,"Ġpon":2086,"hid":2087,"ket":2088,"Ġalc":2089,"Ġjohnsons":2090,"be":2091,"Ġoval":2092,"rasco":2093,"olha":2094,"abas":2095,"pap":2096,"Ġsao":2097,"Ġsococo":2098,"form":2099,"Ġdesn":2100,"tintura":2101,"Ġcalca":2102,"Ġone":2103,"Ġ42":2104,"Ġfruc":2105,"ostarda":2106,"sap":2107,"kies":2108,"talco":2109,"camiseta":2110,"qjo":2111,"pus":2112,"Ġcia":2113,"etal":2114,"Ġfrutil":2115,"Ġpolpa":2116,"Ġactivia":2117,"iversos":2118,"Ġpouch":2119,"Ġtomate":2120,"Ġbu":2121,"Ġdis":2122,"iskies":2123,"tic":2124,"Ġmaril":2125,"sego":2126,"84":2127,"mat":2128,"Ġuht":2129,"Ġjumb":2130,"Ġhortela":2131,"ex":2132,"rato":2133,"Ġmamy":2134,"pete":2135,"Ġrainha":2136,"algodao":2137,"Ġhileia":2138,"aria":2139,"ucilon":2140,"Ġantar":2141,"conj":2142,"poko":2143,"Ġalmof":2144,"Ġmamypoko":2145,"Ġclose":2146,"Ġshoyu":2147,"osa":2148,"Ġsw":2149,"low":2150,"Ġvacu":2151,"Ġvacuo":2152,"Ġ420":2153,"Ġamarelo":2154,"Ġsams":2155,"Ġprin":2156,"juba":2157,"Ġpela":2158,"calcinha":2159,"Ġdiario":2160,"Ġhead":2161,"queijo":2162,"das":2163,"erina":2164,"Ġesfrebom":2165,"Ġconfianca":2166,"sardinha":2167,"ets":2168,"Ġmarine":2169,"Ġtram":2170,"Ġjasmine":2171,"Ġlegumes":2172,"mpom":2173,"Ġcart":2174,"Ġpbolo":2175,"coa":2176,"icia":2177,"amendoim":2178,"lus":2179,"coca":2180,"tive":2181,"Ġrose":2182,"Ġten":2183,"xeira":2184,"mil":2185,"ane":2186,"macarrao":2187,"peka":2188,"gular":2189,"vassoura":2190,"Ġharpic":2191,"Ġbrigadeiro":2192,"gem":2193,"iogurt":2194,"sel":2195,"Ġmgo":2196,"Ġgio":2197,"Ġway":2198,"Ġforca":2199,"tempero":2200,"cookie":2201,"Ġ700":2202,"ucha":2203,"sob":2204,"Ġsalada":2205,"ebo":2206,"Ġmint":2207,"Ġbord":2208,"Ġamer":2209,"lanc":2210,"Ġfortaleza":2211,"Ġbeauty":2212,"Ġral":2213,"Ġliv":2214,"Ġamant":2215,"Ġguarana":2216,"pente":2217,"Ġminho":2218,"Ġsv":2219,"Ġscot":2220,"Ġkar":2221,"guete":2222,"Ġqualy":2223,"Ġviscon":2224,"una":2225,"Ġdentalclean":2226,"pipoca":2227,"resc":2228,"Ġpassa":2229,"Ġgelat":2230,"Ġpronto":2231,"Ġuz":2232,"extrato":2233,"har":2234,"Ġmaci":2235,"ack":2236,"bert":2237,"haste":2238,"ak":2239,"Ġsapeka":2240,"Ġqua":2241,"Ġgar":2242,"Ġ46":2243,"Ġcarref":2244,"chupeta":2245,"Ġpit":2246,"Ġpaul":2247,"Ġchow":2248,"clg":2249,"Ġespecial":2250,"Ġpesa":2251,"Ġpompom":2252,"goiab":2253,"Ġ270":2254,"Ġtoque":2255,"pis":2256,"sala":2257,"Ġbozz":2258,"Ġcereais":2259,"Ġdar":2260,"Ġlivre":2261,"21":2262,"Ġpen":2263,"Ġnu":2264,"Ġcapri":2265,"Ġ21":2266,"Ġ275":2267,"Ġquim":2268,"Ġpiracanjuba":2269,"Ġacai":2270,"mor":2271,"Ġrsa":2272,"Ġjoao":2273,"dent":2274,"rodo":2275,"Ġartek":2276,"ipa":2277,"icha":2278,"Ġyara":2279,"mesa":2280,"Ġameixa":2281,"Ġliss":2282,"Ġchar":2283,"Ġauto":2284,"29":2285,"caes":2286,"icle":2287,"Ġpos":2288,"Ġmoca":2289,"Ġchi":2290,"Ġpety":2291,"Ġfazend":2292,"ende":2293,"Ġrollon":2294,"Ġfrutilita":2295,"Ġ413":2296,"Ġtripla":2297,"Ġalklin":2298,"pate":2299,"Ġpesada":2300,"Ġervas":2301,"77":2302,"Ġfe":2303,"vanna":2304,"Ġtar":2305,"68":2306,"Ġbul":2307,"jax":2308,"Ġfleis":2309,"Ġln":2310,"pedra":2311,"Ġbordon":2312,"Ġparafuso":2313,"Ġmisto":2314,"pack":2315,"Ġkel":2316,"Ġjasmim":2317,"gio":2318,"Ġtrik":2319,"Ġ13":2320,"colo":2321,"tapete":2322,"Ġzoo":2323,"Ġterra":2324,"Ġbat":2325,"Ġfab":2326,"festa":2327,"Ġradium":2328,"Ġva":2329,"Ġrenata":2330,"Ġpoder":2331,"Ġcereja":2332,"goiabada":2333,"Ġbdj":2334,"Ġmaciez":2335,"46":2336,"Ġsand":2337,"Ġsau":2338,"Ġphebo":2339,"Ġlon":2340,"ical":2341,"calca":2342,"Ġoreo":2343,"Ġpp":2344,"Ġsmart":2345,"Ġnot":2346,"Ġlacteo":2347,"urg":2348,"Ġvalle":2349,"inio":2350,"Ġfini":2351,"Ġneg":2352,"Ġhidratacao":2353,"Ġcomple":2354,"ianas":2355,"salsicha":2356,"nutri":2357,"Ġalo":2358,"Ġaro":2359,"Ġbozzano":2360,"Ġblanc":2361,"gon":2362,"son":2363,"tex":2364,"seleta":2365,"210":2366,"ucc":2367,"Ġfru":2368,"Ġqjo":2369,"Ġclaro":2370,"pim":2371,"Ġpink":2372,"pirulito":2373,"Ġcaip":2374,"lixeira":2375,"Ġwy":2376,"Ġlouca":2377,"ford":2378,"ani":2379,"eito":2380,"Ġkol":2381,"Ġantiba":2382,"Ġcin":2383,"Ġtint":2384,"Ġgill":2385,"Ġsk":2386,"Ġdoc":2387,"Ġrea":2388,"Ġfaber":2389,"Ġ66":2390,"ketchup":2391,"Ġgiovanna":2392,"sup":2393,"Ġanat":2394,"Ġfloppy":2395,"Ġmeu":2396,"di":2397,"veis":2398,"Ġsolido":2399,"Ġcomum":2400,"adocante":2401,"Ġboxer":2402,"Ġflu":2403,"ips":2404,"Ġwyda":2405,"Ġpia":2406,"Ġbor":2407,"Ġpessego":2408,"Ġfleisch":2409,"Ġmei":2410,"Ġlife":2411,"Ġpedro":2412,"Ġoxford":2413,"Ġpim":2414,"Ġvital":2415,"Ġcaref":2416,"Ġbarr":2417,"Ġado":2418,"Ġbombril":2419,"chicle":2420,"Ġdiv":2421,"Ġgrano":2422,"caderno":2423,"Ġbolon":2424,"Ġkitano":2425,"tigela":2426,"Ġinsp":2427,"Ġeco":2428,"Ġproa":2429,"condic":2430,"Ġ190":2431,"iat":2432,"Ġcebola":2433,"frig":2434,"oninho":2435,"ens":2436,"naga":2437,"Ġcabelo":2438,"panela":2439,"Ġaluminio":2440,"74":2441,"Ġpul":2442,"tion":2443,"450":2444,"Ġcolonia":2445,"Ġpirac":2446,"Ġtutti":2447,"nd":2448,"ni":2449,"Ġfriskies":2450,"feijo":2451,"Ġ29":2452,"ital":2453,"Ġsolu":2454,"Ġcitrus":2455,"Ġreconst":2456,"fres":2457,"Ġpel":2458,"Ġespaguete":2459,"Ġcrfh":2460,"Ġroupas":2461,"Ġmana":2462,"Ġchurrasco":2463,"78":2464,"colori":2465,"ggio":2466,"brin":2467,"ken":2468,"mer":2469,"ilhos":2470,"Ġ2334":2471,"223":2472,"til":2473,"Ġdul":2474,"Ġkim":2475,"Ġcrt":2476,"pcs":2477,"Ġmacia":2478,"Ġpresto":2479,"ula":2480,"Ġrec":2481,"ders":2482,"Ġpanas":2483,"Ġfructus":2484,"feijoada":2485,"Ġpente":2486,"Ġvm":2487,"vera":2488,"Ġgom":2489,"Ġkane":2490,"Ġju":2491,"Ġnutricao":2492,"ves":2493,"Ġcopa":2494,"Ġmagist":2495,"req":2496,"Ġkalipto":2497,"Ġcotton":2498,"Ġhavaianas":2499,"rim":2500,"Ġrap":2501,"ipava":2502,"Ġproauto":2503,"Ġpvc":2504,"colorif":2505,"eza":2506,"com":2507,"gao":2508,"Ġitaipava":2509,"frango":2510,"maca":2511,"sao":2512,"Ġricca":2513,"Ġ127":2514,"55":2515,"Ġpaulista":2516,"unto":2517,"Ġprata":2518,"bar":2519,"mostarda":2520,"Ġlist":2521,"Ġfix":2522,"Ġ44":2523,"lex":2524,"Ġbucal":2525,"Ġinspira":2526,"Ġneve":2527,"Ġbasic":2528,"Ġvitamina":2529,"900":2530,"Ġmoido":2531,"Ġbonitta":2532,"Ġhydrat":2533,"Ġfest":2534,"Ġing":2535,"Ġpalito":2536,"Ġprimavera":2537,"Ġpero":2538,"ios":2539,"tin":2540,"Ġsl":2541,"Ġii":2542,"Ġamori":2543,"Ġbrasil":2544,"Ġleme":2545,"cel":2546,"Ġafa":2547,"fresh":2548,"dro":2549,"Ġrico":2550,"Ġ2332":2551,"ulado":2552,"Ġiso":2553,"Ġlinha":2554,"Ġlilas":2555,"Ġajax":2556,"Ġhellman":2557,"colonia":2558,"Ġchamp":2559,"Ġinvis":2560,"Ġstop":2561,"Ġmista":2562,"Ġforma":2563,"Ġsono":2564,"Ġbolonh":2565,"Ġcarrefo":2566,"Ġaloe":2567,"diversos":2568,"Ġfil":2569,"Ġouro":2570,"Ġsemp":2571,"Ġqj":2572,"mbo":2573,"drc":2574,"cabo":2575,"desc":2576,"Ġelet":2577,"Ġgurt":2578,"98":2579,"Ġcloro":2580,"Ġ114":2581,"Ġbrisa":2582,"luva":2583,"Ġ3745":2584,"Ġgrao":2585,"Ġparamo":2586,"ama":2587,"ody":2588,"Ġtradicao":2589,"Ġhydratta":2590,"fos":2591,"Ġamo":2592,"Ġchoco":2593,"drops":2594,"Ġsocial":2595,"chom":2596,"Ġnutry":2597,"Ġtropic":2598,"Ġkanechom":2599,"Ġbem":2600,"Ġgala":2601,"mucilon":2602,"bau":2603,"Ġregular":2604,"chaca":2605,"Ġ355":2606,"Ġbiocolor":2607,"alvejante":2608,"Ġminhoto":2609,"Ġpipoca":2610,"tela":2611,"Ġdb":2612,"ratina":2613,"Ġfarmax":2614,"cachaca":2615,"Ġdoura":2616,"Ġboom":2617,"cesto":2618,"Ġmal":2619,"Ġtod":2620,"Ġintens":2621,"blu":2622,"Ġpg":2623,"Ġbj":2624,"Ġtd":2625,"Ġnyl":2626,"Ġbak":2627,"bany":2628,"pen":2629,"tis":2630,"Ġsalg":2631,"Ġlou":2632,"Ġdiza":2633,"cobert":2634,"Ġfi":2635,"Ġada":2636,"Ġhel":2637,"Ġovo":2638,"vol":2639,"Ġalg":2640,"Ġvisconti":2641,"colorifico":2642,"01":2643,"Ġtipo":2644,"Ġprafesta":2645,"prote":2646,"Ġcontr":2647,"cone":2648,"bombom":2649,"Ġdanoninho":2650,"Ġmela":2651,"Ġsul":2652,"Ġnovo":2653,"ze":2654,"Ġpao":2655,"Ġparamount":2656,"bab":2657,"Ġtap":2658,"Ġlas":2659,"ceo":2660,"onaceo":2661,"jogo":2662,"Ġtw":2663,"Ġconfort":2664,"sandalia":2665,"Ġalbany":2666,"sec":2667,"Ġdelrio":2668,"tri":2669,"xg":2670,"rade":2671,"Ġtoddy":2672,"pino":2673,"udo":2674,"dog":2675,"Ġmadeira":2676,"Ġtrident":2677,"Ġlev":2678,"ulo":2679,"Ġpato":2680,"Ġmant":2681,"Ġnosso":2682,"amend":2683,"nescafe":2684,"dega":2685,"Ġ76":2686,"Ġcarefree":2687,"33":2688,"Ġcache":2689,"canela":2690,"Ġgraf":2691,"Ġinvic":2692,"mallow":2693,"180":2694,"350":2695,"Ġment":2696,"Ġthe":2697,"Ġbola":2698,"Ġgrend":2699,"sbt":2700,"tampa":2701,"Ġdol":2702,"Ġken":2703,"Ġcupu":2704,"abo":2705,"Ġmov":2706,"Ġ05":2707,"iola":2708,"Ġmenina":2709,"Ġtopz":2710,"Ġdupe":2711,"Ġnylon":2712,"emb":2713,"filtro":2714,"Ġnoite":2715,"Ġgrande":2716,"Ġcalda":2717,"requeij":2718,"saponaceo":2719,"Ġct":2720,"Ġska":2721,"ella":2722,"Ġind":2723,"Ġpascoa":2724,"Ġclaud":2725,"jer":2726,"reg":2727,"ono":2728,"ilo":2729,"Ġkenko":2730,"nack":2731,"Ġpure":2732,"Ġfu":2733,"tom":2734,"Ġ43":2735,"Ġ430":2736,"Ġhom":2737,"palm":2738,"Ġlim":2739,"Ġsach":2740,"Ġviol":2741,"Ġpasc":2742,"Ġameric":2743,"Ġgrendha":2744,"Ġmofo":2745,"Ġleg":2746,"idos":2747,"ibra":2748,"Ġbase":2749,"Ġbambu":2750,"Ġkimimo":2751,"Ġtropical":2752,"Ġnor":2753,"Ġko":2754,"Ġdeline":2755,"Ġrolo":2756,"Ġ2566":2757,"Ġchips":2758,"Ġsupreme":2759,"56":2760,"get":2761,"tto":2762,"inga":2763,"Ġ56":2764,"andy":2765,"Ġfdo":2766,"Ġgros":2767,"Ġuniv":2768,"Ġessen":2769,"neu":2770,"Ġamazon":2771,"Ġceramidas":2772,"del":2773,"Ġbag":2774,"Ġang":2775,"espum":2776,"Ġgalo":2777,"bl":2778,"Ġtos":2779,"Ġcremer":2780,"Ġcalabre":2781,"Ġcoracoes":2782,"Ġamor":2783,"Ġorto":2784,"Ġfazendinha":2785,"fosfor":2786,"Ġclaudia":2787,"inom":2788,"Ġsm":2789,"jg":2790,"Ġodor":2791,"92":2792,"Ġ520":2793,"tiz":2794,"Ġmate":2795,"filez":2796,"Ġpeixe":2797,"Ġquaker":2798,"fosforo":2799,"ixo":2800,"Ġoliv":2801,"dinho":2802,"Ġhugg":2803,"uel":2804,"Ġpolif":2805,"Ġapti":2806,"margarina":2807,"Ġlasanha":2808,"aba":2809,"Ġ68":2810,"Ġvale":2811,"Ġcores":2812,"ume":2813,"Ġ106":2814,"uau":2815,"Ġka":2816,"loff":2817,"Ġoliva":2818,"Ġnatureza":2819,"Ġhellmanns":2820,"taca":2821,"queira":2822,"mamad":2823,"naz":2824,"Ġoce":2825,"Ġuau":2826,"Ġlava":2827,"Ġduplo":2828,"Ġgat":2829,"Ġmaster":2830,"meia":2831,"amido":2832,"Ġcatup":2833,"Ġfas":2834,"Ġcach":2835,"qui":2836,"Ġcapilar":2837,"Ġsuisse":2838,"Ġadria":2839,"mann":2840,"bie":2841,"Ġcozinha":2842,"Ġcalab":2843,"blusa":2844,"Ġcupuacu":2845,"nu":2846,"Ġpor":2847,"Ġshcond":2848,"Ġpastel":2849,"Ġtramontina":2850,"Ġvol":2851,"petit":2852,"Ġshoul":2853,"Ġag":2854,"Ġrepa":2855,"lixa":2856,"fermento":2857,"kura":2858,"aroma":2859,"Ġ78960":2860,"Ġelef":2861,"lustra":2862,"Ġpta":2863,"Ġsel":2864,"enxa":2865,"Ġtoq":2866,"Ġcity":2867,"Ġbarbie":2868,"composto":2869,"Ġgallo":2870,"par":2871,"vazon":2872,"ados":2873,"Ġ144":2874,"Ġnapol":2875,"Ġfortal":2876,"120":2877,"Ġmam":2878,"isky":2879,"Ġchurr":2880,"pi":2881,"rega":2882,"enda":2883,"guer":2884,"rella":2885,"hi":2886,"tv":2887,"cox":2888,"Ġleit":2889,"Ġast":2890,"tia":2891,"Ġbabosa":2892,"Ġatum":2893,"Ġ+":2894,"Ġgerm":2895,"Ġ165":2896,"caf":2897,"Ġdeseng":2898,"Ġcalabresa":2899,"rata":2900,"Ġtrans":2901,"Ġfundo":2902,"brinq":2903,"inomoto":2904,"Ġluna":2905,"queiro":2906,"deso":2907,"Ġtarget":2908,"caro":2909,"illa":2910,"ney":2911,"Ġcuida":2912,"Ġduleit":2913,"mant":2914,"Ġsg":2915,"cad":2916,"Ġalta":2917,"Ġmezz":2918,"Ġhomem":2919,"Ġfam":2920,"Ġanglo":2921,"blo":2922,"Ġsim":2923,"Ġdocile":2924,"Ġdolce":2925,"Ġmelitta":2926,"iry":2927,"tempo":2928,"utien":2929,"erry":2930,"Ġnov":2931,"palito":2932,"vilho":2933,"Ġtb":2934,"Ġtort":2935,"Ġgus":2936,"Ġscotch":2937,"bone":2938,"pes":2939,"Ġavela":2940,"Ġrosq":2941,"Ġducoco":2942,"balde":2943,"Ġamendoas":2944,"reia":2945,"Ġimper":2946,"we":2947,"Ġvdo":2948,"Ġreino":2949,"bacia":2950,"Ġ1000":2951,"Ġdoy":2952,"Ġcolors":2953,"Ġ850":2954,"Ġems":2955,"Ġumid":2956,"Ġbolonhesa":2957,"27":2958,"smart":2959,"Ġvg":2960,"Ġpromo":2961,"Ġbaudu":2962,"cereais":2963,"Ġflak":2964,"Ġruff":2965,"Ġsurf":2966,"Ġdisney":2967,"fio":2968,"inos":2969,"rex":2970,"Ġasa":2971,"fada":2972,"Ġ26223":2973,"Ġtrop":2974,"Ġnoodles":2975,"Ġswell":2976,"224":2977,"asy":2978,"Ġtot":2979,"Ġmedio":2980,"Ġlargo":2981,"icara":2982,"vi":2983,"Ġ414":2984,"soutien":2985,"rosquinha":2986,"Ġprato":2987,"Ġcct":2988,"Ġact":2989,"Ġraso":2990,"Ġbarbe":2991,"Ġbrig":2992,"rano":2993,"Ġcarn":2994,"icaldo":2995,"Ġshoulders":2996,"Ġlin":2997,"Ġkob":2998,"ygon":2999,"Ġ51":3000,"Ġmoveis":3001,"Ġsufresh":3002,"Ġpanel":3003,"Ġpassatempo":3004,"Ġskala":3005,"Ġmezzani":3006,"gtc":3007,"Ġbx":3008,"Ġalim":3009,"Ġadoc":3010,"Ġtheoto":3011,"Ġsolar":3012,"whisky":3013,"baby":3014,"Ġtin":3015,"Ġgira":3016,"Ġprati":3017,"Ġredon":3018,"Ġurb":3019,"uva":3020,"Ġgts":3021,"Ġ460":3022,"Ġprocao":3023,"aliz":3024,"hair":3025,"Ġlimpeza":3026,"Ġvitarella":3027,"Ġactive":3028,"Ġpetyan":3029,"Ġcuidado":3030,"Ġpiso":3031,"Ġplastico":3032,"Ġviena":3033,"Ġpiracanj":3034,"Ġsachet":3035,"99":3036,"mix":3037,"cookies":3038,"Ġcaram":3039,"Ġyo":3040,"Ġsoc":3041,"quetel":3042,"Ġkicaldo":3043,"Ġalf":3044,"Ġhora":3045,"Ġbb":3046,"Ġretan":3047,"Ġmad":3048,"uchaua":3049,"uba":3050,"reto":3051,"lapis":3052,"Ġpicante":3053,"Ġgusto":3054,"Ġnew":3055,"Ġgrav":3056,"Ġtil":3057,"Ġeasy":3058,"gum":3059,"Ġcheese":3060,"220":3061,"Ġsun":3062,"Ġbiq":3063,"bic":3064,"Ġdor":3065,"eij":3066,"Ġcoza":3067,"Ġpod":3068,"Ġof":3069,"Ġopus":3070,"Ġdeco":3071,"smartph":3072,"*(":3073,"Ġcicle":3074,"almon":3075,"Ġave":3076,"Ġale":3077,"terine":3078,"Ġreche":3079,"Ġ26267":3080,"Ġtangerina":3081,"Ġmilnutri":3082,"Ġcicley":3083,"ag":3084,"Ġtt":3085,"Ġsant":3086,"Ġdbenta":3087,"Ġmos":3088,"Ġemp":3089,"Ġ335":3090,"filme":3091,"Ġperfuma":3092,"Ġcatupiry":3093,"Ġflakes":3094,"eston":3095,"cacho":3096,"Ġgour":3097,"ibri":3098,"flocao":3099,"Ġpanelux":3100,"wc":3101,"Ġhem":3102,"Ġ93":3103,"Ġsakura":3104,"Ġsanitaria":3105,"Ġtambau":3106,"ly":3107,"Ġbico":3108,"Ġfps":3109,"Ġcarioca":3110,"polio":3111,"vene":3112,"limpador":3113,"Ġavul":3114,"Ġreach":3115,"Ġliqu":3116,"Ġiq":3117,"Ġsensi":3118,"Ġframbo":3119,"Ġtapioca":3120,"67":3121,"gells":3122,"Ġjumbo":3123,"Ġnovica":3124,"320":3125,"Ġold":3126,"Ġnescafe":3127,"Ġperu":3128,"Ġraid":3129,"Ġtransp":3130,"Ġtaran":3131,"Ġsucr":3132,"Ġcrocante":3133,"140":3134,"Ġmod":3135,"Ġsanol":3136,"Ġmedia":3137,"Ġprofun":3138,"perf":3139,"bebida":3140,"Ġassad":3141,"Ġcarrefour":3142,"Ġkobber":3143,"Ġmetal":3144,"Ġpassar":3145,"Ġpur":3146,"Ġ290":3147,"Ġfesta":3148,"Ġke":3149,"Ġbacon":3150,"Ġmassa":3151,"brecoxa":3152,"Ġcolora":3153,"nie":3154,"rol":3155,"Ġfina":3156,"Ġcool":3157,"assad":3158,"gas":3159,"sc":3160,"Ġmine":3161,"Ġqueratina":3162,"Ġantibac":3163,"gumelo":3164,"fla":3165,"med":3166,"rev":3167,"Ġjr":3168,"Ġpreta":3169,"Ġchao":3170,"Ġoceano":3171,"Ġray":3172,"Ġminas":3173,"Ġ789600":3174,"Ġricosa":3175,"Ġamericano":3176,"Ġza":3177,"Ġpant":3178,"Ġoff":3179,"Ġalma":3180,"Ġ2512":3181,"Ġchee":3182,"requeijao":3183,"Ġcastanho":3184,"Ġantarc":3185,"enxag":3186,"Ġpilar":3187,"tab":3188,"Ġdrink":3189,"Ġquali":3190,"Ġlisa":3191,"cons":3192,"Ġcrfo":3193,"cker":3194,"Ġze":3195,"Ġdavene":3196,"izador":3197,"Ġjumbinho":3198,"Ġframboesa":3199,"Ġpgg":3200,"tec":3201,"Ġlan":3202,"inox":3203,"Ġcarminha":3204,"Ġingles":3205,"regata":3206,"cachos":3207,"Ġpresti":3208,"Ġparmes":3209,"sobrem":3210,"Ġpenne":3211,"Ġiqf":3212,"bico":3213,"Ġamendoim":3214,"Ġ7622":3215,"Ġneutrox":3216,"Ġfleur":3217,"Ġ234":3218,"bide":3219,"Ġtabu":3220,"snack":3221,"cabide":3222,"mala":3223,"Ġhidro":3224,"Ġmarac":3225,"Ġlour":3226,"itex":3227,"Ġhersh":3228,"Ġgraviola":3229,"Ġparmesao":3230,"Ġcs":3231,"Ġfiat":3232,"peto":3233,"urguer":3234,"Ġparana":3235,"Ġleve":3236,"Ġbrilhus":3237,"Ġgrosso":3238,"pneu":3239,"Ġdal":3240,"Ġtuchaua":3241,"Ġhal":3242,"Ġfrutti":3243,"frigid":3244,"Ġinvisib":3245,"Ġmineral":3246,"Ġcz":3247,"Ġskar":3248,"organ":3249,"Ġsob":3250,"Ġdarling":3251,"kids":3252,"Ġsq":3253,"Ġdanub":3254,"lav":3255,"cogumelo":3256,"Ġ31":3257,"ille":3258,"Ġdelic":3259,"catu":3260,"Ġescuro":3261,"liter":3262,"Ġbiju":3263,"pedigree":3264,"76":3265,"bb":3266,"espeto":3267,"eio":3268,"Ġcolibri":3269,"salon":3270,"cesta":3271,"Ġtenys":3272,"bu":3273,"Ġcsal":3274,"Ġ89":3275,"locao":3276,"icole":3277,"chocolate":3278,"Ġcorpo":3279,"Ġparb":3280,"Ġfaela":3281,"assadeira":3282,"jericao":3283,"Ġdallas":3284,"pto":3285,"deseng":3286,"Ġpasta":3287,"Ġrosto":3288,"Ġmagic":3289,"inhos":3290,"Ġdelica":3291,"Ġphy":3292,"Ġelect":3293,"750":3294,"dedor":3295,"ger":3296,"Ġgas":3297,"odor":3298,"Ġhidr":3299,"Ġforno":3300,"Ġdiam":3301,"Ġfinos":3302,"ffe":3303,"gla":3304,"Ġpin":3305,"Ġbrinox":3306,"ptico":3307,"Ġbela":3308,"cadeira":3309,"vedor":3310,"Ġcastanha":3311,"Ġcolorama":3312,"tao":3313,"queez":3314,"mistura":3315,"Ġfrimesa":3316,"ias":3317,"Ġregaliz":3318,"uccino":3319,"iamb":3320,"Ġki":3321,"ign":3322,"Ġamend":3323,"Ġglit":3324,"Ġtalento":3325,"Ġqualimax":3326,"gin":3327,"ior":3328,"Ġpi":3329,"Ġmarinho":3330,"Ġbaygon":3331,"erola":3332,"Ġcarta":3333,"Ġbond":3334,"Ġantic":3335,"Ġnutrisse":3336,"Ġdende":3337,"Ġtip":3338,"Ġ01":3339,"derm":3340,"Ġprol":3341,"Ġpedra":3342,"648":3343,"Ġfruit":3344,"Ġruffles":3345,"43":3346,"Ġser":3347,"tador":3348,"Ġ105":3349,"guarana":3350,"apar":3351,"Ġnative":3352,"Ġfertil":3353,"Ġinvicta":3354,"iliz":3355,"Ġstra":3356,"Ġsoluvel":3357,"Ġcg":3358,"Ġsca":3359,"Ġwom":3360,"Ġcapp":3361,"free":3362,"faro":3363,"Ġth":3364,"Ġrod":3365,"detergente":3366,"Ġparati":3367,"Ġcereal":3368,"past":3369,"Ġastra":3370,"hidrat":3371,"Ġadapt":3372,"Ġfroz":3373,"cara":3374,"Ġretro":3375,"lencol":3376,"Ġoleos":3377,"tomate":3378,"Ġcookie":3379,"Ġkod":3380,"Ġroxo":3381,"Ġjard":3382,"Ġfinas":3383,"Ġantarctica":3384,"Ġsimp":3385,"Ġtamp":3386,"inado":3387,"Ġelma":3388,"Ġphyto":3389,"tl":3390,"Ġmer":3391,"lador":3392,"ang":3393,"Ġbenta":3394,"Ġbody":3395,"care":3396,"rip":3397,"deja":3398,"Ġbaruel":3399,"cano":3400,"escor":3401,"Ġgelatina":3402,"Ġdourada":3403,"mort":3404,"Ġrev":3405,"Ġpoleng":3406,"Ġanivers":3407,"Ġbroch":3408,"Ġmeias":3409,"73":3410,"Ġmarti":3411,"Ġpack":3412,"Ġpeps":3413,"Ġkoleston":3414,"Ġelefante":3415,"boneca":3416,"Ġcheetos":3417,"Ġdanubio":3418,"eva":3419,"Ġkess":3420,"Ġcasal":3421,"bola":3422,"Ġspice":3423,"Ġbisnaga":3424,"Ġpoliflor":3425,"Ġov":3426,"Ġ672":3427,"Ġesco":3428,"Ġabs":3429,"Ġmicrof":3430,"Ġprinces":3431,"Ġkarite":3432,"Ġbull":3433,"queeze":3434,"met":3435,"sy":3436,"Ġdry":3437,"Ġcoc":3438,"Ġcaseiro":3439,"caneta":3440,"Ġimperio":3441,"coracoes":3442,"leg":3443,"Ġcolorido":3444,"Ġesfol":3445,"Ġbigfral":3446,"Ġcampilar":3447,"ixao":3448,"jica":3449,"Ġlisterine":3450,"Ġperfumado":3451,"Ġinvisible":3452,"gen":3453,"mur":3454,"pren":3455,"picole":3456,"ĠĠĊ":3457,"Ġbic":3458,"tado":3459,"Ġalis":3460,"Ġbac":3461,"Ġpresunto":3462,"Ġhemmer":3463,"bio":3464,"Ġcresc":3465,"isen":3466,"douro":3467,"Ġcabo":3468,"Ġfreegells":3469,"desodo":3470,"Ġprestigio":3471,"evita":3472,"Ġital":3473,"0000":3474,"Ġfp":3475,"Ġfino":3476,"Ġsac":3477,"Ġ103":3478,"Ġhair":3479,"Ġcitron":3480,"cche":3481,"Ġami":3482,"Ġcalc":3483,"Ġmilk":3484,"cominho":3485,"Ġfrozen":3486,"bul":3487,"cast":3488,"entos":3489,"vao":3490,"Ġrt":3491,"Ġsani":3492,"ameixa":3493,"Ġsolt":3494,"myto":3495,"Ġcacheados":3496,"Ġtira":3497,"onic":3498,"isca":3499,"Ġmama":3500,"Ġhit":3501,"Ġ02":3502,"Ġlowc":3503,"Ġcanela":3504,"papinha":3505,"Ġmagistral":3506,"Ġmb":3507,"Ġtren":3508,"Ġvap":3509,"timo":3510,"pat":3511,"Ġtoalha":3512,"Ġazl":3513,"Ġfruttis":3514,"Ġdefin":3515,"Ġcontrol":3516,"Ġtinto":3517,"Ġfruttisol":3518,"descolor":3519,"Ġhershe":3520,"240":3521,"eto":3522,"ste":3523,"vent":3524,"Ġmet":3525,"Ġ54":3526,"Ġinter":3527,"Ġola":3528,"lip":3529,"Ġcheir":3530,"frigideira":3531,"bro":3532,"pin":3533,"Ġink":3534,"Ġrov":3535,"Ġxxg":3536,"Ġ17648":3537,"Ġreparacao":3538,"Ġgourmet":3539,"ot":3540,"rolo":3541,"xicara":3542,"Ġeisen":3543,"elar":3544,"Ġaji":3545,"bri":3546,"Ġpila":3547,"abr":3548,"Ġpraia":3549,"Ġconcent":3550,"Ġajinomoto":3551,"Ġrovitex":3552,"den":3553,"Ġluz":3554,"Ġfixa":3555,"Ġmaxx":3556,"bandeja":3557,"Ġsortido":3558,"glade":3559,"bty":3560,"fi":3561,"Ġdello":3562,"Ġexp":3563,"mamadeira":3564,"nugg":3565,"Ġalfaz":3566,"Ġccp":3567,"racha":3568,"Ġbelo":3569,"Ġ78":3570,"Ġmoida":3571,"edor":3572,"Ġargin":3573,"oy":3574,"cacau":3575,"salada":3576,"Ġgotas":3577,"Ġprolon":3578,"ssol":3579,"atus":3580,"Ġpaixao":3581,"Ġminion":3582,"Ġvitao":3583,"Ġquimica":3584,"condiciona":3585,"Ġ7896013":3586,"230":3587,"54":3588,"Ġsus":3589,"Ġleb":3590,"white":3591,"enoura":3592,"Ġenergy":3593,"Ġsempre":3594,"Ġtampa":3595,"escorre":3596,"fl":3597,"Ġfura":3598,"Ġaxe":3599,"Ġmicelar":3600,"Ġpanasonic":3601,"mt":3602,"Ġcorp":3603,"Ġexce":3604,"Ġdupla":3605,"Ġtubo":3606,"Ġaniversario":3607,"62":3608,"je":3609,"sili":3610,"Ġneo":3611,"gema":3612,"Ġtalhar":3613,"Ġsucral":3614,"Ġ10611":3615,"silicone":3616,"Ġ74":3617,"Ġplasn":3618,"sutia":3619,"Ġgatos":3620,"Ġstraw":3621,"ins":3622,"Ġnas":3623,"tiv":3624,"Ġrel":3625,"Ġmarr":3626,"champ":3627,"Ġmorgado":3628,"protetor":3629,"hon":3630,"rau":3631,"Ġextremo":3632,"Ġult":3633,"chicken":3634,"carola":3635,"Ġcitronela":3636,"02":3637,"Ġran":3638,"Ġmt":3639,"Ġsno":3640,"tac":3641,"Ġbatata":3642,"Ġrio":3643,"cida":3644,"hamburg":3645,"Ġtritec":3646,"Ġextr":3647,"226":3648,"Ġamaz":3649,"salame":3650,"Ġnapolit":3651,"iambre":3652,"Ġescova":3653,"Ġminions":3654,"pr":3655,"Ġae":3656,"Ġinset":3657,"Ġnobre":3658,"biq":3659,"Ġparm":3660,"Ġstevia":3661,"Ġkeldog":3662,"Ġcaipira":3663,"du":3664,"hn":3665,"Ġvono":3666,"Ġalca":3667,"Ġkapo":3668,"mara":3669,"lixo":3670,"orthon":3671,"Ġcoringa":3672,"anapo":3673,"Ġtorrado":3674,"Ġplasnorthon":3675,"58":3676,"Ġpis":3677,"sabor":3678,"bahn":3679,"Ġ008":3680,"udim":3681,"estre":3682,"Ġhellm":3683,"Ġgomes":3684,"cra":3685,"oreg":3686,"Ġtir":3687,"Ġmorang":3688,"Ġcinza":3689,"fgo":3690,"Ġcres":3691,"Ġcza":3692,"Ġfel":3693,"Ġfus":3694,"Ġbaixo":3695,"Ġ020":3696,"Ġuar":3697,"Ġdaneva":3698,"Ġpureza":3699,"Ġarginina":3700,"escorredor":3701,"cream":3702,"Ġ112":3703,"Ġbud":3704,"Ġdente":3705,"Ġtandy":3706,"toal":3707,"liqu":3708,"Ġmococa":3709,"Ġadt":3710,"Ġchamyto":3711,"Ġbrite":3712,"harpic":3713,"Ġcapricche":3714,"dia":3715,"pil":3716,"lact":3717,"iao":3718,"Ġrit":3719,"polvilho":3720,"Ġvermelha":3721,"palmito":3722,"Ġmartiplast":3723,"52":3724,"capp":3725,"Ġge":3726,"Ġroche":3727,"Ġneon":3728,"Ġvera":3729,"suporte":3730,"Ġamora":3731,"Ġprofunda":3732,"gb":3733,"Ġdun":3734,"caps":3735,"Ġgf":3736,"Ġ64":3737,"Ġhamb":3738,"Ġalmofada":3739,"Ġlong":3740,"Ġliquido":3741,"fon":3742,"Ġlimo":3743,"Ġherm":3744,"sache":3745,"Ġbrah":3746,"Ġgury":3747,"Ġduralex":3748,"Ġisot":3749,"coxinha":3750,"fita":3751,"Ġcama":3752,"Ġdelicia":3753,"Ġcalcinha":3754,"Ġluxo":3755,"Ġfarn":3756,"Ġmanchas":3757,"Ġfluor":3758,"Ġexceed":3759,"Ġdeo":3760,"Ġyak":3761,"Ġnova":3762,"1000":3763,"Ġdoyp":3764,"Ġeisenbahn":3765,"isso":3766,"chur":3767,"Ġeq":3768,"Ġalpino":3769,"Ġstar":3770,"Ġpentear":3771,"Ġperoba":3772,"Ġ789601310":3773,"Ġjun":3774,"Ġ2630":3775,"Ġcuid":3776,"neston":3777,"Ġsimona":3778,"Ġumidiliz":3779,"Ġpilao":3780,"Ġbrahma":3781,"sun":3782,"rep":3783,"rema":3784,"alt":3785,"Ġtuc":3786,"sazon":3787,"Ġaluma":3788,"Ġcarinho":3789,"Ġadidas":3790,"antil":3791,"passa":3792,"Ġrelvazon":3793,"Ġalumaza":3794,"79":3795,"mi":3796,"Ġcid":3797,"Ġsena":3798,"Ġlil":3799,"Ġaven":3800,"pelho":3801,"Ġconserva":3802,"Ġgirassol":3803,"coquetel":3804,"Ġmolico":3805,"Ġrepar":3806,"Ġamazonia":3807,"Ġsenador":3808,"folha":3809,"xy":3810,"Ġvin":3811,"Ġlaka":3812,"Ġacerola":3813,"medouro":3814,"Ġcham":3815,"chicl":3816,"vanish":3817,"Ġrochedo":3818,"208":3819,"bow":3820,"Ġpulv":3821,"Ġmelan":3822,"Ġsensitive":3823,"Ġsucralose":3824,"tina":3825,"Ġtode":3826,"Ġverd":3827,"Ġbudwe":3828,"pla":3829,"Ġutil":3830,"Ġoi":3831,"Ġ660":3832,"Ġestamp":3833,"Ġflow":3834,"Ġmaxi":3835,"63":3836,"resco":3837,"Ġseg":3838,"Ġbarba":3839,"Ġvitta":3840,"Ġcottonbaby":3841,"peneira":3842,"71":3843,"fls":3844,"Ġsqueeze":3845,"idor":3846,"Ġyama":3847,"fera":3848,"Ġflat":3849,"Ġvitalin":3850,"ignon":3851,"capa":3852,"etona":3853,"Ġperfeito":3854,"Ġcereale":3855,"213":3856,"Ġiog":3857,"Ġbret":3858,"Ġabo":3859,"char":3860,"ett":3861,"dela":3862,"Ġalgodao":3863,"Ġdover":3864,"Ġquin":3865,"Ġdacolonia":3866,"guardanapo":3867,"Ġhersheys":3868,"Ġbudweis":3869,"ades":3870,"ador":3871,"ugu":3872,"rac":3873,"imento":3874,"Ġ102":3875,"Ġprotecao":3876,"Ġwhe":3877,"Ġtermica":3878,"illy":3879,"Ġpronatus":3880,"colorau":3881,"Ġsauv":3882,"Ġredonda":3883,"bor":3884,"Ġunhas":3885,"gos":3886,"caspa":3887,"Ġintensa":3888,"bloco":3889,"finho":3890,"kitos":3891,"Ġregente":3892,"Ġcostela":3893,"Ġfash":3894,"Ġrodabr":3895,"Ġkodilar":3896,"Ġss":3897,"Ġspe":3898,"Ġair":3899,"Ġ310":3900,"Ġ390":3901,"elim":3902,"Ġvinho":3903,"Ġren":3904,"Ġelast":3905,"Ġalcal":3906,"Ġvidros":3907,"Ġadult":3908,"Ġtonica":3909,"Ġprinc":3910,"tabua":3911,"Ġtirole":3912,"nt":3913,"Ġpat":3914,"Ġsod":3915,"Ġpetit":3916,"Ġmolin":3917,"Ġorganico":3918,"Ġurbana":3919,"ativa":3920,"Ġmio":3921,"guica":3922,"short":3923,"Ġtrio":3924,"mop":3925,"Ġtec":3926,"Ġfati":3927,"preserv":3928,"Ġfeel":3929,"farofa":3930,"370":3931,"Ġsto":3932,"Ġcoqueiro":3933,"Ġincolor":3934,"Ġimed":3935,"inhas":3936,"Ġraca":3937,"Ġmussa":3938,"Ġfarnese":3939,"Ġsimonaggio":3940,"Ġtirolez":3941,"erante":3942,"fri":3943,"pet":3944,"pioca":3945,"dado":3946,"Ġresta":3947,"Ġintenso":3948,"catuaba":3949,"lha":3950,"Ġport":3951,"Ġ109":3952,"Ġfloc":3953,"Ġcompac":3954,"Ġjacker":3955,"hastes":3956,"Ġskarloff":3957,"Ġcartago":3958,"bowl":3959,"Ġbretz":3960,"69":3961,"Ġ*":3962,"Ġpena":3963,"comedouro":3964,"energ":3965,"unch":3966,"Ġvar":3967,"Ġ69":3968,"sobrecoxa":3969,"marsh":3970,"Ġexc":3971,"Ġmicr":3972,"Ġcueca":3973,"almondega":3974,"Ġlowcucar":3975,"010":3976,"ji":3977,"lic":3978,"Ġband":3979,"Ġlua":3980,"para":3981,"Ġpoppy":3982,"dex":3983,"use":3984,"Ġchic":3985,"refrigerante":3986,"Ġpalmeir":3987,"salgadinho":3988,"Ġvegetal":3989,"Ġmanaus":3990,"bule":3991,"bas":3992,"Ġcul":3993,"Ġsop":3994,"rente":3995,"Ġ26265":3996,"grao":3997,"Ġ965":3998,"Ġplen":3999,"Ġcharm":4000,"Ġpele":4001,"Ġtdm":4002,"Ġtarantella":4003,"Ġvittamax":4004,"Ġbudweiser":4005,"bel":4006,"Ġmeia":4007,"ilk":4008,"Ġhero":4009,"gato":4010,"sandu":4011,"Ġadesiva":4012,"378":4013,"exten":4014,"Ġaroma":4015,"mallows":4016,"oregano":4017,"Ġuarini":4018,"Ġsoprano":4019,"emp":4020,"Ġpip":4021,"tare":4022,"Ġunha":4023,"Ġed":4024,"Ġ61":4025,"Ġje":4026,"Ġmarro":4027,"coleira":4028,"Ġfresc":4029,"aromat":4030,"Ġvidrex":4031,"Ġantarct":4032,"Ġsobrem":4033,"ima":4034,"spray":4035,"Ġcur":4036,"repel":4037,"solan":4038,"Ġitatex":4039,"Ġkitty":4040,"lencos":4041,"Ġabsol":4042,"Ġresist":4043,"Ġlisos":4044,"Ġlebre":4045,"Ġaveng":4046,"sk":4047,"Ġder":4048,"etti":4049,"Ġ126":4050,"Ġlavand":4051,"ivo":4052,"Ġacucar":4053,"Ġ11074":4054,"Ġmusculo":4055,"Ġbeautycolor":4056,"cup":4057,"Ġ830":4058,"usse":4059,"Ġcont":4060,"Ġlotus":4061,"Ġtradiciona":4062,"Ġfazenda":4063,"Ġsortida":4064,"Ġritual":4065,"pul":4066,"Ġfei":4067,"abor":4068,"Ġcacho":4069,"omalt":4070,"Ġamb":4071,"Ġmanjericao":4072,"cue":4073,"antilly":4074,"Ġmm":4075,"espelho":4076,"cacarola":4077,"monica":4078,"Ġamarela":4079,"Ġnegresco":4080,"Ġskol":4081,"Ġelectrol":4082,"steak":4083,"Ġnapolitano":4084,"issoba":4085,"Ġcxt":4086,"Ġvul":4087,"Ġuniao":4088,"Ġdecor":4089,"Ġdobon":4090,"Ġarno":4091,"Ġperson":4092,"Ġclar":4093,"key":4094,"trav":4095,"Ġass":4096,"Ġjap":4097,"Ġimedia":4098,"Ġsfera":4099,"reira":4100,"Ġched":4101,"Ġaeros":4102,"Ġbono":4103,"Ġmickey":4104,"Ġ26048":4105,"Ġnutrilon":4106,"Ġgalaxy":4107,"cappuccino":4108,"Ġio":4109,"Ġdom":4110,"Ġhort":4111,"Ġume":4112,"Ġ141":4113,"maxmallows":4114,"Ġgillette":4115,"cloro":4116,"fiambre":4117,"iel":4118,"pre":4119,"Ġei":4120,"rif":4121,"Ġarom":4122,"Ġassolan":4123,"Ġquera":4124,"Ġfamil":4125,"Ġscala":4126,"desodorante":4127,"tt":4128,"Ġfh":4129,"Ġvac":4130,"Ġesm":4131,"Ġrol":4132,"Ġmanti":4133,"mascara":4134,"Ġstand":4135,"Ġpretos":4136,"Ġolivia":4137,"Ġalfazema":4138,"liquid":4139,"ativador":4140,"Ġpalmeiron":4141,"Ġcano":4142,"teira":4143,"Ġxt":4144,"cks":4145,"Ġtalco":4146,"Ġkello":4147,"Ġsandella":4148,"Ġnegro":4149,"Ġdefinidos":4150,"Ġsodio":4151,"700":4152,"Ġsili":4153,"Ġsilv":4154,"Ġqueda":4155,"Ġ26307":4156,"05":4157,"Ġmpa":4158,"cama":4159,"tage":4160,"Ġsoy":4161,"Ġinfantil":4162,"banana":4163,"356":4164,"Ġhalls":4165,"iral":4166,"uda":4167,"Ġmanteiga":4168,"Ġfiona":4169,"bisnaga":4170,"luten":4171,"Ġpeda":4172,"Ġcoro":4173,"Ġfrescor":4174,"Ġmussarela":4175,"omaltine":4176,"113":4177,"nho":4178,"pos":4179,"ranha":4180,"Ġalto":4181,"Ġsecar":4182,"Ġ254":4183,"Ġgood":4184,"Ġfofo":4185,"zinho":4186,"inas":4187,"Ġsei":4188,"eri":4189,"ister":4190,"Ġbare":4191,"Ġchopp":4192,"Ġextraord":4193,"Ġ1724":4194,"Ġphil":4195,"Ġgatorade":4196,"Ġbanheiro":4197,"Ġfilh":4198,"revista":4199,"lbb":4200,"sho":4201,"Ġsat":4202,"Ġ225":4203,"ondas":4204,"bate":4205,"pante":4206,"125":4207,"Ġminnie":4208,"Ġsqz":4209,"gts":4210,"Ġsum":4211,"ans":4212,"ania":4213,"Ġdestac":4214,"Ġ26269":4215,"Ġswe":4216,"Ġpants":4217,"ence":4218,"Ġeu":4219,"Ġ72":4220,"Ġ98":4221,"Ġmarm":4222,"esprem":4223,"Ġcebol":4224,"Ġ25431":4225,"924":4226,"cg":4227,"ise":4228,"Ġmach":4229,"Ġmenino":4230,"nyg":4231,"Ġ1764890":4232,"toalh":4233,"cro":4234,"din":4235,"pira":4236,"Ġcint":4237,"Ġstella":4238,"roupa":4239,"Ġou":4240,"Ġescu":4241,"Ġchand":4242,"issimo":4243,"170":4244,"610":4245,"fuba":4246,"vd":4247,"ebra":4248,"chave":4249,"Ġcitri":4250,"Ġpicanha":4251,"Ġorganiz":4252,"Ġpelaggio":4253,"Ġpersonal":4254,"Ġeiri":4255,"Ġkat":4256,"nela":4257,"121":4258,"Ġpeta":4259,"canudo":4260,"Ġspic":4261,"Ġ162":4262,"Ġmentos":4263,"Ġtrigolar":4264,"Ġaaa":4265,"Ġjutica":4266,"ris":4267,"Ġ375":4268,"Ġ550":4269,"Ġcope":4270,"Ġneston":4271,"Ġteen":4272,"Ġcasual":4273,"Ġsupr":4274,"Ġshot":4275,"wafer":4276,"Ġurca":4277,"Ġglicerina":4278,"pastilha":4279,"Ġcorote":4280,"pom":4281,"sado":4282,"ivel":4283,"Ġ196":4284,"Ġretang":4285,"Ġsucrilhos":4286,"Ġvulcano":4287,"gi":4288,"ova":4289,"off":4290,"cador":4291,"ilux":4292,"els":4293,"Ġcry":4294,"Ġvila":4295,"Ġviole":4296,"Ġlavan":4297,"canjica":4298,"Ġprimafer":4299,"Ġdiamante":4300,"Ġjardins":4301,"Ġaerosol":4302,"cremo":4303,"xpe":4304,"Ġfut":4305,"Ġftas":4306,"Ġklip":4307,"ampola":4308,"colar":4309,"Ġantib":4310,"Ġcheirinho":4311,"extensao":4312,"Ġcoperal":4313,"Ġand":4314,"Ġdra":4315,"cab":4316,"tam":4317,"ast":4318,"Ġsapolio":4319,"Ġgoma":4320,"Ġshake":4321,"Ġcharme":4322,"Ġpratice":4323,"Ġschin":4324,"Ġsalton":4325,"Ġprud":4326,"Ġespiral":4327,"Ġaction":4328,"Ġaniver":4329,"Ġpanela":4330,"berry":4331,"Ġond":4332,"Ġfleischmann":4333,"Ġfug":4334,"Ġavulso":4335,"Ġneopan":4336,"Ġ111":4337,"Ġbut":4338,"unha":4339,"utor":4340,"Ġwave":4341,"Ġcaber":4342,"Ġanticaspa":4343,"Ġsupersec":4344,"Ġplat":4345,"Ġpotes":4346,"Ġabas":4347,"Ġsele":4348,"Ġyakissoba":4349,"Ġ10932":4350,"Ġelectrolux":4351,"Ġmantiqueira":4352,"mul":4353,"teri":4354,"Ġ215":4355,"Ġlu":4356,"Ġmamao":4357,"Ġ2575":4358,"Ġpettiz":4359,"chao":4360,"Ġestilo":4361,"Ġradiante":4362,"Ġcasting":4363,"Ġaleg":4364,"ovac":4365,"Ġcryst":4366,"Ġfugini":4367,"82":4368,"93":4369,"ibo":4370,"op":4371,"Ġus":4372,"onna":4373,"cada":4374,"Ġgarrafa":4375,"Ġcaja":4376,"Ġrolha":4377,"Ġpala":4378,"Ġpressao":4379,"Ġtempero":4380,"Ġ10594":4381,"telo":4382,"Ġ59":4383,"Ġpoo":4384,"Ġ970":4385,"Ġnext":4386,"Ġ156":4387,"cmx":4388,"Ġsemi":4389,"Ġeasywhite":4390,"Ġrayovac":4391,"Ġcharming":4392,"Ġfeijao":4393,"Ġprudence":4394,"53":4395,"cus":4396,"rs":4397,"wn":4398,"Ġsinha":4399,"Ġdp":4400,"Ġagu":4401,"Ġamac":4402,"Ġori":4403,"lante":4404,"Ġglitter":4405,"Ġtrendy":4406,"mic":4407,"Ġspa":4408,"Ġ52":4409,"mam":4410,"bacon":4411,"ilhou":4412,"icos":4413,"Ġbiqu":4414,"Ġharibo":4415,"Ġ789600370":4416,"Ġstrawplast":4417,"Ġdunorte":4418,"Ġsweet":4419,"bona":4420,"dar":4421,"por":4422,"Ġ&":4423,"Ġlub":4424,"eita":4425,"desent":4426,"Ġroman":4427,"Ġtoffe":4428,"Ġcheiro":4429,"Ġrecheio":4430,"Ġbarilla":4431,"Ġcapili":4432,"sens":4433,"Ġmarinex":4434,"Ġdiver":4435,"Ġbarbecue":4436,"ges":4437,"Ġunico":4438,"Ġeg":4439,"Ġob":4440,"Ġcris":4441,"Ġchal":4442,"inoa":4443,"isseptico":4444,"Ġavengers":4445,"fs":4446,"rad":4447,"tein":4448,"olf":4449,"Ġgam":4450,"mada":4451,"Ġdepil":4452,"Ġmousse":4453,"Ġyor":4454,"Ġbrand":4455,"Ġcomposto":4456,"bifinho":4457,"Ġsecret":4458,"Ġtodecacho":4459,"Ġbretzke":4460,"Ġxtreme":4461,"Ġcoperalcool":4462,"Ġcel":4463,"Ġfolha":4464,"Ġ258":4465,"Ġbore":4466,"Ġbranc":4467,"Ġmortein":4468,"oriza":4469,"Ġlumin":4470,"Ġjunior":4471,"Ġplenit":4472,"Ġerv":4473,"Ġcrim":4474,"Ġsr":4475,"Ġnorte":4476,"ilum":4477,"lot":4478,"Ġ107":4479,"Ġnuts":4480,"Ġtranqu":4481,"Ġcompleta":4482,"88":4483,"espat":4484,"Ġlta":4485,"Ġmulticereais":4486,"Ġwhit":4487,"Ġnutrilar":4488,"Ġqueen":4489,"Ġ26026":4490,"saladeira":4491,"Ġsoluv":4492,"Ġeirilar":4493,"lux":4494,"Ġmalte":4495,"mpo":4496,"assen":4497,"pato":4498,"Ġkero":4499,"Ġtemas":4500,"Ġbarla":4501,"calc":4502,"Ġclic":4503,"Ġfdf":4504,"Ġamendoa":4505,"Ġ25662":4506,"Ġsantista":4507,"prendedor":4508,"ones":4509,"eli":4510,"Ġsalsa":4511,"Ġeconomica":4512,"Ġfreez":4513,"Ġfleury":4514,"nuggets":4515,"Ġcrystal":4516,"Ġboreda":4517,"Ġmu":4518,"Ġsti":4519,"Ġsve":4520,"esch":4521,"Ġareia":4522,"Ġariel":4523,"raty":4524,"granulado":4525,"Ġguaran":4526,"Ġnude":4527,"pantene":4528,"130":4529,"270":4530,"berm":4531,"geno":4532,"Ġ67":4533,"Ġroma":4534,"Ġconcor":4535,"Ġlimpa":4536,"Ġbigen":4537,"Ġpisos":4538,"Ġpica":4539,"Ġber":4540,"tes":4541,"Ġ580":4542,"Ġlibe":4543,"quil":4544,"Ġ04":4545,"Ġbodega":4546,"Ġnaturally":4547,"linguica":4548,"champignon":4549,"Ġcidreira":4550,"Ġbrandini":4551,"dan":4552,"pinho":4553,"Ġnin":4554,"illi":4555,"Ġville":4556,"Ġmaped":4557,"deal":4558,"Ġdiabo":4559,"idade":4560,"Ġjohn":4561,"Ġflorestal":4562,"Ġherbal":4563,"Ġcompleto":4564,"multi":4565,"Ġpalatare":4566,"ainf":4567,"uf":4568,"Ġbos":4569,"eros":4570,"Ġven":4571,"Ġpock":4572,"bat":4573,"umb":4574,"Ġform":4575,"Ġcorpus":4576,"Ġbege":4577,"whiskas":4578,"Ġpratsy":4579,"Ġdark":4580,"nier":4581,"filezinho":4582,"Ġkera":4583,"Ġwomen":4584,"Ġpepsi":4585,"08":4586,"lol":4587,"Ġblo":4588,"Ġvel":4589,"ferro":4590,"Ġmatinal":4591,"Ġprestob":4592,"espumante":4593,"Ġsnow":4594,"ilhouette":4595,"96":4596,"Ġnos":4597,"dora":4598,"Ġ63":4599,"Ġwolf":4600,"Ġqueij":4601,"Ġtrit":4602,"Ġteens":4603,"Ġ2318":4604,"tonico":4605,"escov":4606,"Ġvirgem":4607,"Ġfilhot":4608,"graos":4609,"282":4610,"Ġrestaura":4611,"aguard":4612,"keira":4613,"Ġrepel":4614,"Ġ26113":4615,"Ġcapim":4616,"enada":4617,"Ġprim":4618,"Ġoxigenada":4619,"Ġbaton":4620,"Ġantibact":4621,"trigo":4622,"Ġtalharim":4623,"yd":4624,"ĠĠ":4625,"Ġcre":4626,"Ġaut":4627,"cebol":4628,"Ġsaq":4629,"Ġmoda":4630,"Ġtriun":4631,"lts":4632,"Ġdays":4633,"Ġmasca":4634,"Ġhigi":4635,"grelha":4636,"Ġmagia":4637,"Ġgeria":4638,"coador":4639,"Ġreconstr":4640,"Ġfhesch":4641,"bermuda":4642,"Ġfheschmann":4643,"bc":4644,"Ġ195":4645,"ticida":4646,"ombo":4647,"Ġ97":4648,"gue":4649,"Ġnatum":4650,"Ġqdel":4651,"Ġcabeca":4652,"Ġcord":4653,"prati":4654,"Ġprotect":4655,"Ġpolen":4656,"Ġcerej":4657,"Ġenx":4658,"Ġboldo":4659,"Ġmeio":4660,"Ġrecheado":4661,"uguita":4662,"Ġjeans":4663,"Ġden":4664,"Ġaranha":4665,"tad":4666,"tamil":4667,"Ġaliv":4668,"Ġcremos":4669,"Ġdakar":4670,"Ġtosc":4671,"marshmallow":4672,"Ġcm":4673,"cob":4674,"coracao":4675,"Ġds":4676,"ilin":4677,"acho":4678,"Ġinfan":4679,"Ġdeso":4680,"Ġjoca":4681,"gurt":4682,"Ġtwist":4683,"Ġ7622210":4684,"Ġ25868":4685,"81":4686,"Ġctamp":4687,"Ġslact":4688,"Ġacon":4689,"Ġacr":4690,"Ġ99":4691,"Ġ123":4692,"Ġmoco":4693,"Ġcherry":4694,"seda":4695,"Ġadut":4696,"Ġdanette":4697,"Ġabac":4698,"renz":4699,"Ġbravo":4700,"Ġvisc":4701,"Ġpontas":4702,"Ġbuque":4703,"buoy":4704,"ction":4705,"Ġlol":4706,"Ġfand":4707,"Ġvas":4708,"Ġ49":4709,"Ġcoracao":4710,"Ġcolle":4711,"Ġ06":4712,"cortina":4713,"heres":4714,"flocos":4715,"Ġtuba":4716,"Ġcheddar":4717,"Ġcabern":4718,"51":4719,"ttan":4720,"Ġilum":4721,"Ġcf":4722,"tain":4723,"Ġinc":4724,"upi":4725,"Ġazeite":4726,"Ġmondi":4727,"Ġfemin":4728,"Ġsensa":4729,"Ġbeuty":4730,"Ġglos":4731,"Ġpredile":4732,"Ġlumino":4733,"Ġcanola":4734,"cremogema":4735,"flor":4736,"Ġfaro":4737,"Ġativo":4738,"unia":4739,"Ġsed":4740,"Ġcrunch":4741,"fect":4742,"Ġpetunia":4743,"Ġrig":4744,"Ġprimor":4745,"Ġbelvita":4746,"Ġtranquilo":4747,"bco":4748,"kbl":4749,"Ġ87":4750,"Ġpapa":4751,"Ġrattan":4752,"queta":4753,"Ġpequ":4754,"Ġpont":4755,"Ġintensiva":4756,"Ġgermer":4757,"mcg":4758,"pudim":4759,"Ġfios":4760,"Ġdeterg":4761,"127":4762,"fru":4763,"Ġchocola":4764,"Ġbrasa":4765,"Ġaromat":4766,"Ġtriunfo":4767,"83":4768,"cx":4769,"don":4770,"gliter":4771,"ial":4772,"Ġmicos":4773,"Ġnap":4774,"Ġgde":4775,"Ġanim":4776,"Ġcruz":4777,"Ġsalt":4778,"hamburguer":4779,"Ġlifebuoy":4780,"bicar":4781,"flanela":4782,"Ġphytoderm":4783,"Ġdisco":4784,"Ġfio":4785,"Ġtq":4786,"tojo":4787,"Ġlady":4788,"conf":4789,"Ġ25226":4790,"Ġ334":4791,"Ġzul":4792,"frd":4793,"Ġmultilas":4794,"Ġsty":4795,"Ġpaniz":4796,"Ġball":4797,"Ġgarnier":4798,"borracha":4799,"Ġjapones":4800,"Ġnatumilk":4801,"61":4802,"dc":4803,"Ġmucilon":4804,"Ġdtc":4805,"Ġdiversos":4806,"Ġfinal":4807,"Ġtm":4808,"Ġnan":4809,"Ġvo":4810,"Ġ3344":4811,"Ġbomp":4812,"oney":4813,"Ġvitar":4814,"Ġpastil":4815,"natado":4816,"Ġpelagio":4817,"Ġgomets":4818,"Ġmarrom":4819,"cxa":4820,"cura":4821,"crim":4822,"gfa":4823,"mentos":4824,"Ġig":4825,"abri":4826,"tiza":4827,"Ġ95":4828,"Ġdour":4829,"nect":4830,"Ġvern":4831,"Ġlorenz":4832,"gelim":4833,"Ġforta":4834,"Ġperfum":4835,"cereja":4836,"Ġrefresc":4837,"Ġbroto":4838,"Ġsilicone":4839,"culo":4840,"Ġlg":4841,"Ġlen":4842,"Ġ370":4843,"Ġlima":4844,"lash":4845,"Ġodo":4846,"Ġova":4847,"Ġpetra":4848,"esmal":4849,"mega":4850,"Ġplei":4851,"Ġamargo":4852,"Ġscott":4853,"Ġreax":4854,"Ġcaramelo":4855,"Ġspices":4856,"Ġconcordia":4857,"ipan":4858,"Ġpolly":4859,"Ġtub":4860,"Ġgir":4861,"range":4862,"guinho":4863,"Ġ25924":4864,"Ġtria":4865,"icador":4866,"Ġ26263":4867,"Ġessencial":4868,"cig":4869,"hor":4870,"Ġ77":4871,"inador":4872,"Ġmoto":4873,"Ġdesinf":4874,"Ġdescaf":4875,"carga":4876,"saboneteira":4877,"Ġgeriat":4878,"Ġitali":4879,"pirador":4880,"desentup":4881,",\"":4882,"dis":4883,"Ġit":4884,"005":4885,"maia":4886,"gada":4887,"hock":4888,"Ġdob":4889,"acetona":4890,"fill":4891,"issant":4892,"Ġshamp":4893,"Ġlinhaca":4894,"Ġpolenghi":4895,"Ġmioran":4896,"achocola":4897,"Ġps":4898,"Ġsilhouette":4899,"reta":4900,"Ġfre":4901,"Ġgosto":4902,"Ġ064":4903,"urado":4904,"Ġsalgado":4905,"Ġrosset":4906,"Ġmeus":4907,"Ġpoli":4908,"Ġbolso":4909,"Ġonda":4910,"Ġkolene":4911,"Ġtortuguita":4912,"Ġcappucc":4913,"camarao":4914,"Ġtubarao":4915,"090":4916,"hl":4917,"rero":4918,"Ġfis":4919,"Ġnab":4920,"Ġgfa":4921,"cheiro":4922,"2480":4923,"Ġtern":4924,"Ġ7622300":4925,"Ġmelancia":4926,"Ġabove":4927,"86":4928,"ds":4929,"Ġsn":4930,"Ġnatur":4931,"Ġcastelo":4932,"Ġdesodex":4933,"Ġfeminino":4934,"Ġsard":4935,"Ġvia":4936,"dove":4937,"varal":4938,"Ġall":4939,"Ġpagan":4940,"Ġsany":4941,"colis":4942,"saleiro":4943,"249":4944,"Ġcaldo":4945,"Ġdoriana":4946,"Ġprincess":4947,"repelente":4948,"Ġalegria":4949,"Ġgeriatr":4950,"Ġbompack":4951,"Ġpleion":4952,"fre":4953,"scoxa":4954,"Ġcri":4955,"indo":4956,"leene":4957,"Ġcole":4958,"Ġbaden":4959,"Ġplastica":4960,"Ġdesnatado":4961,"Ġ3746":4962,"paozinho":4963,"fervedor":4964,"carro":4965,"removedor":4966,"Ġbelkit":4967,"super":4968,"Ġmultilaser":4969,"leenex":4970,"elas":4971,"Ġcoxa":4972,"dez":4973,"Ġpad":4974,"Ġnesto":4975,"Ġanima":4976,"Ġazulado":4977,"Ġpera":4978,"ings":4979,"Ġsensaco":4980,"Ġmagro":4981,"Ġvermelhas":4982,"Ġsortidos":4983,"Ġsatis":4984,"Ġsummer":4985,"Ġzulu":4986,"Ġternura":4987,"Ġmostarda":4988,"Ġsch":4989,"anado":4990,"Ġfs":4991,"Ġcore":4992,"Ġintimo":4993,"Ġkiss":4994,"Ġ2595":4995,"Ġrivol":4996,"Ġ26282":4997,"Ġmanha":4998,"Ġlacto":4999,"Ġpolida":5000,"Ġtranq":5001,"Ġcpi":5002,"Ġdoritos":5003,"Ġliberado":5004,"ner":5005,"Ġtrel":5006,"Ġkleenex":5007,"Ġideal":5008,"Ġ720":5009,"terna":5010,"arraf":5011,"kito":5012,"Ġmultia":5013,"Ġlaranj":5014,"Ġgelo":5015,"Ġassim":5016,"Ġbutter":5017,"Ġcpires":5018,"Ġcenoura":5019,"Ġmole":5020,"Ġ295":5021,"Ġgt":5022,"dea":5023,"macyd":5024,"Ġbarao":5025,"Ġantia":5026,"noz":5027,"Ġferrero":5028,"Ġtudo":5029,"Ġquata":5030,"Ġtilibra":5031,"Ġthree":5032,"Ġaconche":5033,"Ġmondial":5034,"Ġpaganini":5035,"110":5036,"49":5037,"kos":5038,"real":5039,"Ġbalan":5040,"Ġutim":5041,"Ġclaros":5042,"Ġexcel":5043,"Ġ789610":5044,"Ġelege":5045,"Ġnugg":5046,"Ġvai":5047,"smartphone":5048,"organiz":5049,"Ġfusilli":5050,"Ġpanizzon":5051,"Ġutimil":5052,"47":5053,"800":5054,"alo":5055,"Ġduro":5056,"Ġgliter":5057,"Ġmata":5058,"sacola":5059,"Ġana":5060,"Ġchil":5061,"Ġdescar":5062,"Ġsanitario":5063,"minas":5064,"Ġfuratto":5065,"Ġyork":5066,"Ġmioranza":5067,"sia":5068,"tefon":5069,"ensado":5070,"touca":5071,"sapolio":5072,"Ġkick":5073,"ucu":5074,"Ġzer":5075,"Ġcampestre":5076,"Ġagul":5077,"840":5078,"Ġsco":5079,"rez":5080,"Ġgib":5081,"Ġomega":5082,"Ġsek":5083,"Ġneu":5084,"Ġdesmaia":5085,"rosca":5086,"Ġ145":5087,"Ġbiohair":5088,"Ġjasmin":5089,"Ġmuss":5090,"Ġsorvete":5091,"Ġchef":5092,"Ġluminos":5093,"Ġmallor":5094,"geng":5095,"vm":5096,"Ġstd":5097,"Ġlirio":5098,"Ġemo":5099,"Ġevol":5100,"kibe":5101,"Ġcaspa":5102,"Ġpratica":5103,"lust":5104,"Ġhelena":5105,"Ġcalcinhas":5106,"Ġradiantes":5107,"Ġluminous":5108,"Ġrivoli":5109,"gl":5110,"sem":5111,"yn":5112,"Ġfuz":5113,"ity":5114,"licor":5115,"Ġcarvao":5116,"Ġamido":5117,"soft":5118,"izz":5119,"Ġdesama":5120,"901":5121,"Ġpirakids":5122,"Ġbiocare":5123,"Ġbast":5124,"Ġbetan":5125,"Ġmandioca":5126,"Ġquadrado":5127,"pincel":5128,"Ġqdelicia":5129,"Ġmocoto":5130,"Ġmallory":5131,"225":5132,"ines":5133,"Ġfile":5134,"Ġtorta":5135,"Ġgri":5136,"Ġcao":5137,"Ġlatex":5138,"ustica":5139,"Ġalves":5140,"kita":5141,"Ġmendez":5142,"head":5143,"Ġgrings":5144,"Ġalisena":5145,"Ġvenus":5146,"360":5147,"fun":5148,"fac":5149,"Ġcandy":5150,"orin":5151,"Ġcost":5152,"Ġcac":5153,"quebra":5154,"Ġmotor":5155,"Ġprocachos":5156,"Ġsoya":5157,"Ġnegra":5158,"Ġlimpano":5159,"Ġcory":5160,"relvazon":5161,"Ġwheels":5162,"Ġsobremesa":5163,"Ġumede":5164,"Ġtriturado":5165,"Ġmascavo":5166,"Ġfuze":5167,"btl":5168,"cin":5169,"cta":5170,"Ġmira":5171,"Ġrefei":5172,"ight":5173,"umid":5174,"refil":5175,"Ġfruti":5176,"Ġzor":5177,"Ġsabonete":5178,"Ġadesivo":5179,"Ġwhiten":5180,"Ġpull":5181,"Ġacril":5182,"Ġverniz":5183,"Ġ06466":5184,"Ġsensacoes":5185,"mia":5186,"yam":5187,"Ġporta":5188,"000":5189,"anga":5190,"isabor":5191,"rog":5192,"elia":5193,"doso":5194,"Ġpaco":5195,"Ġsofruta":5196,"colom":5197,"traves":5198,"drg":5199,"Ġgrill":5200,"Ġmikitos":5201,"Ġcomplete":5202,"Ġ25122":5203,"espatula":5204,"cebolinha":5205,"Ġpu":5206,"ester":5207,"orig":5208,"rica":5209,"gatos":5210,"Ġzin":5211,"Ġcasca":5212,"Ġscloro":5213,"Ġbeat":5214,"fv":5215,"mand":5216,"Ġ113":5217,"Ġty":5218,"veg":5219,"Ġ980":5220,"cem":5221,"Ġdohl":5222,"Ġneck":5223,"Ġzig":5224,"Ġlove":5225,"calha":5226,"Ġgolden":5227,"Ġaptamil":5228,"Ġrefres":5229,"Ġcroissant":5230,"Ġfood":5231,"Ġherme":5232,"Ġdecorada":5233,"organizador":5234,"Ġdohler":5235,"morta":5236,"peito":5237,"Ġort":5238,"inse":5239,"angos":5240,"Ġ79":5241,"Ġ1250":5242,"Ġconcha":5243,"Ġbau":5244,"Ġamanteig":5245,"Ġsanilux":5246,"shakeira":5247,"Ġlooney":5248,"Ġmultigraos":5249,"Ġclay":5250,"Ġgranola":5251,"Ġgreen":5252,"Ġcaneca":5253,"Ġtalher":5254,"Ġherbis":5255,"exc":5256,"22460":5257,"Ġmicrofibra":5258,"Ġgiby":5259,"travessa":5260,"mortadela":5261,"areia":5262,"club":5263,"ep":5264,"linha":5265,"Ġcn":5266,"erge":5267,"Ġlpes":5268,"Ġgul":5269,"Ġ410":5270,"Ġrefo":5271,"Ġmari":5272,"Ġchocol":5273,"apon":5274,"carvao":5275,"Ġlightner":5276,"banho":5277,"lesh":5278,"Ġface":5279,"Ġmdm":5280,"Ġpodero":5281,"charque":5282,"Ġrenda":5283,"Ġunicor":5284,"calhau":5285,"sus":5286,"vh":5287,"raft":5288,"Ġ117":5289,"cou":5290,"Ġbree":5291,"Ġtun":5292,"Ġorange":5293,"upy":5294,"azl":5295,"Ġ000":5296,"Ġ2335":5297,"Ġnaval":5298,"Ġjac":5299,"tenys":5300,"Ġfructis":5301,"Ġsauda":5302,"Ġhello":5303,"Ġlegal":5304,"Ġretangular":5305,"Ġpassarinho":5306,"Ġrestauracao":5307,"hol":5308,"nissin":5309,"teiro":5310,"Ġdonna":5311,"Ġfon":5312,"Ġnao":5313,"Ġuni":5314,"ides":5315,"Ġdevas":5316,"Ġrob":5317,"Ġcera":5318,"cuz":5319,"food":5320,"Ġcless":5321,"Ġsuperbom":5322,"Ġestar":5323,"Ġ789840":5324,"phone":5325,"Ġfoco":5326,"Ġfamily":5327,"Ġtreloso":5328,"Ġantiade":5329,"211":5330,"cza":5331,"iche":5332,"elle":5333,"down":5334,"Ġmaion":5335,"guia":5336,"Ġmora":5337,"icat":5338,"Ġbou":5339,"quete":5340,"Ġ1500":5341,"Ġ26121":5342,"Ġforce":5343,"2237":5344,"Ġtriplo":5345,"197":5346,"Ġfogao":5347,"milnutri":5348,"Ġfiren":5349,"Ġrevital":5350,"Ġsauvig":5351,"Ġfatiado":5352,"Ġromance":5353,"Ġpocket":5354,"09064":5355,"Ġclaybom":5356,"160":5357,"garraf":5358,"hf":5359,"Ġfir":5360,"Ġnv":5361,"Ġrecem":5362,"Ġunica":5363,"Ġpets":5364,"Ġazulim":5365,"Ġcerat":5366,"corn":5367,"Ġdias":5368,"Ġembal":5369,"Ġconcentrado":5370,"Ġprincip":5371,"Ġgloss":5372,"Ġrefeicao":5373,"Ġfirenze":5374,"214":5375,"340":5376,"ks":5377,"ov":5378,"Ġly":5379,"Ġcoral":5380,"morango":5381,"Ġsadio":5382,"Ġprimo":5383,"Ġ1924":5384,"Ġ4140":5385,"icleta":5386,"bicicleta":5387,"vor":5388,"inario":5389,"Ġbt":5390,"taz":5391,"Ġrefr":5392,"Ġconnect":5393,"Ġtoast":5394,"Ġcarro":5395,"Ġclarif":5396,"Ġrosquinha":5397,"Ġflane":5398,"Ġqueens":5399,"Ġponta":5400,"Ġdivella":5401,"Ġmerlot":5402,"eliminador":5403,"Ġfandangos":5404,"Ġaconchego":5405,"Ġqueensberry":5406,"cina":5407,"ali":5408,"asa":5409,"Ġefeito":5410,"Ġtek":5411,"desinfet":5412,"Ġextreme":5413,"Ġgrad":5414,"Ġsilic":5415,"Ġparis":5416,"Ġpetybon":5417,"Ġtwix":5418,"grip":5419,"pia":5420,"var":5421,"Ġfib":5422,"Ġtl":5423,"Ġnume":5424,"upo":5425,"libri":5426,"Ġtratam":5427,"Ġtriang":5428,"Ġvip":5429,"Ġflore":5430,"Ġdesid":5431,"Ġsukita":5432,"Ġshow":5433,"Ġalad":5434,"Ġstevita":5435,"Ġppip":5436,"marati":5437,"Ġpedacos":5438,"assento":5439,"Ġqueijos":5440,"Ġceratti":5441,"91":5442,"Ġdin":5443,"Ġvem":5444,"etto":5445,"quet":5446,"Ġkisabor":5447,"Ġir":5448,"Ġsegre":5449,"Ġ104":5450,"fron":5451,"132":5452,"Ġmascar":5453,"Ġcondensado":5454,"Ġacop":5455,"Ġurban":5456,"Ġreserva":5457,"Ġbamboo":5458,"Ġcinti":5459,"tinta":5460,"Ġmelam":5461,"Ġadocyl":5462,"Ġfashion":5463,"eritivo":5464,"Ġhigien":5465,"Ġtunes":5466,"Ġprincipio":5467,"Ġaladdin":5468,"cur":5469,"nat":5470,"risque":5471,"verm":5472,"Ġpinh":5473,"Ġlr":5474,"tido":5475,"quinoa":5476,"Ġ40000":5477,"Ġpern":5478,"sula":5479,"polp":5480,"ibre":5481,"Ġmacada":5482,"Ġ185":5483,"Ġturmal":5484,"Ġphila":5485,"Ġhidratante":5486,"Ġhydra":5487,"Ġviscont":5488,"Ġricota":5489,"Ġcontrole":5490,"Ġnaps":5491,"achocolatado":5492,"Ġrossets":5493,"Ġbetanin":5494,"fronha":5495,"390":5496,"acaf":5497,"ss":5498,"Ġ135":5499,"Ġfls":5500,"Ġflesh":5501,"Ġturi":5502,"env":5503,"Ġreno":5504,"Ġrequei":5505,"god":5506,"Ġ81":5507,"Ġvert":5508,"Ġ249":5509,"Ġsuina":5510,"Ġabacate":5511,"nescau":5512,"20764":5513,"Ġrubi":5514,"Ġdesnat":5515,"mordedor":5516,"Ġbelagua":5517,"Ġovinha":5518,"Ġsnick":5519,"Ġbalance":5520,"Ġdevassa":5521,"acafrao":5522,"Ġturim":5523,"ave":5524,"cumb":5525,"lli":5526,"Ġbs":5527,"aspirador":5528,"chi":5529,"Ġrez":5530,"Ġmaos":5531,"Ġop":5532,"Ġbarata":5533,"guara":5534,"Ġsalmao":5535,"Ġday":5536,"Ġgrap":5537,"procachos":5538,"Ġbuono":5539,"Ġsandw":5540,"shoul":5541,"Ġmultiacao":5542,"Ġbreeze":5543,"212":5544,"muriel":5545,"sten":5546,"Ġer":5547,"cado":5548,"mado":5549,"Ġrela":5550,"Ġ613":5551,"entilha":5552,"Ġjolly":5553,"Ġjabo":5554,"gador":5555,"Ġescolar":5556,"Ġchia":5557,"colchao":5558,"Ġrai":5559,"Ġraris":5560,"Ġcremosa":5561,"friskies":5562,"Ġitamarati":5563,"Ġdireto":5564,"Ġ374":5565,"Ġturbo":5566,"Ġblueb":5567,"colorante":5568,"barba":5569,"Ġeqlibri":5570,"Ġvinil":5571,"Ġflowpack":5572,"Ġabsolut":5573,"Ġescureto":5574,"Ġbloco":5575,"Ġodores":5576,"Ġfisher":5577,"Ġ25956":5578,"Ġpullman":5579,"apontador":5580,"Ġcintilante":5581,"cenoura":5582,"pei":5583,"yok":5584,"erf":5585,"Ġtpa":5586,"Ġtupy":5587,"isc":5588,"mag":5589,"Ġcob":5590,"Ġequil":5591,"Ġos":5592,"soda":5593,"Ġsabao":5594,"less":5595,"Ġshoyo":5596,"Ġbalde":5597,"Ġsanifect":5598,"Ġvapor":5599,"Ġnobrelli":5600,"Ġhamburguer":5601,"Ġphilco":5602,"opu":5603,"bonato":5604,"aguardente":5605,"origem":5606,"Ġpoderosa":5607,"ek":5608,"hd":5609,"inder":5610,"almo":5611,"Ġdus":5612,"Ġgluten":5613,"toys":5614,"Ġcru":5615,"Ġsoda":5616,"Ġgoias":5617,"noff":5618,"endedor":5619,"Ġoliver":5620,"conserva":5621,"cravo":5622,"Ġ10738":5623,"Ġcnz":5624,"Ġmacadamia":5625,"Ġsnickers":5626,"cumbuca":5627,"lentilha":5628,"Ġmsc":5629,"arr":5630,"Ġdagua":5631,"Ġtul":5632,"oli":5633,"Ġ530":5634,"ric":5635,"Ġhor":5636,"Ġverb":5637,"Ġbrut":5638,"245":5639,"Ġdiaria":5640,"remov":5641,"239":5642,"729":5643,"Ġpcs":5644,"Ġfilhotes":5645,"Ġfluo":5646,"Ġmentol":5647,"Ġmenthol":5648,"Ġbacfree":5649,"bicarbonato":5650,"Ġlactose":5651,"Ġzinco":5652,"Ġhermetico":5653,"115":5654,"280":5655,"ies":5656,"ucho":5657,"uxi":5658,"faqueiro":5659,"shake":5660,"Ġitama":5661,"geladinho":5662,"fogao":5663,"Ġmeta":5664,"frutti":5665,"Ġmatte":5666,"Ġfinn":5667,"Ġsensit":5668,"Ġsuavipan":5669,"Ġpelos":5670,"Ġreceita":5671,"Ġvitaminada":5672,"Ġperola":5673,"Ġtucuxi":5674,"Ġplenitud":5675,"Ġpapaguara":5676,"Ġluminosos":5677,"ftal":5678,"Ġclo":5679,"Ġcli":5680,"Ġmist":5681,"Ġdil":5682,"ental":5683,"odyne":5684,"Ġpap":5685,"Ġleo":5686,"Ġprotek":5687,"Ġmeul":5688,"Ġbasc":5689,"Ġheine":5690,"Ġtotalplast":5691,"cls":5692,"Ġglamo":5693,"capsula":5694,"Ġcloseup":5695,"Ġ05320":5696,"Ġuniver":5697,"Ġhidrocau":5698,"Ġsanifill":5699,"Ġprolong":5700,"Ġspag":5701,"Ġstyle":5702,"513":5703,"Ġccabo":5704,"pacoca":5705,"Ġwick":5706,"Ġracas":5707,"Ġ155":5708,"Ġlimpp":5709,"ratus":5710,"Ġverao":5711,"Ġextratus":5712,"Ġgrand":5713,"ubbal":5714,"Ġfiltro":5715,"Ġdoro":5716,"Ġalcalina":5717,"Ġseivas":5718,"bateria":5719,"cuscuz":5720,"Ġtoffees":5721,"Ġheineken":5722,"ubbaloo":5723,"gx":5724,"ung":5725,"Ġcoq":5726,"Ġarro":5727,"Ġrda":5728,"Ġvigo":5729,"Ġrac":5730,"Ġmultiervas":5731,"juda":5732,"Ġexpres":5733,"banqueta":5734,"Ġhimala":5735,"Ġcanudo":5736,"Ġriclan":5737,"Ġlindt":5738,"odoriz":5739,"Ġherois":5740,"Ġfutur":5741,"aj":5742,"cla":5743,"Ġucu":5744,"Ġaqu":5745,"Ġmatiza":5746,"Ġoil":5747,"ress":5748,"face":5749,"Ġlook":5750,"Ġinteiro":5751,"Ġspr":5752,"Ġvantage":5753,"Ġframb":5754,"Ġkarsten":5755,"Ġnotur":5756,"Ġovomaltine":5757,"Ġpetala":5758,"Ġfreezer":5759,"almofada":5760,"Ġdusul":5761,"Ġglamour":5762,"Ġuniversal":5763,"020":5764,"zola":5765,"Ġmalha":5766,"rever":5767,"Ġbone":5768,"art":5769,"estojo":5770,"Ġ58":5771,"Ġxad":5772,"Ġaris":5773,"new":5774,"Ġchantilly":5775,"Ġbovina":5776,"Ġcoru":5777,"Ġurso":5778,"abaca":5779,"Ġcoceira":5780,"Ġdentes":5781,"Ġstock":5782,"sanduiche":5783,"Ġkellog":5784,"orizado":5785,"Ġchocolatto":5786,"Ġrequeijao":5787,"Ġblueberry":5788,"av":5789,"crema":5790,"Ġgut":5791,"Ġvf":5792,"Ġcobert":5793,"Ġmartin":5794,"Ġorqui":5795,"luvas":5796,"Ġclick":5797,"Ġpremi":5798,"ificador":5799,"Ġcopobr":5800,"isqueti":5801,"Ġpilot":5802,"Ġfazendinh":5803,"Ġlongo":5804,"Ġ2936":5805,"Ġporc":5806,"Ġpratik":5807,"Ġnugget":5808,"Ġfuturinhos":5809,"09":5810,"kat":5811,"pip":5812,"Ġcen":5813,"Ġben":5814,"essen":5815,"Ġtnt":5816,"Ġativa":5817,"Ġvr":5818,"Ġotimo":5819,"zam":5820,"Ġqd":5821,"Ġ07":5822,"Ġbotan":5823,"Ġcremo":5824,"olog":5825,"issi":5826,"Ġgranel":5827,"Ġpolvilho":5828,"Ġnaturals":5829,"Ġcaninha":5830,"Ġtalheres":5831,"Ġtaca":5832,"Ġbella":5833,"Ġposs":5834,"Ġbarbear":5835,"Ġmarron":5836,"Ġdermacyd":5837,"Ġigel":5838,"Ġbeij":5839,"alcap":5840,"Ġfig":5841,"Ġti":5842,"roondas":5843,"tida":5844,"Ġpolar":5845,"Ġkais":5846,"Ġsupra":5847,"247":5848,"Ġdajuda":5849,"corda":5850,"aleta":5851,"Ġvirg":5852,"Ġelegan":5853,"nivea":5854,"Ġavulsa":5855,"Ġzaeli":5856,"Ġpintad":5857,"Ġesmalte":5858,"Ġkaiser":5859,"cio":5860,"mr":5861,"mos":5862,"Ġcut":5863,"Ġsf":5864,"redo":5865,"Ġtac":5866,"Ġ510":5867,"Ġgig":5868,"Ġlager":5869,"concha":5870,"liq":5871,"Ġrc":5872,"Ġquer":5873,"Ġbron":5874,"Ġlocao":5875,"Ġpep":5876,"Ġbiocrema":5877,"ffus":5878,"Ġfreetaz":5879,"Ġprestobarba":5880,"Ġtarant":5881,"tlc":5882,"Ġbicho":5883,"Ġgriffus":5884,"Ġmaionese":5885,"Ġrezende":5886,"fone":5887,"tens":5888,"escond":5889,"Ġcoquetel":5890,"conha":5891,"acti":5892,"mouse":5893,"dori":5894,"Ġ26270":5895,"Ġleco":5896,"Ġbian":5897,"Ġ168":5898,"Ġpress":5899,"venti":5900,"pper":5901,"Ġpassas":5902,"niely":5903,"Ġalgas":5904,"Ġ41415":5905,"bolacha":5906,"Ġprincesas":5907,"brocolis":5908,"Ġkerafor":5909,"Ġpredilecta":5910,"Ġanimal":5911,"Ġdesamarela":5912,"Ġitamaraty":5913,"band":5914,"Ġcrip":5915,"Ġmesc":5916,"Ġdenta":5917,"Ġdoll":5918,"Ġ412":5919,"Ġcount":5920,"Ġ2000":5921,"Ġ86":5922,"Ġkara":5923,"Ġour":5924,"cebola":5925,"naftal":5926,"alecrim":5927,"ardi":5928,"Ġpastina":5929,"delph":5930,"blz":5931,"gatorade":5932,"Ġ25759":5933,"semente":5934,"Ġmeuliso":5935,"conhaque":5936,"Ġcrippa":5937,"naftalina":5938,"57":5939,"Ġcinz":5940,"Ġmit":5941,"corante":5942,"este":5943,"Ġapa":5944,"Ġvent":5945,"Ġmazola":5946,"osh":5947,"Ġ630":5948,"Ġrl":5949,"Ġrisca":5950,"Ġcarr":5951,"Ġane":5952,"Ġazu":5953,"Ġ03":5954,"Ġitacolom":5955,"267":5956,"2000":5957,"Ġprice":5958,"izado":5959,"Ġsosal":5960,"Ġ26266":5961,"Ġcpimenta":5962,"Ġferro":5963,"esseiro":5964,"aromatiz":5965,"pessego":5966,"castanha":5967,"Ġspecial":5968,"parador":5969,"sanduich":5970,"inseticida":5971,"Ġhidrocauteri":5972,"Ġhimalaia":5973,"abacaxi":5974,"activia":5975,"cz":5976,"jos":5977,"lv":5978,"suc":5979,"Ġci":5980,"Ġsi":5981,"Ġbg":5982,"Ġfral":5983,"Ġcaixa":5984,"Ġoft":5985,"Ġalfa":5986,"Ġcruso":5987,"Ġsobrecoxa":5988,"Ġsalva":5989,"rosq":5990,"Ġumida":5991,"Ġvitaminas":5992,"Ġ149":5993,"Ġrefinado":5994,"Ġencor":5995,"Ġsilver":5996,"Ġactigen":5997,"Ġpowe":5998,"Ġtru":5999,"Ġborges":6000,"Ġdourado":6001,"Ġtranspa":6002,"Ġitaliano":6003,"Ġdescarta":6004,"facil":6005,"Ġucuuba":6006,"Ġcrusoe":6007,"395":6008,"rsa":6009,"maizena":6010,"absorv":6011,"chantilly":6012,"Ġkro":6013,"Ġoggi":6014,"Ġ71":6015,"Ġcaseira":6016,"Ġmonte":6017,"Ġbranq":6018,"espuma":6019,"Ġsplash":6020,"Ġoetke":6021,"Ġimpac":6022,"Ġmagica":6023,"Ġfaixa":6024,"Ġbisn":6025,"Ġisopor":6026,"Ġmasterfood":6027,"fiar":6028,"Ġembalixo":6029,"ventilador":6030,"fanta":6031,"gold":6032,"Ġcy":6033,"coes":6034,"Ġgole":6035,"rite":6036,"tif":6037,"Ġcoraco":6038,"Ġinti":6039,"inada":6040,"Ġchok":6041,"Ġnutren":6042,"Ġmorban":6043,"185":6044,"Ġlamin":6045,"Ġparme":6046,"Ġbald":6047,"conjunto":6048,"Ġpelag":6049,"Ġctp":6050,"Ġindia":6051,"Ġlanche":6052,"Ġserig":6053,"Ġrodabril":6054,"empanado":6055,"Ġviagem":6056,"elastico":6057,"Ġzorba":6058,"Ġclarify":6059,"23966":6060,"Ġkeraforce":6061,"sanduicheira":6062,"crem":6063,"Ġis":6064,"Ġpura":6065,"Ġ440":6066,"Ġrest":6067,"pepino":6068,"neta":6069,"Ġpetisco":6070,"Ġsanr":6071,"aox":6072,"tana":6073,"Ġath":6074,"Ġcpim":6075,"Ġurbano":6076,"pulver":6077,"Ġcordeiro":6078,"Ġmoleque":6079,"Ġkicks":6080,"Ġpernil":6081,"Ġverbena":6082,"essencia":6083,"Ġitacolomy":6084,"hal":6085,"Ġplan":6086,"Ġmold":6087,"alca":6088,"Ġfg":6089,"mais":6090,"tix":6091,"Ġconch":6092,"Ġtov":6093,"Ġcarros":6094,"Ġypioca":6095,"ggs":6096,"Ġ001":6097,"rashock":6098,"Ġ26264":6099,"Ġsensodyne":6100,"Ġ11132":6101,"giana":6102,"Ġstick":6103,"halls":6104,"heira":6105,"ron":6106,"simo":6107,"torta":6108,"whe":6109,"ralador":6110,"rena":6111,"Ġativ":6112,"Ġ82":6113,"Ġnatura":6114,"Ġchick":6115,"Ġud":6116,"Ġmanj":6117,"Ġdesf":6118,"Ġdesod":6119,"Ġprotec":6120,"Ġgalio":6121,"Ġmagico":6122,"Ġslip":6123,"Ġdurasol":6124,"Ġrecons":6125,"Ġbalsa":6126,"Ġbulb":6127,"Ġdelicias":6128,"Ġrancheiro":6129,"Ġwhitening":6130,"Ġsaudavel":6131,"Ġflanelado":6132,"Ġphiladelph":6133,"Ġjaboran":6134,"Ġraiol":6135,"tte":6136,"Ġmx":6137,"tesoura":6138,"Ġmaiz":6139,"Ġ83":6140,"Ġipa":6141,"Ġgot":6142,"Ġterrano":6143,"Ġenla":6144,"Ġfrances":6145,"Ġpronta":6146,"Ġhydr":6147,"Ġmiolo":6148,"Ġvaca":6149,"Ġcanelada":6150,"Ġcuecas":6151,"Ġ17648908":6152,"Ġusb":6153,"Ġanimados":6154,"Ġherbissimo":6155,"Ġbuonogel":6156,"alcaparra":6157,"cido":6158,"tort":6159,"Ġcria":6160,"Ġsle":6161,"Ġdux":6162,"Ġlei":6163,"toma":6164,"rant":6165,"quinho":6166,"bak":6167,"liv":6168,"Ġpepper":6169,"antisseptico":6170,"Ġ167":6171,"Ġbomb":6172,"Ġhigh":6173,"caderneta":6174,"Ġ385":6175,"Ġ397":6176,"Ġsecante":6177,"Ġsecreta":6178,"Ġjumbito":6179,"Ġsamsung":6180,"Ġamore":6181,"Ġtilib":6182,"Ġseduc":6183,"gengibre":6184,"Ġbastonete":6185,"Ġtratamento":6186,"Ġgaliotto":6187,"Ġcub":6188,"Ġpula":6189,"Ġset":6190,"Ġrega":6191,"jado":6192,"Ġ92":6193,"Ġdou":6194,"Ġarto":6195,"Ġpau":6196,"mofo":6197,"Ġclassica":6198,"Ġsabo":6199,"Ġsui":6200,"Ġbrinorte":6201,"Ġpowder":6202,"Ġharmon":6203,"mmx":6204,"caroco":6205,"Ġzag":6206,"Ġthor":6207,"Ġfixador":6208,"Ġ2611324":6209,"Ġcountry":6210,"big":6211,"ky":6212,"lp":6213,"ucao":6214,"vit":6215,"Ġ118":6216,"Ġsnack":6217,"aninha":6218,"alv":6219,"Ġtorr":6220,"mabel":6221,"rico":6222,"gom":6223,"Ġiz":6224,"lete":6225,"Ġrocks":6226,"Ġsap":6227,"Ġprom":6228,"Ġamig":6229,"acendedor":6230,"Ġaze":6231,"soform":6232,"Ġsopa":6233,"Ġfloco":6234,"Ġadv":6235,"Ġblister":6236,"168":6237,"Ġestr":6238,"Ġfrang":6239,"Ġgdc":6240,"Ġbraz":6241,"Ġshak":6242,"Ġpassion":6243,"Ġnordes":6244,"broca":6245,"Ġsustain":6246,"Ġmmus":6247,"Ġgammy":6248,"pratice":6249,"Ġcoreton":6250,"Ġisca":6251,"Ġmho":6252,"cook":6253,"Ġlombo":6254,"Ġgord":6255,"Ġ473":6256,"uss":6257,"Ġku":6258,"Ġ73":6259,"Ġ650":6260,"Ġxtra":6261,"Ġmoana":6262,"Ġ108":6263,"107":6264,"Ġrajado":6265,"Ġ2613":6266,"Ġbiosoft":6267,"gurte":6268,"Ġtresp":6269,"torn":6270,"Ġsorv":6271,"Ġ1925":6272,"Ġfrizz":6273,"Ġnutella":6274,"Ġvaral":6275,"Ġtoscan":6276,"uelle":6277,"Ġyogurte":6278,"perfume":6279,"prend":6280,"Ġcrisps":6281,"Ġchalise":6282,"Ġrigida":6283,"abridor":6284,"Ġturmalina":6285,"Ġfluoresc":6286,"Ġelegance":6287,"cion":6288,"Ġmanda":6289,"Ġmuri":6290,"Ġssal":6291,"rec":6292,"Ġati":6293,"Ġlike":6294,"Ġlag":6295,"Ġev":6296,"Ġalgod":6297,"sabon":6298,"moedor":6299,"Ġbolas":6300,"Ġbabysec":6301,"Ġ152":6302,"Ġpret":6303,"marm":6304,"Ġ2629":6305,"Ġsprite":6306,"Ġhotel":6307,"manjericao":6308,"Ġmoldado":6309,"Ġmagn":6310,"Ġcrost":6311,"Ġtemperos":6312,"Ġgalak":6313,"Ġcaramel":6314,"2208":6315,"Ġ25122208":6316,"Ġsimples":6317,"Ġrefog":6318,"Ġrevitaly":6319,"Ġ262992":6320,"dina":6321,"flex":6322,"jita":6323,"meio":6324,"palha":6325,"tp":6326,"tu":6327,"Ġpm":6328,"Ġft":6329,"Ġunivers":6330,"Ġkid":6331,"Ġip":6332,"vada":6333,"baun":6334,"Ġprobak":6335,"Ġyok":6336,"Ġ1010":6337,"Ġtelado":6338,"246":6339,"Ġcorte":6340,"cif":6341,"desodoriz":6342,"milk":6343,"Ġrapido":6344,"Ġinvicto":6345,"Ġfases":6346,"sunga":6347,"Ġpipicat":6348,"Ġdivertoys":6349,"couve":6350,"ovomaltine":6351,"Ġtoscana":6352,"03":6353,"41":6354,"final":6355,"Ġ#":6356,"Ġsmil":6357,"Ġdetefon":6358,"Ġjol":6359,"Ġcardoso":6360,"doro":6361,"Ġboh":6362,"polo":6363,"Ġcabas":6364,"Ġintegra":6365,"Ġspimenta":6366,"Ġcompl":6367,"Ġfacas":6368,"Ġflamboy":6369,"Ġaves":6370,"Ġlonga":6371,"Ġredondo":6372,"Ġlillo":6373,"Ġ11184":6374,"Ġreconstrutor":6375,"fruit":6376,"Ġchicken":6377,"burg":6378,"skar":6379,"Ġcis":6380,"Ġpup":6381,"Ġpneu":6382,"alface":6383,"ello":6384,"Ġvim":6385,"ass":6386,"Ġeuro":6387,"Ġpot":6388,"rald":6389,"Ġsamb":6390,"Ġwish":6391,"Ġcarbon":6392,"Ġsals":6393,"Ġzip":6394,"248":6395,"mex":6396,"Ġantiquebra":6397,"Ġgranulado":6398,"Ġspid":6399,"Ġpeix":6400,"waf":6401,"zzi":6402,"Ġtwister":6403,"Ġnormal":6404,"Ġoffice":6405,"Ġmamad":6406,"Ġfelicia":6407,"Ġgeral":6408,"Ġwhey":6409,"Ġkelloggs":6410,"Ġguarani":6411,"Ġspagh":6412,"Ġmatizador":6413,"Ġtresplex":6414,"995":6415,"men":6416,"anhe":6417,"Ġdream":6418,"Ġfuc":6419,"iclo":6420,"Ġ880":6421,"Ġking":6422,"Ġmoid":6423,"Ġwe":6424,"Ġcarin":6425,"acuc":6426,"fogo":6427,"Ġsperf":6428,"Ġinstant":6429,"carr":6430,"lant":6431,"Ġbastao":6432,"Ġplay":6433,"Ġquerat":6434,"Ġroupinha":6435,"Ġfrita":6436,"Ġprimav":6437,"20795":6438,"flores":6439,"Ġcarrefou":6440,"Ġsantist":6441,"Ġpurile":6442,"pinca":6443,"Ġalivio":6444,"Ġ789840995":6445,"Ġdilu":6446,"Ġcrostini":6447,"Ġfucsia":6448,"334":6449,"420":6450,"nest":6451,"pm":6452,"rinha":6453,"Ġpudim":6454,"repar":6455,"Ġlixa":6456,"Ġins":6457,"Ġhd":6458,"Ġholly":6459,"uth":6460,"Ġalte":6461,"Ġbacalhau":6462,"Ġpagua":6463,"Ġboca":6464,"Ġregene":6465,"Ġmeg":6466,"novex":6467,"Ġflormel":6468,"Ġsofthair":6469,"Ġpess":6470,"Ġbeleza":6471,"Ġeucal":6472,"Ġsurp":6473,"Ġponjita":6474,"Ġgarlic":6475,"Ġessenc":6476,"Ġinterno":6477,"play":6478,"21364":6479,"Ġmarmorizado":6480,"Ġchalesco":6481,"multiuso":6482,"Ġformig":6483,"Ġincri":6484,"Ġsardinha":6485,"Ġpadre":6486,"Ġartois":6487,"nestle":6488,"fps":6489,"inaria":6490,"tera":6491,"alg":6492,"alyne":6493,"Ġflan":6494,"chia":6495,"Ġmala":6496,"Ġmaval":6497,"Ġkna":6498,"Ġ950":6499,"lim":6500,"2075":6501,"Ġazeit":6502,"Ġmang":6503,"Ġdescolorante":6504,"Ġantiad":6505,"Ġ23180":6506,"Ġstr":6507,"Ġmex":6508,"Ġpedal":6509,"gelatines":6510,"Ġpopcorn":6511,"Ġnacho":6512,"Ġbordo":6513,"Ġsundown":6514,"Ġcebolitos":6515,"Ġnumeral":6516,"Ġknauf":6517,"190":6518,"flu":6519,"kol":6520,"zol":6521,"Ġdip":6522,"Ġld":6523,"unga":6524,"Ġliri":6525,"quin":6526,"macar":6527,"Ġrn":6528,"moela":6529,"Ġchup":6530,"salsa":6531,"polv":6532,"Ġzum":6533,"Ġprime":6534,"Ġcanjica":6535,"173":6536,"frutas":6537,"Ġtonal":6538,"Ġbatman":6539,"Ġfixad":6540,"Ġoikos":6541,"Ġsilvestre":6542,"espremedor":6543,"Ġfinaliz":6544,"Ġrelax":6545,"ajinomoto":6546,"Ġbohem":6547,"fra":6548,"iar":6549,"Ġluto":6550,"Ġak":6551,"Ġgille":6552,"mpers":6553,"elseve":6554,"Ġlip":6555,"Ġrou":6556,"gueira":6557,"408":6558,"Ġmart":6559,"Ġsaco":6560,"20197":6561,"Ġnatus":6562,"Ġame":6563,"Ġ000000":6564,"Ġ157":6565,"pele":6566,"Ġelgin":6567,"Ġcapic":6568,"Ġapp":6569,"Ġgufs":6570,"Ġ192":6571,"rantela":6572,"Ġsports":6573,"Ġantisseptico":6574,"777":6575,"Ġsandy":6576,"Ġofic":6577,"Ġ789600400":6578,"Ġbonduelle":6579,"Ġpepsico":6580,"dueto":6581,"petisco":6582,"Ġenxuta":6583,"Ġbianco":6584,"Ġlutosa":6585,"wnie":6586,"Ġcort":6587,"rador":6588,"tapioca":6589,"Ġpopp":6590,"defri":6591,"Ġkinder":6592,"ime":6593,"Ġsanto":6594,"Ġsupre":6595,"adinho":6596,"mera":6597,"Ġpeg":6598,"bomba":6599,"Ġligh":6600,"Ġhidraderm":6601,"phl":6602,"Ġfert":6603,"Ġfortalec":6604,"tcel":6605,"Ġfrutos":6606,"Ġselene":6607,"bloq":6608,"base":6609,"Ġbotanical":6610,"Ġsleek":6611,"Ġcisper":6612,"Ġzumbi":6613,"oc":6614,"oral":6615,"ser":6616,"Ġ*(":6617,"Ġplu":6618,"Ġpdc":6619,"Ġbre":6620,"Ġamp":6621,"Ġny":6622,"Ġgeng":6623,"Ġcaca":6624,"Ġlays":6625,"pampers":6626,"Ġkorin":6627,"pomada":6628,"cedor":6629,"Ġtoma":6630,"Ġ1080":6631,"105":6632,"Ġ08":6633,"film":6634,"Ġhigel":6635,"manj":6636,"Ġtermico":6637,"Ġforever":6638,"Ġherc":6639,"Ġviolet":6640,"quik":6641,"Ġgermania":6642,"nugget":6643,"Ġ789610250":6644,"peixe":6645,"Ġkaram":6646,"Ġserigy":6647,"Ġplanet":6648,"Ġjaborandi":6649,"fite":6650,"lum":6651,"ui":6652,"zi":6653,"Ġccoco":6654,"tea":6655,"alic":6656,"Ġtv":6657,"Ġavia":6658,"Ġgerg":6659,"maq":6660,"Ġlamb":6661,"Ġopal":6662,"Ġ740":6663,"Ġ975":6664,"Ġperfe":6665,"moto":6666,"icate":6667,"forte":6668,"Ġhouse":6669,"biqu":6670,"Ġnielygold":6671,"Ġtaua":6672,"Ġskin":6673,"Ġpurp":6674,"skol":6675,"Ġiodado":6676,"Ġ231834":6677,"culous":6678,"desentupidor":6679,"Ġmiraculous":6680,"Ġpeppa":6681,"Ġdesamarelador":6682,"Ġpowerade":6683,"Ġenlace":6684,"Ġjolie":6685,"Ġlirios":6686,"defriz":6687,"06":6688,"238":6689,"bos":6690,"boni":6691,"body":6692,"py":6693,"pure":6694,"ru":6695,"sid":6696,"wi":6697,"Ġ]":6698,"Ġcb":6699,"reet":6700,"Ġdta":6701,"Ġtf":6702,"Ġrefor":6703,"Ġ62":6704,"Ġdez":6705,"Ġsam":6706,"Ġcartela":6707,"Ġ1020":6708,"Ġsupe":6709,"Ġmont":6710,"Ġadl":6711,"Ġdeli":6712,"Ġpiras":6713,"269":6714,"manta":6715,"Ġnutribom":6716,"Ġactiv":6717,"Ġglacial":6718,"Ġsortidas":6719,"Ġricino":6720,"Ġintencion":6721,"Ġcopacol":6722,"gergelim":6723,"liquidificador":6724,"Ġbiquini":6725,"Ġpolenguinho":6726,"Ġgostoso":6727,"linhaca":6728,"desinfetan":6729,"pulverizador":6730,"Ġbotanicals":6731,"Ġaviacao":6732,"175":6733,"380":6734,"ajax":6735,"by":6736,"eco":6737,"hs":6738,"oi":6739,"zo":6740,"Ġpte":6741,"Ġfrig":6742,"cava":6743,"ticu":6744,"gola":6745,"Ġtoy":6746,"Ġanjo":6747,"Ġams":6748,"Ġbota":6749,"Ġcec":6750,"Ġelem":6751,"Ġloreal":6752,"gebau":6753,"cortador":6754,"tang":6755,"Ġenri":6756,"Ġencan":6757,"Ġnutrikids":6758,"Ġnata":6759,"Ġnauti":6760,"Ġ789107":6761,"zzy":6762,"Ġdefini":6763,"Ġtamar":6764,"Ġcerveja":6765,"Ġbuzzy":6766,"Ġkaru":6767,"piscina":6768,"21040":6769,"Ġtilia":6770,"Ġmerhe":6771,"Ġvarre":6772,"Ġ257592":6773,"Ġneugebau":6774,"Ġunicorn":6775,"Ġsegredo":6776,"sucr":6777,"Ġdescartavel":6778,"Ġharmonia":6779,"Ġflamboyant":6780,"Ġbohemia":6781,"Ġneugebauer":6782,"dif":6783,"rum":6784,"Ġcped":6785,"0068":6786,"alicate":6787,"Ġlq":6788,"Ġluc":6789,"enol":6790,"Ġglt":6791,"Ġreta":6792,"Ġcaustica":6793,"Ġjalo":6794,"neut":6795,"Ġchu":6796,"Ġrala":6797,"24173":6798,"Ġprotein":6799,"feirinha":6800,"monange":6801,"Ġexo":6802,"Ġpampe":6803,"Ġbiscro":6804,"Ġespec":6805,"Ġsteel":6806,"vestido":6807,"Ġpacotao":6808,"Ġbeats":6809,"Ġcubos":6810,"Ġmerheje":6811,"bucha":6812,"mico":6813,"opus":6814,"torr":6815,"Ġmf":6816,"Ġmes":6817,"Ġgol":6818,"rich":6819,"dade":6820,"Ġcara":6821,"Ġcapa":6822,"Ġcaicara":6823,"Ġroger":6824,"Ġalten":6825,"Ġselast":6826,"Ġsala":6827,"129":6828,"Ġsupino":6829,"Ġcampos":6830,"Ġacetona":6831,"Ġ237":6832,"228":6833,"899":6834,"Ġenerge":6835,"izada":6836,"ergine":6837,"Ġkibe":6838,"assami":6839,"Ġsurpre":6840,"Ġtoddynho":6841,"lapiseira":6842,"Ġassadur":6843,"curativo":6844,"Ġgirl":6845,"Ġnabra":6846,"mandioca":6847,"Ġcoracoe":6848,"Ġincriveis":6849,"biquini":6850,"Ġaltenburg":6851,"bran":6852,"mx":6853,"Ġpelo":6854,"Ġsut":6855,"Ġsint":6856,"Ġscoxa":6857,"isten":6858,"Ġnaz":6859,"Ġhw":6860,"Ġkap":6861,"panett":6862,"pegador":6863,"Ġanive":6864,"mbinho":6865,"Ġuhd":6866,"Ġtetra":6867,"irnoff":6868,"Ġcasar":6869,"Ġloc":6870,"Ġloiro":6871,"Ġblon":6872,"tell":6873,"Ġactig":6874,"bolsa":6875,"Ġfacial":6876,"Ġchurras":6877,"Ġvitaliv":6878,"Ġcrescimento":6879,"Ġsnob":6880,"Ġpetalas":6881,"Ġbosco":6882,"21119":6883,"curry":6884,"Ġorquidea":6885,"escondid":6886,"Ġfralda":6887,"Ġmontev":6888,"Ġconchinha":6889,"Ġhollyw":6890,"Ġgillete":6891,"Ġapple":6892,"sidra":6893,"Ġbotafogo":6894,"Ġpampeano":6895,"Ġnazca":6896,"panettone":6897,"994":6898,"eve":6899,"fol":6900,"mje":6901,"Ġ132":6902,"Ġ365":6903,"Ġglo":6904,"Ġvina":6905,"Ġlafruit":6906,"Ġpoosh":6907,"itu":6908,"Ġmarf":6909,"terra":6910,"Ġprog":6911,"126":6912,"Ġraq":6913,"Ġraiola":6914,"Ġmulher":6915,"Ġceres":6916,"Ġacid":6917,"canji":6918,"Ġfrutgurt":6919,"Ġjaks":6920,"Ġtape":6921,"Ġsensivel":6922,"Ġhype":6923,"Ġsteak":6924,"Ġindiv":6925,"Ġsmirnoff":6926,"Ġlanch":6927,"Ġwoman":6928,"prc":6929,"Ġfatiada":6930,"Ġ26307249":6931,"Ġcremosissimo":6932,"Ġantiaderente":6933,"Ġboneca":6934,"Ġxadrez":6935,"ussie":6936,"216":6937,"frog":6938,"uco":6939,"Ġmg":6940,"006":6941,"Ġtas":6942,"hot":6943,"Ġ47":6944,"Ġcomb":6945,"Ġcoffe":6946,"Ġpome":6947,"Ġopen":6948,"leo":6949,"Ġalterna":6950,"Ġescr":6951,"Ġbatom":6952,"Ġ3000":6953,"Ġflora":6954,"amonia":6955,"Ġsalgada":6956,"Ġforc":6957,"22267":6958,"Ġexper":6959,"Ġbolog":6960,"Ġbiglux":6961,"Ġdefuma":6962,"Ġorganic":6963,"Ġpastilha":6964,"Ġtamba":6965,"Ġjumbitos":6966,"Ġskarl":6967,"Ġkiwi":6968,"Ġrefrescante":6969,"Ġdobra":6970,"Ġseduction":6971,"Ġsmiles":6972,"Ġpupunha":6973,"Ġtamarindo":6974,"Ġjakspel":6975,"lr":6976,"lit":6977,"alw":6978,"Ġfenda":6979,"Ġnissi":6980,"Ġoba":6981,"Ġbalala":6982,"2035":6983,"Ġamelia":6984,"Ġhidrashock":6985,"Ġmaracatu":6986,"244":6987,"choco":6988,"Ġfresca":6989,"vinag":6990,"Ġdual":6991,"Ġacaju":6992,"Ġceramica":6993,"Ġceramida":6994,"Ġbulbo":6995,"Ġloucas":6996,"Ġiii":6997,"Ġdecora":6998,"Ġtrend":6999,"Ġvapza":7000,"Ġstart":7001,"Ġquinta":7002,"Ġrodabrisa":7003,"Ġtecidos":7004,"Ġcitrico":7005,"Ġourol":7006,"Ġazedo":7007,"Ġunicornio":7008,"ddy":7009,"flan":7010,"kid":7011,"prat":7012,"ug":7013,"zes":7014,"Ġclor":7015,"Ġpfesta":7016,"Ġmta":7017,"anil":7018,"Ġdas":7019,"Ġaf":7020,"Ġau":7021,"Ġng":7022,"richo":7023,"days":7024,"Ġcora":7025,"Ġhipo":7026,"ics":7027,"Ġidays":7028,"Ġtrav":7029,"Ġperini":7030,"Ġviva":7031,"Ġnora":7032,"Ġlimpam":7033,"Ġdesen":7034,"Ġdescol":7035,"Ġdesfiar":7036,"arope":7037,"Ġbiolog":7038,"20051":7039,"Ġassol":7040,"Ġ288":7041,"Ġfavor":7042,"Ġsenses":7043,"373":7044,"Ġgergelim":7045,"Ġborb":7046,"Ġfestcolor":7047,"Ġgatilho":7048,"Ġdecorado":7049,"Ġdelicado":7050,"sununga":7051,"paraf":7052,"Ġcebolinha":7053,"Ġcremogema":7054,"Ġaney":7055,"Ġpirassununga":7056,"Ġnabrasa":7057,"Ġkapricho":7058,"escondidinho":7059,"Ġcereser":7060,"Ġtambaqui":7061,"ben":7062,"bli":7063,"cy":7064,"stix":7065,"vde":7066,"Ġpion":7067,"Ġpana":7068,"Ġ315":7069,"toddy":7070,"Ġreco":7071,"Ġrock":7072,"Ġsaud":7073,"Ġtribos":7074,"Ġqb":7075,"Ġnewafer":7076,"inger":7077,"Ġstreet":7078,"Ġgrava":7079,"aperitivo":7080,"265":7081,"Ġclea":7082,"Ġaper":7083,"Ġsenn":7084,"Ġbolinha":7085,"Ġfaccio":7086,"Ġtempe":7087,"Ġferram":7088,"Ġcapriche":7089,"Ġquimico":7090,"parf":7091,"parica":7092,"Ġrecheadinho":7093,"Ġserra":7094,"Ġjardim":7095,"Ġmamadeira":7096,"churras":7097,"Ġandor":7098,"Ġacoplada":7099,"Ġdentastix":7100,"Ġalfaparf":7101,"Ġhydrus":7102,"Ġsabores":7103,"Ġlimpamania":7104,"766":7105,"bras":7106,"tero":7107,"onas":7108,"Ġriso":7109,"Ġwine":7110,"Ġwip":7111,"sobre":7112,"azul":7113,"Ġlts":7114,"Ġraiz":7115,"Ġcelast":7116,"Ġforn":7117,"Ġitaparica":7118,"Ġdail":7119,"bora":7120,"Ġbana":7121,"forra":7122,"Ġ164":7123,"Ġrefi":7124,"Ġbioprati":7125,"119":7126,"Ġbasica":7127,"Ġsense":7128,"Ġlarg":7129,"Ġglace":7130,"Ġbisc":7131,"Ġfantas":7132,"Ġskilhos":7133,"Ġintensive":7134,"Ġadams":7135,"Ġcalcio":7136,"Ġaerada":7137,"Ġanatom":7138,"Ġathle":7139,"Ġfrancesas":7140,"Ġamstel":7141,"215":7142,"59":7143,"dl":7144,"pl":7145,"tpa":7146,"yu":7147,"rab":7148,"Ġmy":7149,"Ġmna":7150,"arom":7151,"Ġdim":7152,"isol":7153,"unda":7154,"Ġcodor":7155,"Ġemol":7156,"levo":7157,"Ġdemera":7158,"Ġrom":7159,"baud":7160,"cevada":7161,"Ġpacoca":7162,"Ġuv":7163,"amar":7164,"Ġelis":7165,"Ġdiar":7166,"arden":7167,"tania":7168,"Ġpratic":7169,"cart":7170,"Ġblend":7171,"banco":7172,"Ġflamen":7173,"Ġflexi":7174,"Ġcrac":7175,"Ġhidrakids":7176,"Ġ26268":7177,"376":7178,"brilh":7179,"nutren":7180,"formula":7181,"urger":7182,"tilla":7183,"Ġfiesta":7184,"Ġcacheado":7185,"Ġmicrofib":7186,"Ġsegunda":7187,"Ġcompacta":7188,"Ġselecao":7189,"Ġnestogeno":7190,"Ġgrapette":7191,"Ġexotic":7192,"Ġmontevergine":7193,"canjiquinha":7194,"Ġflamengo":7195,"aves":7196,"sas":7197,"inson":7198,"Ġ139":7199,"Ġms":7200,"0067":7201,"aly":7202,"Ġdt":7203,"Ġdivers":7204,"ongo":7205,"Ġaussie":7206,"Ġnn":7207,"ash":7208,"Ġcook":7209,"iges":7210,"Ġrua":7211,"Ġfron":7212,"Ġplasnew":7213,"Ġtricolor":7214,"onada":7215,"Ġchica":7216,"Ġmania":7217,"Ġitaip":7218,"Ġperfume":7219,"Ġcorona":7220,"kapo":7221,"Ġpoly":7222,"Ġpolido":7223,"Ġvitakid":7224,"Ġbasico":7225,"188":7226,"Ġextratoma":7227,"Ġbauni":7228,"Ġtabl":7229,"Ġfarm":7230,"Ġprimaf":7231,"Ġintense":7232,"Ġassado":7233,"violi":7234,"almond":7235,"odoro":7236,"churrasco":7237,"Ġaltemb":7238,"Ġmavaler":7239,"Ġdaily":7240,"Ġemold":7241,"Ġextratomato":7242,"rus":7243,"san":7244,"ska":7245,"ude":7246,"Ġ570":7247,"tig":7248,"cher":7249,"Ġhorta":7250,"icure":7251,"louro":7252,"Ġjb":7253,"Ġparaty":7254,"201":7255,"zacao":7256,"Ġsanf":7257,"masco":7258,"antar":7259,"Ġhome":7260,"Ġneutra":7261,"Ġhug":7262,"Ġplatin":7263,"vass":7264,"Ġcarmene":7265,"Ġeucalip":7266,"Ġsham":7267,"clear":7268,"preserva":7269,"Ġfacilita":7270,"Ġduleve":7271,"Ġbrasileiro":7272,"Ġbrochura":7273,"Ġpequena":7274,"24804":7275,"Ġpintadinha":7276,"sucrilhos":7277,"Ġfavorita":7278,"Ġanatomica":7279,"ace":7280,"xarope":7281,"Ġcica":7282,"red":7283,"copa":7284,"always":7285,"dom":7286,"Ġ840":7287,"idi":7288,"condim":7289,"Ġ305":7290,"Ġchicle":7291,"Ġpetbr":7292,"Ġsobre":7293,"Ġlavar":7294,"pell":7295,"Ġpear":7296,"Ġadvan":7297,"chef":7298,"Ġsufla":7299,"bier":7300,"Ġcolageno":7301,"Ġharald":7302,"cess":7303,"Ġvalsa":7304,"Ġjade":7305,"vaso":7306,"Ġfribo":7307,"Ġguama":7308,"Ġ4115":7309,"Ġperolado":7310,"Ġnapoles":7311,"Ġbrigitta":7312,"Ġprofundo":7313,"Ġalmaden":7314,"Ġcorporal":7315,"Ġfuradinho":7316,"Ġfamilia":7317,"Ġdragao":7318,"Ġbertin":7319,"Ġvasenol":7320,"Ġcabernet":7321,"Ġjacqu":7322,"Ġbouq":7323,"Ġmescla":7324,"Ġspaghetti":7325,"Ġoficio":7326,"Ġaltemburg":7327,"gena":7328,"ide":7329,"Ġctampa":7330,"Ġpolo":7331,"Ġsin":7332,"Ġsassami":7333,"redon":7334,"Ġfta":7335,"Ġfita":7336,"tagen":7337,"Ġgrf":7338,"marata":7339,"vet":7340,"ulha":7341,"Ġalm":7342,"Ġjantar":7343,"Ġmarcolar":7344,"Ġ205":7345,"Ġtech":7346,"polidor":7347,"Ġgali":7348,"Ġgeleia":7349,"Ġluxcar":7350,"Ġbetty":7351,"ucas":7352,"Ġ194":7353,"Ġfarinha":7354,"Ġfrito":7355,"Ġwaffer":7356,"Ġshape":7357,"Ġfortes":7358,"Ġpelado":7359,"Ġtdcacho":7360,"cobertura":7361,"trident":7362,"Ġedw":7363,"Ġchandelle":7364,"Ġ231824":7365,"Ġrepelex":7366,"Ġsensacao":7367,"Ġexpress":7368,"Ġcoruja":7369,"Ġwipes":7370,"Ġcodorna":7371,"Ġcarmenere":7372,"Ġfriboi":7373,"04":7374,"260":7375,"cid":7376,"mis":7377,"Ġ/":7378,"Ġcc":7379,"Ġmona":7380,"arco":7381,"Ġlor":7382,"olina":7383,"Ġlitt":7384,"Ġlatte":7385,"Ġpoa":7386,"Ġkraft":7387,"Ġrodeo":7388,"Ġmarsala":7389,"nec":7390,"Ġbailar":7391,"Ġplasut":7392,"antena":7393,"805":7394,"Ġminua":7395,"Ġminios":7396,"Ġzo":7397,"Ġnozes":7398,"caninha":7399,"talher":7400,"Ġbld":7401,"Ġfaca":7402,"ubes":7403,"capili":7404,"relho":7405,"Ġtempo":7406,"20780":7407,"20766":7408,"Ġmicroondas":7409,"Ġesfregao":7410,"Ġruv":7411,"Ġgrafite":7412,"Ġ25662237":7413,"Ġfinaflor":7414,"sobremesa":7415,"desodorant":7416,"Ġ781":7417,"02899":7418,"Ġheroi":7419,"Ġinfancia":7420,"fvl":7421,"riclan":7422,"Ġmetais":7423,"Ġfigu":7424,"Ġtransparente":7425,"Ġuniversita":7426,"Ġchupeta":7427,"Ġperfex":7428,"Ġbiopratika":7429,"Ġdemerara":7430,"Ġmavalerio":7431,"Ġlittle":7432,"lis":7433,"puro":7434,"Ġpurif":7435,"inj":7436,"Ġsole":7437,"rere":7438,"Ġburger":7439,"chand":7440,"Ġlimon":7441,"Ġrevi":7442,"Ġmaqu":7443,"icante":7444,"Ġkell":7445,"Ġira":7446,"Ġ680":7447,"liz":7448,"Ġamante":7449,"mouth":7450,"Ġsoul":7451,"Ġboi":7452,"queja":7453,"Ġgola":7454,"Ġgoody":7455,"Ġperfei":7456,"227":7457,"arao":7458,"Ġsuico":7459,"Ġpesca":7460,"Ġcotonete":7461,"Ġpetyb":7462,"Ġsaude":7463,"dersil":7464,"Ġpromoc":7465,"Ġballena":7466,"Ġvotiva":7467,"22522":7468,"Ġmelamina":7469,"Ġhigienico":7470,"Ġvrm":7471,"Ġtrufa":7472,"Ġparmegiana":7473,"Ġphiladelphia":7474,"Ġopaline":7475,"Ġcecco":7476,"Ġexpert":7477,"Ġourolux":7478,"Ġrevigo":7479,"ear":7480,"kiss":7481,"luc":7482,"ril":7483,"tino":7484,"ance":7485,"cach":7486,"Ġgabo":7487,"dafruta":7488,"Ġliber":7489,"Ġinse":7490,"Ġcadersil":7491,"Ġogx":7492,"guitos":7493,"ced":7494,"Ġdoguitos":7495,"Ġcasarao":7496,"Ġcabides":7497,"Ġbombona":7498,"yak":7499,"mangueira":7500,"Ġstages":7501,"Ġicekiss":7502,"ezinho":7503,"Ġatlas":7504,"vermouth":7505,"cott":7506,"Ġultragrip":7507,"Ġonix":7508,"paprica":7509,"Ġtent":7510,"683":7511,"Ġmasterchef":7512,"Ġpicado":7513,"curat":7514,"Ġperfumes":7515,"Ġoptim":7516,"Ġtulum":7517,"torneira":7518,"itufo":7519,"Ġtapere":7520,"Ġpescados":7521,"325":7522,"550":7523,"disco":7524,"iti":7525,"tres":7526,"Ġiogurte":7527,"Ġpchur":7528,"Ġmina":7529,"Ġmno":7530,"caca":7531,"Ġaw":7532,"hom":7533,"Ġvilla":7534,"Ġcopra":7535,"Ġhul":7536,"lass":7537,"Ġalu":7538,"entro":7539,"Ġarmado":7540,"Ġproces":7541,"Ġcarqueja":7542,"emba":7543,"Ġnestl":7544,"Ġinfin":7545,"Ġcabra":7546,"Ġ235":7547,"Ġbritania":7548,"boleira":7549,"Ġminueto":7550,"23901":7551,"Ġsemides":7552,"Ġcolorado":7553,"Ġlemb":7554,"Ġautoma":7555,"chiclete":7556,"Ġkeratina":7557,"Ġscampo":7558,"cabelo":7559,"Ġcerejeira":7560,"24802":7561,"Ġmuriongo":7562,"Ġdiversas":7563,"Ġsuflair":7564,"Ġgoodyear":7565,"Ġperfeitos":7566,"Ġhulk":7567,"kalipto":7568,"kraft":7569,"mhs":7570,"Ġsy":7571,"Ġsmo":7572,"coq":7573,"Ġbizz":7574,"Ġdyn":7575,"Ġlinh":7576,"Ġlupo":7577,"rogon":7578,"Ġ511":7579,"Ġ584":7580,"Ġvps":7581,"Ġmacar":7582,"Ġunid":7583,"uli":7584,"Ġ124":7585,"cept":7586,"Ġrus":7587,"Ġcarto":7588,"Ġcarfgo":7589,"Ġnathor":7590,"Ġanos":7591,"108":7592,"amic":7593,"iplast":7594,"polis":7595,"Ġlogo":7596,"24185":7597,"rasteira":7598,"Ġacuc":7599,"Ġcorn":7600,"Ġbrancos":7601,"Ġ236":7602,"ingles":7603,"Ġgalinh":7604,"Ġumido":7605,"117":7606,"Ġbrasf":7607,"Ġtexas":7608,"Ġurs":7609,"Ġduramax":7610,"Ġminhoca":7611,"Ġvitalon":7612,"Ġsunless":7613,"Ġdelicate":7614,"Ġenxu":7615,"Ġedwiges":7616,"87":7617,"ducha":7618,"ego":7619,"regua":7620,"tekitos":7621,"arro":7622,"esfre":7623,"Ġapol":7624,"Ġglu":7625,"elho":7626,"elha":7627,"Ġcovos":7628,"Ġcaf":7629,"Ġ777":7630,"Ġmarguer":7631,"pex":7632,"Ġmop":7633,"Ġtoys":7634,"Ġcarre":7635,"Ġchina":7636,"Ġptg":7637,"Ġsalgad":7638,"Ġextrema":7639,"Ġanticar":7640,"farinh":7641,"Ġcaloi":7642,"Ġneutr":7643,"Ġsueco":7644,"bananinha":7645,"pastel":7646,"Ġturqu":7647,"Ġguard":7648,"tenol":7649,"tenis":7650,"Ġsemente":7651,"Ġbrother":7652,"Ġfrancesa":7653,"Ġcebo":7654,"20700":7655,"retin":7656,"Ġborracha":7657,"Ġlistra":7658,"Ġnoites":7659,"plafon":7660,"Ġutile":7661,"basa":7662,"Ġvioleter":7663,"Ġcolection":7664,"Ġdesidrata":7665,"Ġnoturno":7666,"Ġdefinicao":7667,"Ġvinagre":7668,"Ġdobravel":7669,"Ġgravata":7670,"Ġathletic":7671,"Ġflexiveis":7672,"Ġbailarina":7673,"330":7674,"ika":7675,"lombo":7676,"Ġdy":7677,"rosa":7678,"uliz":7679,"inhao":7680,"Ġmarin":7681,"Ġcolher":7682,"Ġquart":7683,"zaveia":7684,"Ġ2599":7685,"807":7686,"Ġchant":7687,"azol":7688,"Ġ3338":7689,"uras":7690,"leiteira":7691,"gging":7692,"uros":7693,"Ġchokito":7694,"Ġbonsabor":7695,"itel":7696,"Ġumd":7697,"venal":7698,"Ġfermix":7699,"Ġparmala":7700,"Ġnaturel":7701,"Ġtarantela":7702,"Ġcuticu":7703,"Ġmandio":7704,"mmd":7705,"Ġembor":7706,"Ġfantasy":7707,"Ġavei":7708,"Ġflm":7709,"Ġflics":7710,"Ġbrownie":7711,"Ġbambuliz":7712,"rett":7713,"Ġ4137":7714,"Ġfestinha":7715,"Ġcappuccino":7716,"Ġprolongada":7717,"Ġfusion":7718,"Ġlilica":7719,"Ġselect":7720,"Ġfondor":7721,"Ġpinheiro":7722,"Ġequilib":7723,"Ġarrozaveia":7724,"Ġgigante":7725,"Ġdiluido":7726,"amoniaco":7727,"Ġbiologico":7728,"Ġtapereba":7729,"Ġdynamic":7730,"Ġparmalat":7731,"112":7732,"97":7733,"fen":7734,"Ġcilin":7735,"Ġpene":7736,"rech":7737,"regu":7738,"Ġbiv":7739,"erra":7740,"Ġfol":7741,"rola":7742,"ele":7743,"chip":7744,"Ġlider":7745,"doc":7746,"Ġmaq":7747,"Ġcai":7748,"Ġ870":7749,"jama":7750,"Ġod":7751,"osuco":7752,"Ġjupo":7753,"Ġtrama":7754,"Ġwal":7755,"Ġcars":7756,"Ġquinoa":7757,"Ġnatucar":7758,"Ġyosuco":7759,"8024":7760,"Ġbojo":7761,"ize":7762,"isotonico":7763,"Ġnitero":7764,"ermic":7765,"Ġbanan":7766,"Ġbett":7767,"Ġguia":7768,"Ġfator":7769,"236":7770,"Ġbovino":7771,"grampo":7772,"Ġtorrada":7773,"Ġbroc":7774,"Ġhydro":7775,"Ġoreg":7776,"Ġjump":7777,"Ġ05766":7778,"pijama":7779,"Ġtransicao":7780,"Ġimperial":7781,"agne":7782,"Ġmosca":7783,"Ġempil":7784,"Ġ25122237":7785,"Ġcrespo":7786,"Ġfelina":7787,"Ġ11214":7788,"shorts":7789,"skilhos":7790,"pulgas":7791,"travesseiro":7792,"Ġextraordinario":7793,"Ġiluminado":7794,"Ġsambol":7795,"florestal":7796,"Ġregenerador":7797,"Ġmarfim":7798,"Ġsenninha":7799,"Ġplatinum":7800,"Ġquartz":7801,"Ġjupoca":7802,"Ġniteroi":7803,"\"\"":7804,"412":7805,"ach":7806,"lei":7807,"pur":7808,"pers":7809,"usa":7810,"Ġmiss":7811,"Ġspo":7812,"Ġsxg":7813,"alsa":7814,"Ġdos":7815,"Ġnet":7816,"Ġnino":7817,"mata":7818,"quita":7819,"Ġkc":7820,"conazol":7821,"omo":7822,"Ġjerry":7823,"Ġess":7824,"Ġargola":7825,"Ġyang":7826,"Ġ3022":7827,"Ġ25373":7828,"106":7829,"soy":7830,"Ġsangue":7831,"erman":7832,"aper":7833,"adapt":7834,"sbp":7835,"Ġsonhos":7836,"Ġantisse":7837,"Ġpomodoro":7838,"Ġcasaredo":7839,"Ġbufa":7840,"Ġamerica":7841,"brinque":7842,"Ġ11431":7843,"Ġporto":7844,"rexona":7845,"Ġtinindo":7846,"Ġyopro":7847,"lavanda":7848,"Ġgasp":7849,"Ġesfoliante":7850,"Ġnasal":7851,"Ġcurto":7852,"Ġamanteigado":7853,"aromatizante":7854,"Ġmasterfoods":7855,"Ġbalsamico":7856,"carrinho":7857,"Ġenergetica":7858,"Ġ259922":7859,"bubbaloo":7860,"dz":7861,"gus":7862,"gord":7863,"hinha":7864,"kt":7865,"mts":7866,"pipo":7867,"rl":7868,"sua":7869,"th":7870,"unhas":7871,"etinho":7872,"ush":7873,"bac":7874,"Ġjeito":7875,"Ġtrapi":7876,"iment":7877,"Ġcongela":7878,"Ġwar":7879,"Ġcarcaca":7880,"moch":7881,"Ġsour":7882,"Ġsobr":7883,"sept":7884,"Ġug":7885,"Ġforrada":7886,"Ġgoela":7887,"Ġplut":7888,"Ġproteina":7889,"feij":7890,"iteiro":7891,"Ġsubli":7892,"Ġespon":7893,"Ġpartida":7894,"Ġbrincar":7895,"Ġcozido":7896,"Ġtruf":7897,"Ġacaf":7898,"bons":7899,"Ġvolume":7900,"Ġfruits":7901,"Ġvioletera":7902,"Ġlusa":7903,"Ġusual":7904,"Ġtoffee":7905,"Ġshampoo":7906,"Ġrobinson":7907,"Ġfirm":7908,"Ġnordeste":7909,"Ġ0000000000":7910,"Ġenriq":7911,"Ġpioneiro":7912,"Ġruvolo":7913,"Ġbufala":7914,"Ġtrapiche":7915,"Ġsublime":7916,"114":7917,"520":7918,"ax":7919,"dp":7920,"maleta":7921,"pit":7922,"zza":7923,"Ġpmg":7924,"Ġsche":7925,"rede":7926,"Ġduc":7927,"Ġdisqueti":7928,"Ġlp":7929,"Ġfro":7930,"Ġnw":7931,"Ġnho":7932,"Ġgi":7933,"Ġ415":7934,"Ġliz":7935,"Ġrena":7936,"Ġeure":7937,"saca":7938,"Ġoas":7939,"Ġrodo":7940,"Ġalt":7941,"Ġjon":7942,"Ġmarga":7943,"20805":7944,"Ġbrs":7945,"Ġsof":7946,"Ġsovex":7947,"128":7948,"Ġcastell":7949,"havel":7950,"24777":7951,"Ġacinz":7952,"Ġdiab":7953,"forno":7954,"Ġbiol":7955,"Ġrosina":7956,"Ġcalcool":7957,"yama":7958,"Ġjoy":7959,"mond":7960,"Ġmacacanela":7961,"Ġnutrimilk":7962,"Ġhappy":7963,"Ġescur":7964,"Ġturb":7965,"Ġcamelia":7966,"Ġ2800":7967,"Ġplavar":7968,"Ġquadrada":7969,"Ġtart":7970,"Ġpentes":7971,"Ġmasterf":7972,"biocolor":7973,"21312":7974,"Ġvarie":7975,"Ġculinario":7976,"Ġfreezermic":7977,"disp":7978,"Ġventisol":7979,"marmita":7980,"skarloff":7981,"Ġ8803":7982,"Ġbalalaika":7983,"Ġpanadoro":7984,"Ġruah":7985,"Ġrevigorante":7986,"rogonoff":7987,"Ġempilhavel":7988,"Ġacafrao":7989,"Ġfreezermicroondas":7990,"fini":7991,"gluten":7992,"hu":7993,"wer":7994,"Ġcj":7995,"Ġcleite":7996,"Ġchav":7997,"Ġmim":7998,"Ġbeira":7999,"tena":8000,"Ġdc":8001,"chant":8002,"Ġeva":8003,"saq":8004,"urri":8005,"olete":8006,"103":8007,"1056":8008,"sev":8009,"Ġvib":8010,"Ġtext":8011,"Ġaccept":8012,"Ġperfsens":8013,"vejado":8014,"issima":8015,"Ġpolip":8016,"alhada":8017,"Ġmarcoboni":8018,"Ġflamin":8019,"Ġespagu":8020,"Ġtexto":8021,"isage":8022,"Ġgril":8023,"tivapet":8024,"forminha":8025,"Ġsky":8026,"Ġskafe":8027,"Ġastral":8028,"Ġtortinha":8029,"Ġtropica":8030,"Ġcarnleg":8031,"Ġyou":8032,"agenda":8033,"Ġprolongado":8034,"Ġcompacto":8035,"Ġabsoluto":8036,"Ġcollection":8037,"Ġtubes":8038,"headphone":8039,"garrafao":8040,"Ġvigoflex":8041,"avisten":8042,"Ġizabel":8043,"Ġkuka":8044,"mexedor":8045,"Ġiluminadora":8046,"Ġyangzi":8047,"Ġoasis":8048,"Ġmargarett":8049,"avistense":8050,"mento":8051,"umao":8052,"ynho":8053,"ravioli":8054,"Ġmem":8055,"anina":8056,"Ġbisco":8057,"Ġts":8058,"camp":8059,"Ġ475":8060,"chim":8061,"Ġlilac":8062,"Ġcock":8063,"Ġinbasa":8064,"Ġlara":8065,"Ġelas":8066,"Ġalvejado":8067,"Ġjur":8068,"Ġsemol":8069,"Ġchuva":8070,"Ġsandela":8071,"azei":8072,"Ġzr":8073,"Ġprep":8074,"Ġelbis":8075,"Ġadpt":8076,"Ġbrillo":8077,"Ġdanny":8078,"Ġ163":8079,"Ġwhi":8080,"Ġumbu":8081,"Ġoetk":8082,"Ġclin":8083,"Ġgreg":8084,"Ġsugo":8085,"Ġenv":8086,"Ġnutritivo":8087,"Ġ7898024":8088,"presunto":8089,"Ġgarib":8090,"Ġfluff":8091,"Ġrecup":8092,"barb":8093,"proteina":8094,"Ġvolumao":8095,"Ġyogurt":8096,"Ġliquida":8097,"Ġberinj":8098,"Ġpurilev":8099,"Ġnatusabor":8100,"Ġbiscrock":8101,"Ġmonama":8102,"Ġfigueira":8103,"esfregao":8104,"huggies":8105,"cb":8106,"clor":8107,"gd":8108,"gat":8109,"lon":8110,"pink":8111,"riso":8112,"zer":8113,"Ġpint":8114,"Ġpisa":8115,"radas":8116,"Ġbubbaloo":8117,"Ġlf":8118,"Ġlus":8119,"Ġatena":8120,"Ġlib":8121,"Ġcome":8122,"Ġlago":8123,"lasan":8124,"deter":8125,"led":8126,"Ġsaint":8127,"Ġsafa":8128,"Ġmood":8129,"Ġtour":8130,"xaua":8131,"Ġanten":8132,"Ġverme":8133,"sep":8134,"Ġnow":8135,"Ġacet":8136,"905":8137,"prazol":8138,"ibe":8139,"Ġgraph":8140,"idades":8141,"picles":8142,"Ġradian":8143,"qjs":8144,"caminhao":8145,"Ġtuxaua":8146,"Ġlumi":8147,"Ġcharge":8148,"788":8149,"comed":8150,"Ġchocook":8151,"Ġtoscano":8152,"Ġmodelo":8153,"Ġmodif":8154,"Ġsoltissimo":8155,"20870":8156,"Ġseiva":8157,"Ġondul":8158,"Ġreconstrucao":8159,"Ġcollec":8160,"Ġgirls":8161,"Ġtyre":8162,"Ġlysoform":8163,"Ġgradua":8164,"most":8165,"Ġdefumada":8166,"Ġskarlloff":8167,"Ġferramenta":8168,"Ġgaboardi":8169,"tresemme":8170,"brinquedo":8171,"Ġgaribal":8172,"3500":8173,"cen":8174,"eti":8175,"fu":8176,"ular":8177,"Ġpb":8178,"laran":8179,"Ġbento":8180,"Ġbub":8181,"Ġgum":8182,"tode":8183,"Ġlaz":8184,"Ġket":8185,"idel":8186,"baygon":8187,"Ġwash":8188,"209":8189,"zada":8190,"septico":8191,"Ġprev":8192,"udio":8193,"Ġmontilla":8194,"153":8195,"Ġcabel":8196,"Ġdesemb":8197,"pratel":8198,"Ġembala":8199,"Ġgalin":8200,"Ġspor":8201,"Ġamafil":8202,"Ġlaminada":8203,"izadora":8204,"Ġbucha":8205,"ordu":8206,"Ġhotwhe":8207,"ball":8208,"iliar":8209,"Ġpitanga":8210,"Ġautom":8211,"Ġ41325":8212,"sons":8213,"Ġnorm":8214,"Ġocean":8215,"Ġ7896044":8216,"Ġzap":8217,"hidratante":8218,"Ġpedaco":8219,"Ġbiquin":8220,"Ġvelvet":8221,"cigarro":8222,"Ġevolut":8223,"Ġbaldoni":8224,"Ġraiolita":8225,"tubo":8226,"baunilha":8227,"Ġcoffee":8228,"Ġandorinha":8229,"Ġmarguerita":8230,"regulador":8231,"Ġeureka":8232,"923":8233,"bil":8234,"gc":8235,"jas":8236,"raid":8237,"Ġsx":8238,"Ġshock":8239,"alle":8240,"Ġlela":8241,"Ġfett":8242,"Ġflash":8243,"Ġaur":8244,"Ġaza":8245,"Ġnen":8246,"Ġvv":8247,"chips":8248,"Ġlabel":8249,"sams":8250,"usor":8251,"Ġkaro":8252,"Ġ924":8253,"limao":8254,"panos":8255,"Ġarr":8256,"Ġrx":8257,"Ġparede":8258,"202":8259,"Ġperol":8260,"joao":8261,"Ġ2618":8262,"Ġmanual":8263,"Ġcolorida":8264,"Ġsolteiro":8265,"Ġbombas":8266,"Ġclight":8267,"Ġcomf":8268,"bron":8269,"Ġdupl":8270,"Ġsony":8271,"Ġalumil":8272,"Ġalhosal":8273,"paliteiro":8274,"Ġferra":8275,"Ġpctao":8276,"Ġ8415":8277,"Ġ4135":8278,"Ġppes":8279,"enser":8280,"Ġjuvenal":8281,"Ġchampagne":8282,"Ġmalbe":8283,"protect":8284,"Ġcappuc":8285,"oth":8286,"figo":8287,"Ġdpl":8288,"Ġpequeno":8289,"Ġagulhinha":8290,"funil":8291,"Ġbronz":8292,"Ġmmusculo":8293,"Ġelement":8294,"Ġpetbrill":8295,"Ġjacquar":8296,"Ġflamingo":8297,"todecacho":8298,"prateleira":8299,"af":8300,"aji":8301,"cless":8302,"disqueti":8303,"fine":8304,"fibra":8305,"gli":8306,"hnson":8307,"klin":8308,"vilha":8309,"Ġcros":8310,"inpm":8311,"Ġ134":8312,"reparador":8313,"lavel":8314,"Ġbwc":8315,"Ġaqua":8316,"energe":8317,"Ġgarden":8318,"Ġ489":8319,"Ġcake":8320,"Ġefv":8321,"pop":8322,"Ġbara":8323,"Ġcarveg":8324,"condimento":8325,"escuma":8326,"Ġshin":8327,"salgado":8328,"Ġinflavel":8329,"Ġraquete":8330,"ggets":8331,"johnson":8332,"Ġtea":8333,"Ġcascao":8334,"Ġuvamaca":8335,"kau":8336,"Ġgrain":8337,"brilho":8338,"Ġsenior":8339,"Ġtablete":8340,"alimento":8341,"Ġquadr":8342,"Ġ3943":8343,"20781":8344,"Ġmacarrao":8345,"Ġtriplacao":8346,"Ġcresp":8347,"Ġabobora":8348,"Ġ1764890807":8349,"Ġdserra":8350,"Ġ25924246":8351,"nozes":8352,"Ġ11331":8353,"sustain":8354,"Ġbouquet":8355,"Ġtriangle":8356,"Ġregata":8357,"Ġdreamies":8358,"Ġcapicilin":8359,"Ġlucretin":8360,"Ġsurpresa":8361,"listerine":8362,"Ġturquesa":8363,"Ġmoscatel":8364,"Ġesponja":8365,"Ġbiquinis":8366,"energetico":8367,"hort":8368,"ik":8369,"preto":8370,"ind":8371,"Ġmpack":8372,"Ġbge":8373,"ari":8374,"Ġ53":8375,"tio":8376,"chid":8377,"Ġmatiz":8378,"quel":8379,"refre":8380,"Ġmoc":8381,"Ġpata":8382,"chinelo":8383,"marca":8384,"24683":8385,"Ġforradas":8386,"151":8387,"Ġcapil":8388,"Ġpeonia":8389,"Ġpetic":8390,"ciona":8391,"Ġpolid":8392,"banha":8393,"Ġstax":8394,"Ġenrola":8395,"Ġcondic":8396,"Ġbetta":8397,"Ġturm":8398,"Ġjohns":8399,"Ġfatia":8400,"Ġmultpack":8401,"Ġvirro":8402,"Ġmilh":8403,"trona":8404,"391":8405,"bea":8406,"Ġvag":8407,"21016":8408,"Ġslight":8409,"Ġamericana":8410,"Ġporus":8411,"Ġsacucar":8412,"patilha":8413,"Ġcamarao":8414,"Ġrodabrill":8415,"Ġportugu":8416,"Ġcruzeiro":8417,"umidiliz":8418,"Ġpapinha":8419,"Ġaquario":8420,"Ġbronze":8421,"Ġanimals":8422,"Ġimpact":8423,"Ġeuropan":8424,"Ġformiga":8425,"Ġampola":8426,"farinheira":8427,"Ġnatucarne":8428,"Ġgaribaldi":8429,"Ġpeticitos":8430,"dip":8431,"king":8432,"lper":8433,"squeeze":8434,"win":8435,"zitos":8436,"rap":8437,"Ġschar":8438,"Ġdinos":8439,"Ġleito":8440,"Ġfrasco":8441,"Ġtig":8442,"Ġtjoao":8443,"tada":8444,"Ġgabri":8445,"Ġvio":8446,"Ġreq":8447,"Ġhib":8448,"detefon":8449,"Ġ670":8450,"Ġrocher":8451,"Ġxam":8452,"Ġxtr":8453,"Ġsere":8454,"Ġarco":8455,"Ġartif":8456,"Ġtouro":8457,"Ġwo":8458,"Ġnesquik":8459,"oleta":8460,"Ġperman":8461,"sobr":8462,"Ġorchid":8463,"strogonoff":8464,"Ġutens":8465,"chocalho":8466,"Ġtela":8467,"Ġprevent":8468,"Ġlot":8469,"Ġprm":8470,"2444":8471,"corpo":8472,"Ġfrescal":8473,"ibuna":8474,"Ġfrutt":8475,"noite":8476,"Ġcompos":8477,"263":8478,"Ġparaibuna":8479,"Ġ1495":8480,"tralala":8481,"165":8482,"toalhas":8483,"Ġespuma":8484,"Ġlamem":8485,"Ġsonetto":8486,"Ġ7896":8487,"Ġmusk":8488,"vasta":8489,"Ġtriple":8490,"Ġcristalino":8491,"Ġresol":8492,"grafite":8493,"nutr":8494,"Ġbuf":8495,"Ġppia":8496,"uccine":8497,"Ġsullper":8498,"Ġortobom":8499,"boneco":8500,"Ġhalo":8501,"freegells":8502,"Ġsimple":8503,"Ġconcentrad":8504,"Ġpatcho":8505,"microondas":8506,"natu":8507,"Ġlooks":8508,"Ġhidrocauteriz":8509,"Ġhidrocauterizacao":8510,"Ġfrigid":8511,"difusor":8512,"24440":8513,"Ġpearl":8514,"Ġprocessado":8515,"pipoqueira":8516,"Ġxamego":8517,"07":8518,"235":8519,"bra":8520,"Ġpf":8521,"Ġpano":8522,"Ġmia":8523,"reo":8524,"Ġ224":8525,"Ġlos":8526,"Ġtila":8527,"Ġace":8528,"ense":8529,"Ġlapo":8530,"Ġklin":8531,"Ġ780":8532,"Ġ6400":8533,"Ġdeep":8534,"Ġjp":8535,"Ġjw":8536,"Ġmaric":8537,"reford":8538,"Ġtozzi":8539,"educa":8540,"Ġanj":8541,"moca":8542,"Ġ201":8543,"Ġraj":8544,"Ġras":8545,"amole":8546,"Ġriom":8547,"Ġsupro":8548,"lugar":8549,"Ġlacfree":8550,"Ġsoli":8551,"gee":8552,"bombons":8553,"corrente":8554,"Ġdiana":8555,"Ġbich":8556,"Ġsplit":8557,"Ġparaiso":8558,"Ġaperitivo":8559,"Ġenox":8560,"Ġparr":8561,"Ġrichest":8562,"Ġjaguard":8563,"palitos":8564,"7225":8565,"camom":8566,"Ġfunny":8567,"Ġdisplay":8568,"Ġheadphone":8569,"Ġaloha":8570,"ension":8571,"Ġmalz":8572,"Ġ1069":8573,"Ġtransluc":8574,"block":8575,"Ġmoscada":8576,"Ġmassage":8577,"Ġnasci":8578,"Ġrandon":8579,"Ġtecbril":8580,"toalhinhas":8581,"Ġprimogato":8582,"Ġ1764890810":8583,"Ġmexic":8584,"Ġalternativapet":8585,"Ġapollo":8586,"Ġantenados":8587,"Ġmalbec":8588,"Ġpermanente":8589,"Ġlapogee":8590,"educador":8591,"650":8592,"fem":8593,"fino":8594,"nia":8595,"Ġcran":8596,"Ġpico":8597,"Ġpunha":8598,"Ġplim":8599,"reiro":8600,"coalhada":8601,"tem":8602,"Ġdet":8603,"Ġdidi":8604,"Ġfidel":8605,"cake":8606,"capic":8607,"hos":8608,"Ġgro":8609,"ilios":8610,"macool":8611,"tijao":8612,"paco":8613,"quit":8614,"jazam":8615,"osos":8616,"Ġ617":8617,"lito":8618,"powe":8619,"Ġpaz":8620,"Ġcaro":8621,"2084":8622,"102":8623,"onage":8624,"Ġchile":8625,"Ġorq":8626,"Ġ060":8627,"queda":8628,"Ġcasill":8629,"marcador":8630,"bebe":8631,"Ġcorda":8632,"Ġstone":8633,"Ġspon":8634,"Ġvitay":8635,"Ġneutrac":8636,"Ġmelit":8637,"Ġmelhor":8638,"Ġturq":8639,"Ġjat":8640,"Ġcanto":8641,"Ġmandine":8642,"Ġharm":8643,"Ġfrites":8644,"2078":8645,"Ġ8414":8646,"Ġpiacava":8647,"Ġfuba":8648,"Ġmammaca":8649,"Ġlinguica":8650,"Ġalimentos":8651,"769":8652,"freezer":8653,"revistas":8654,"Ġ1764890769":8655,"Ġvioleta":8656,"fruteira":8657,"Ġantiaderen":8658,"Ġclimacool":8659,"Ġencorp":8660,"Ġencorpa":8661,"Ġ1764890845":8662,"gomets":8663,"Ġweiss":8664,"Ġinstantane":8665,"koleston":8666,"Ġpromocional":8667,"Ġnaturelle":8668,"dispenser":8669,"Ġchaves":8670,"Ġcometa":8671,"Ġalumileste":8672,"capicilin":8673,"Ġneutracucar":8674,"294":8675,"apa":8676,"jon":8677,"nor":8678,"run":8679,"tol":8680,"ype":8681,"Ġet":8682,"Ġcura":8683,"Ġcale":8684,"Ġsar":8685,"Ġslo":8686,"lao":8687,"Ġbilla":8688,"Ġbucas":8689,"alis":8690,"Ġdig":8691,"Ġtc":8692,"Ġtho":8693,"Ġgrip":8694,"Ġ490":8695,"Ġhb":8696,"Ġhp":8697,"Ġcamo":8698,"Ġlaco":8699,"icil":8700,"deg":8701,"legging":8702,"Ġ91":8703,"Ġmarico":8704,"Ġcolchao":8705,"Ġestojo":8706,"Ġprocom":8707,"Ġprovol":8708,"Ġamr":8709,"secador":8710,"122":8711,"Ġ09":8712,"Ġboy":8713,"queratina":8714,"poltrona":8715,"irin":8716,"Ġpringles":8717,"Ġmanc":8718,"ratil":8719,"Ġvege":8720,"Ġprotege":8721,"Ġplush":8722,"Ġgrelha":8723,"Ġrefin":8724,"mang":8725,"Ġredutor":8726,"costela":8727,"undia":8728,"Ġhereford":8729,"estrela":8730,"Ġcrocker":8731,"Ġpicant":8732,"anteigu":8733,"Ġpront":8734,"vitay":8735,"20791":8736,"coloral":8737,"Ġzoopers":8738,"Ġeletr":8739,"Ġsunset":8740,"Ġalecrim":8741,"24095":8742,"Ġextrusa":8743,"Ġtucupi":8744,"Ġcitricas":8745,"Ġglicerinado":8746,"Ġfuturo":8747,"Ġoriental":8748,"Ġbiquinho":8749,"Ġlubrif":8750,"Ġpolengu":8751,"Ġitl":8752,"Ġ78961025":8753,"Ġumedecido":8754,"Ġcobertura":8755,"Ġpremiu":8756,"Ġimpacto":8757,"Ġprogress":8758,"Ġchicabon":8759,"aceto":8760,"Ġjadefrog":8761,"Ġjeitosa":8762,"Ġbombastico":8763,"060":8764,"219":8765,"bx":8766,"dkt":8767,"fett":8768,"jandaia":8769,"pq":8770,"pu":8771,"sil":8772,"tubes":8773,"Ġciv":8774,"Ġcqueijo":8775,"Ġpanda":8776,"Ġpunch":8777,"Ġmom":8778,"Ġducha":8779,"Ġfiambre":8780,"Ġfhom":8781,"Ġtat":8782,"Ġtcl":8783,"Ġai":8784,"Ġaid":8785,"Ġaip":8786,"tais":8787,"tail":8788,"Ġnort":8789,"sakura":8790,"Ġroque":8791,"Ġali":8792,"Ġseres":8793,"lix":8794,"ceta":8795,"Ġpaisage":8796,"Ġyel":8797,"Ġamanhe":8798,"Ġbruto":8799,"Ġtripa":8800,"Ġchan":8801,"Ġchen":8802,"Ġsora":8803,"Ġmaravilha":8804,"Ġ245":8805,"Ġdamasco":8806,"Ġsolid":8807,"bob":8808,"Ġ2327":8809,"cuba":8810,"Ġdanio":8811,"Ġwhis":8812,"Ġpresente":8813,"Ġecono":8814,"Ġmican":8815,"Ġmagali":8816,"lacta":8817,"way":8818,"hee":8819,"Ġ26267225":8820,"Ġglam":8821,"Ġorganica":8822,"amendoa":8823,"Ġecob":8824,"Ġcooler":8825,"Ġdelicada":8826,"Ġhits":8827,"2302":8828,"Ġrandom":8829,"folhado":8830,"Ġpatr":8831,"Ġamacitel":8832,"micro":8833,"Ġveludo":8834,"Ġrigat":8835,"Ġlencol":8836,"disj":8837,"Ġpump":8838,"Ġ4000016":8839,"alcaparras":8840,"Ġestrut":8841,"Ġgordal":8842,"Ġmagnum":8843,"Ġintegrais":8844,"teau":8845,"Ġ78910790":8846,"suave":8847,"Ġberinjela":8848,"Ġradiance":8849,"Ġcabelos":8850,"Ġcondiciona":8851,"Ġamanhecer":8852,"Ġ2626722513":8853,"234":8854,"335":8855,"amo":8856,"mela":8857,"vig":8858,"Ġic":8859,"Ġpconf":8860,"Ġsque":8861,"coentro":8862,"Ġblac":8863,"Ġbsc":8864,"tequ":8865,"essor":8866,"cade":8867,"Ġmao":8868,"Ġpou":8869,"Ġkds":8870,"Ġ770":8871,"Ġjura":8872,"upinga":8873,"poxi":8874,"ucine":8875,"Ġpropolis":8876,"edredon":8877,"Ġcrm":8878,"Ġchocmor":8879,"cafeteira":8880,"Ġmanicure":8881,"rasilk":8882,"Ġcampila":8883,"fortes":8884,"Ġsabas":8885,"Ġprate":8886,"tonaliz":8887,"Ġpedig":8888,"Ġ1435":8889,"Ġchave":8890,"Ġchambinho":8891,"Ġprest":8892,"Ġmolh":8893,"elly":8894,"Ġtresem":8895,"massagem":8896,"Ġ789115":8897,"Ġfranci":8898,"Ġjames":8899,"Ġtablito":8900,"368":8901,"Ġpils":8902,"grain":8903,"Ġdisp":8904,"Ġtend":8905,"Ġpulver":8906,"Ġhelen":8907,"Ġkafe":8908,"Ġofra":8909,"Ġkerasilk":8910,"Ġdellofine":8911,"Ġsusp":8912,"flon":8913,"Ġvarry":8914,"Ġluminux":8915,"Ġsensation":8916,"Ġnestog":8917,"Ġrefrescan":8918,"absorvente":8919,"Ġgotissima":8920,"Ġamigas":8921,"Ġbrazil":8922,"Ġmandala":8923,"Ġlaguna":8924,"Ġazeitona":8925,"pelletti":8926,"Ġlusafilm":8927,"Ġrenaiss":8928,"Ġtropicais":8929,"Ġdinossa":8930,"Ġtilapia":8931,"Ġriomar":8932,"camomila":8933,"20843":8934,"aparelho":8935,"cadeado":8936,"310":8937,"hel":8938,"heta":8939,"leit":8940,"Ġplixo":8941,"lap":8942,"Ġdam":8943,"tap":8944,"tato":8945,"rod":8946,"hava":8947,"Ġvbx":8948,"iag":8949,"Ġcacarola":8950,"Ġkanina":8951,"Ġomar":8952,"remix":8953,"inamoto":8954,"panto":8955,"pec":8956,"Ġargol":8957,"Ġcarb":8958,"zag":8959,"Ġperla":8960,"semp":8961,"Ġboa":8962,"Ġsuprema":8963,"Ġacu":8964,"adora":8965,"Ġbif":8966,"gancho":8967,"Ġsuino":8968,"timus":8969,"Ġprofiss":8970,"Ġmultuso":8971,"Ġcrock":8972,"Ġpesad":8973,"237":8974,"Ġmili":8975,"palheta":8976,"Ġfinna":8977,"198":8978,"727":8979,"Ġflambynho":8980,"397":8981,"851":8982,"Ġajinamoto":8983,"Ġhorten":8984,"Ġcottage":8985,"Ġmarilux":8986,"Ġantartica":8987,"Ġdolca":8988,"nutella":8989,"Ġmost":8990,"Ġempanado":8991,"Ġbaconzitos":8992,"Ġsimpsons":8993,"Ġbulldog":8994,"bananada":8995,"Ġaguas":8996,"Ġaguiar":8997,"Ġdetergente":8998,"Ġ25226207":8999,"Ġemotion":9000,"Ġumedecida":9001,"Ġprimocao":9002,"Ġ25759228":9003,"whey":9004,"Ġinfinity":9005,"Ġbivol":9006,"Ġcocktail":9007,"Ġpreparo":9008,"Ġfettuccine":9009,"nutrilon":9010,"Ġtranslucido":9011,"Ġkafebom":9012,"havaianas":9013,"Ġ2575922848":9014,"950":9015,"flac":9016,"mina":9017,"vida":9018,"Ġmur":9019,"008":9020,"coc":9021,"artana":9022,"Ġdac":9023,"Ġfox":9024,"onetto":9025,"Ġagra":9026,"rop":9027,"rox":9028,"eios":9029,"Ġrelevo":9030,"Ġrevitay":9031,"downy":9032,"Ġcoador":9033,"Ġlab":9034,"Ġedi":9035,"icida":9036,"sador":9037,"lasalsa":9038,"Ġoc":9039,"Ġoex":9040,"Ġ618":9041,"Ġsedoso":9042,"Ġmarc":9043,"Ġmarmor":9044,"Ġbalada":9045,"Ġcarmin":9046,"Ġcaricia":9047,"Ġamen":9048,"Ġ255":9049,"Ġperfect":9050,"Ġsanss":9051,"Ġ208":9052,"inex":9053,"inete":9054,"azi":9055,"Ġramos":9056,"isoba":9057,"Ġregional":9058,"Ġmanch":9059,"antisse":9060,"Ġstudio":9061,"forado":9062,"Ġcompri":9063,"Ġapar":9064,"Ġgaucho":9065,"Ġespum":9066,"Ġ183":9067,"Ġparbo":9068,"3800":9069,"Ġjazam":9070,"Ġsorri":9071,"ichurri":9072,"Ġtapa":9073,"Ġtris":9074,"fortal":9075,"Ġtorcao":9076,"iroba":9077,"Ġlemon":9078,"unare":9079,"Ġgelatines":9080,"Ġbatuta":9081,"Ġaromas":9082,"Ġindica":9083,"Ġodorblock":9084,"Ġvolum":9085,"Ġmamma":9086,"Ġfamiliar":9087,"Ġsilvest":9088,"Ġcelus":9089,"Ġplenitude":9090,"bcn":9091,"Ġcoleg":9092,"fluor":9093,"luminaria":9094,"Ġtravesseiro":9095,"Ġdimension":9096,"Ġcebolasalsa":9097,"aperit":9098,"Ġjurupinga":9099,"24441":9100,"Ġaipim":9101,"Ġseresteiro":9102,"Ġyellow":9103,"Ġargolinha":9104,"430":9105,"avela":9106,"bem":9107,"cent":9108,"dsp":9109,"ec":9110,"kant":9111,"mitos":9112,"nol":9113,"ptador":9114,"qt":9115,"sco":9116,"zil":9117,"Ġ)":9118,"Ġia":9119,"Ġcana":9120,"Ġcerv":9121,"Ġmila":9122,"lak":9123,"combo":9124,"Ġ226":9125,"mazon":9126,"Ġcobre":9127,"Ġmai":9128,"Ġuniplast":9129,"Ġef":9130,"Ġeuca":9131,"itor":9132,"sada":9133,"usco":9134,"Ġok":9135,"cong":9136,"bacalhau":9137,"Ġjua":9138,"upp":9139,"Ġsekito":9140,"Ġmarinhas":9141,"Ġbaixa":9142,"Ġtodo":9143,"Ġambi":9144,"colch":9145,"Ġintel":9146,"Ġcolorgin":9147,"Ġleave":9148,"Ġadu":9149,"Ġclare":9150,"itas":9151,"22391":9152,"Ġrosqu":9153,"farmax":9154,"Ġmascara":9155,"Ġespir":9156,"vento":9157,"Ġfrutamazon":9158,"Ġpantenol":9159,"Ġvidr":9160,"Ġescura":9161,"Ġbrio":9162,"3000":9163,"Ġbrocolis":9164,"retto":9165,"Ġ4130":9166,"dias":9167,"Ġchampanhe":9168,"987":9169,"Ġ2566224":9170,"Ġlingua":9171,"Ġ2626722391":9172,"batedeira":9173,"micanga":9174,"Ġ2611322":9175,"Ġlenha":9176,"Ġfibras":9177,"Ġironage":9178,"24872":9179,"Ġspider":9180,"Ġmartini":9181,"oralb":9182,"defrizante":9183,"23879":9184,"Ġtaste":9185,"20352":9186,"preservativo":9187,"Ġcilind":9188,"Ġbiscoito":9189,"Ġrajska":9190,"tequila":9191,"Ġrenaissance":9192,"Ġfoxlux":9193,"Ġtapajos":9194,"Ġfrutamazonia":9195,"Ġ2566224140":9196,"046":9197,"316":9198,"540":9199,"517":9200,"auro":9201,"avent":9202,"cpo":9203,"div":9204,"uga":9205,"uque":9206,"intimus":9207,"Ġ136":9208,"Ġspra":9209,"anela":9210,"escada":9211,"Ġfm":9212,"Ġfos":9213,"oliva":9214,"Ġara":9215,"encia":9216,"chn":9217,"Ġresp":9218,"Ġindi":9219,"Ġlapis":9220,"itol":9221,"Ġipe":9222,"vado":9223,"Ġdemaq":9224,"resso":9225,"Ġjj":9226,"Ġjundia":9227,"Ġ128":9228,"Ġmoist":9229,"Ġplasti":9230,"Ġwor":9231,"Ġpaio":9232,"Ġchard":9233,"Ġpetis":9234,"Ġsantana":9235,"icado":9236,"Ġprec":9237,"2452":9238,"155":9239,"Ġdesamar":9240,"Ġ334026":9241,"boy":9242,"cucare":9243,"Ġfrescat":9244,"223800":9245,"cigoma":9246,"Ġmenu":9247,"Ġpratos":9248,"Ġmaxxi":9249,"lanca":9250,"Ġmedi":9251,"Ġlamina":9252,"zze":9253,"Ġtapete":9254,"Ġbelliz":9255,"Ġreserv":9256,"Ġorganizador":9257,"Ġflexivel":9258,"camisete":9259,"Ġbeaut":9260,"Ġ1350":9261,"Ġbatuque":9262,"Ġ43408":9263,"Ġ2566223800":9264,"craft":9265,"Ġfeliz":9266,"Ġtucunare":9267,"20837":9268,"capacho":9269,"Ġaromatiz":9270,"skf":9271,"Ġiod":9272,"Ġlollo":9273,"Ġemoji":9274,"fundo":9275,"2142":9276,"Ġcriacoes":9277,"Ġdiplo":9278,"Ġborboleta":9279,"2652452":9280,"brilhante":9281,"Ġbrochurao":9282,"Ġadvanced":9283,"chandelle":9284,"Ġsym":9285,"docile":9286,"Ġwars":9287,"Ġfluffy":9288,"Ġgrow":9289,"Ġprogressiva":9290,"Ġmarmoriz":9291,"avental":9292,"Ġjundiai":9293,"Ġ3340262652452":9294,"cucareir":9295,";#":9296,"clo":9297,"ghi":9298,"hileia":9299,"mu":9300,"mid":9301,"mental":9302,"sani":9303,"vr":9304,"Ġcferm":9305,"Ġmp":9306,"Ġtre":9307,"enc":9308,"Ġgen":9309,"Ġghee":9310,"maz":9311,"eld":9312,"Ġvcapili":9313,"velas":9314,"usc":9315,"Ġocu":9316,"Ġrodas":9317,"Ġ1200":9318,"Ġxix":9319,"Ġmarie":9320,"Ġdomama":9321,"ucia":9322,"Ġmoi":9323,"Ġrp":9324,"Ġfris":9325,"Ġamaro":9326,"Ġsola":9327,"Ġcocorico":9328,"Ġriv":9329,"243":9330,"24151":9331,"Ġgou":9332,"canton":9333,"Ġantiqueda":9334,"box":9335,"Ġmorchoc":9336,"Ġstyl":9337,"apres":9338,"Ġmeninas":9339,"Ġclc":9340,"lavad":9341,"Ġesport":9342,"Ġmelcacau":9343,"izad":9344,"Ġkitch":9345,"642":9346,"Ġcancao":9347,"isquete":9348,"pedal":9349,"Ġbolsa":9350,"Ġvanilla":9351,"Ġatrev":9352,"Ġhyda":9353,"Ġfarf":9354,"Ġbananamaca":9355,"Ġcolorex":9356,"20792":9357,"Ġamarg":9358,"Ġdisn":9359,"Ġjumbin":9360,"Ġcharque":9361,"Ġadorab":9362,"Ġinvisivel":9363,"Ġ2566220":9364,"Ġessence":9365,"Ġpromociona":9366,"Ġlargos":9367,"Ġ41414":9368,"Ġ41418":9369,"Ġhershey":9370,"Ġutilita":9371,"Ġculinaria":9372,"Ġsalsaret":9373,"danoninho":9374,"Ġbosch":9375,"Ġdsn":9376,"Ġgostosa":9377,"Ġumedec":9378,"Ġrefreskant":9379,"Ġchocoleite":9380,"Ġtulipa":9381,"Ġcarameliz":9382,"branco":9383,"Ġtetrac":9384,"Ġ2630724920":9385,"00671":9386,"Ġcuticula":9387,"Ġskyy":9388,"Ġmexicano":9389,"fettucine":9390,"cantoneira":9391,"Ġ2566220294":9392,"055":9393,"bitufo":9394,"cit":9395,"ecor":9396,"lets":9397,"Ġced":9398,"Ġccan":9399,"Ġcmoedor":9400,"Ġ218":9401,"Ġtuti":9402,"Ġtolete":9403,"Ġare":9404,"tabl":9405,"roup":9406,"Ġgli":9407,"Ġremo":9408,"Ġcau":9409,"pad":9410,"Ġpode":9411,"Ġ832":9412,"Ġobri":9413,"Ġib":9414,"Ġ713":9415,"Ġdemi":9416,"Ġxplast":9417,"Ġmargar":9418,"Ġsapato":9419,"Ġmode":9420,"Ġpacot":9421,"feu":9422,"Ġazed":9423,"Ġsou":9424,"Ġshine":9425,"Ġviver":9426,"Ġflocao":9427,"Ġravor":9428,"kibon":9429,"Ġprevin":9430,"gelo":9431,"Ġmanjer":9432,"2478":9433,"Ġ6015":9434,"Ġmonan":9435,"Ġantip":9436,"tintur":9437,"754":9438,"forro":9439,"Ġstil":9440,"Ġ1650":9441,"Ġ1635":9442,"Ġcald":9443,"Ġsupercong":9444,"20084":9445,"costa":9446,"banheira":9447,"Ġamapa":9448,"ortela":9449,"Ġbecel":9450,"Ġdiamond":9451,"Ġpiracanju":9452,"20798":9453,"purificador":9454,"pentear":9455,"Ġautocraft":9456,"Ġchiken":9457,"Ġagri":9458,"22412":9459,"9950":9460,"lysoform":9461,"Ġmodel":9462,"Ġbelaecor":9463,"Ġrevista":9464,"Ġsustagen":9465,"Ġcrespos":9466,"Ġandiroba":9467,"Ġprimeiro":9468,"Ġpseios":9469,"Ġagulha":9470,"Ġjacquet":9471,"Ġ7898409950":9472,"Ġbeijinho":9473,"facilit":9474,"Ġregatas":9475,"rugem":9476,"mochila":9477,"Ġpolipro":9478,"vastatina":9479,"Ġsanssini":9480,"04620":9481,"tablet":9482,"Ġobrigado":9483,"Ġpacotinho":9484,"810":9485,"ativ":9486,"hortela":9487,"zinha":9488,"Ġpsorv":9489,"Ġmanteigu":9490,"Ġsic":9491,"lack":9492,"anos":9493,"Ġfda":9494,"onita":9495,"cala":9496,"isma":9497,"Ġ313":9498,"ilun":9499,"abi":9500,"chibra":9501,"Ġregu":9502,"Ġrend":9503,"Ġcopal":9504,"Ġmaran":9505,"Ġec":9506,"quilhos":9507,"Ġpotato":9508,"ulos":9509,"saia":9510,"degas":9511,"Ġkoo":9512,"Ġope":9513,"Ġalh":9514,"macleg":9515,"Ġmarinh":9516,"Ġsailun":9517,"Ġnatut":9518,"Ġperi":9519,"602":9520,"Ġshort":9521,"Ġviking":9522,"Ġboavistense":9523,"Ġpalete":9524,"Ġchocmorango":9525,"Ġziza":9526,"Ġnoit":9527,"Ġlov":9528,"ratto":9529,"Ġacido":9530,"252":9531,"256":9532,"154":9533,"Ġptos":9534,"22788":9535,"Ġgallant":9536,"Ġstress":9537,"Ġpolp":9538,"Ġ354":9539,"Ġhochibra":9540,"Ġsuperf":9541,"Ġsuperio":9542,"2006":9543,"mancha":9544,"Ġpresid":9545,"Ġsclor":9546,"Ġparbol":9547,"Ġaspen":9548,"Ġolla":9549,"quaker":9550,"Ġsuavidade":9551,"impa":9552,"Ġcerd":9553,"Ġgarfi":9554,"Ġpeneira":9555,"Ġ41394":9556,"Ġfleischman":9557,"Ġfiest":9558,"Ġgatil":9559,"22494":9560,"Ġmosc":9561,"Ġ2349":9562,"desengordu":9563,"Ġesfolia":9564,"Ġinterf":9565,"due":9566,"Ġpiscina":9567,"Ġcrespa":9568,"sundown":9569,"Ġfhd":9570,"Ġrolinho":9571,"danone":9572,"Ġtqs":9573,"Ġ25924202":9574,"Ġitaliana":9575,"Ġ762230086":9576,"22574":9577,"Ġzigzag":9578,"desinfetante":9579,"finaliz":9580,"Ġfortalecimento":9581,"Ġdeliket":9582,"Ġencanto":9583,"Ġcaracol":9584,"Ġanticarie":9585,"gordura":9586,"Ġgraduada":9587,"Ġlazanha":9588,"Ġketchup":9589,"Ġserenata":9590,"Ġprovolone":9591,"Ġbivolt":9592,"Ġcopalimpa":9593,"Ġkook":9594,"038":9595,"jard":9596,"nas":9597,"pent":9598,"plus":9599,"trat":9600,"vid":9601,"Ġpn":9602,"ann":9603,"Ġbeijo":9604,"alc":9605,"Ġ289":9606,"Ġdk":9607,"Ġdisse":9608,"Ġlun":9609,"Ġluva":9610,"Ġ425":9611,"Ġ898":9612,"omet":9613,"Ġroxa":9614,"Ġmarmo":9615,"Ġmarcus":9616,"Ġcolman":9617,"oder":9618,"Ġarra":9619,"Ġrd":9620,"Ġrisc":9621,"Ġplasuti":9622,"Ġquente":9623,"Ġyazi":9624,"Ġ101":9625,"Ġperm":9626,"Ġchim":9627,"Ġ014":9628,"Ġlavita":9629,"Ġbot":9630,"Ġsalinas":9631,"mari":9632,"Ġsuporte":9633,"Ġmanix":9634,"Ġitam":9635,"Ġbonito":9636,"Ġpeti":9637,"Ġantiva":9638,"Ġantipulgas":9639,"boia":9640,"Ġbanze":9641,"Ġcarnecereais":9642,"Ġdanon":9643,"Ġ1400":9644,"keep":9645,"Ġkitkat":9646,"384":9647,"Ġolive":9648,"Ġ78963":9649,"Ġarrozina":9650,"456":9651,"191":9652,"Ġreser":9653,"gramp":9654,"Ġfradinho":9655,"presto":9656,"Ġretratil":9657,"Ġsurfe":9658,"Ġkolor":9659,"Ġadocado":9660,"enxagu":9661,"Ġhermet":9662,"20829":9663,"elimin":9664,"Ġmiojo":9665,"frita":9666,"Ġmalag":9667,"20756":9668,"Ġfornello":9669,"Ġelises":9670,"Ġportuguesa":9671,"Ġmaricota":9672,"Ġvegetais":9673,"Ġpatrulha":9674,"peccin":9675,"sanifill":9676,"Ġcedro":9677,"Ġsuperiore":9678,"Ġ7896336":9679,"fin":9680,"fan":9681,"faz":9682,"fica":9683,"gt":9684,"gal":9685,"iano":9686,"keit":9687,"lcool":9688,"qta":9689,"Ġcpo":9690,"Ġpsemp":9691,"Ġmun":9692,"0090":9693,"reche":9694,"Ġblast":9695,"esti":9696,"erios":9697,"Ġdano":9698,"Ġtara":9699,"caram":9700,"Ġ411":9701,"Ġlikeit":9702,"Ġree":9703,"Ġcogran":9704,"ranto":9705,"randa":9706,"Ġoz":9707,"grin":9708,"cema":9709,"Ġesta":9710,"Ġarosa":9711,"Ġrub":9712,"Ġplasdu":9713,"Ġamei":9714,"acet":9715,"acqua":9716,"urador":9717,"Ġpale":9718,"Ġteri":9719,"Ġtena":9720,"Ġcase":9721,"maria":9722,"Ġ26129":9723,"lue":9724,"Ġvega":9725,"Ġcapita":9726,"Ġleitecoco":9727,"Ġbancan":9728,"Ġfresco":9729,"Ġroseli":9730,"Ġsthair":9731,"apl":9732,"yaki":9733,"etame":9734,"Ġvitacoco":9735,"azeitonas":9736,"Ġnutric":9737,"torio":9738,"lenc":9739,"Ġdiatt":9740,"Ġcristina":9741,"Ġmascul":9742,"1746":9743,"Ġcrocks":9744,"Ġsaborosa":9745,"Ġsemest":9746,"Ġtaqta":9747,"Ġmilka":9748,"Ġabc":9749,"Ġcheerios":9750,"Ġcupcake":9751,"Ġfritex":9752,"Ġtrilux":9753,"Ġshakeira":9754,"cotonete":9755,"Ġgurf":9756,"Ġtorrez":9757,"gadores":9758,"Ġ8416":9759,"Ġconsul":9760,"Ġruf":9761,"Ġcatu":9762,"Ġponto":9763,"papeiro":9764,"dental":9765,"Ġingl":9766,"Ġcachead":9767,"Ġlavag":9768,"Ġlavavel":9769,"Ġrepair":9770,"Ġlingu":9771,"Ġpratika":9772,"almondegas":9773,"Ġpires":9774,"tadora":9775,"rachado":9776,"Ġnascido":9777,"20813":9778,"Ġtecido":9779,"frizz":9780,"Ġ22590":9781,"Ġobra":9782,"Ġgame":9783,"susp":9784,"21289":9785,"24564":9786,"livro":9787,"Ġizab":9788,"Ġnautical":9789,"Ġcpedal":9790,"Ġceramicas":9791,"churrasq":9792,"Ġhomema":9793,"Ġ2566223775":9794,"Ġiracema":9795,"Ġautomatic":9796,"Ġrussa":9797,"Ġcongelado":9798,"Ġducile":9799,"Ġmimoso":9800,"Ġgraphic":9801,"Ġbaratas":9802,"escumadeira":9803,"Ġleitoso":9804,"Ġhalogena":9805,"23542":9806,"bebedouro":9807,"Ġpolenguin":9808,"auroggets":9809,"Ġstilus":9810,"Ġmanteiguinha":9811,"Ġnatutrat":9812,"Ġtorrezno":9813,"518":9814,"614":9815,"cira":9816,"filho":9817,"hiper":9818,"ting":9819,"Ġcant":9820,"Ġctom":9821,"Ġpkibe":9822,"corac":9823,"Ġlj":9824,"Ġfume":9825,"Ġfeij":9826,"Ġaos":9827,"Ġnum":9828,"mai":9829,"maio":9830,"riz":9831,"Ġmacho":9832,"Ġinco":9833,"pag":9834,"dep":9835,"leza":9836,"batom":9837,"Ġjose":9838,"inafre":9839,"Ġmarila":9840,"uring":9841,"Ġfrgo":9842,"Ġtota":9843,"Ġwei":9844,"205":9845,"limpol":9846,"Ġtribal":9847,"suwa":9848,"Ġuti":9849,"Ġ0001":9850,"Ġterere":9851,"Ġelse":9852,"Ġsupremo":9853,"Ġintegr":9854,"241":9855,"Ġfortif":9856,"Ġantiodor":9857,"bozz":9858,"135":9859,"Ġmash":9860,"Ġterr":9861,"Ġbomcoco":9862,"Ġgrecia":9863,"Ġmaxill":9864,"trato":9865,"Ġbaston":9866,"Ġ186":9867,"Ġ1800":9868,"Ġlargengibre":9869,"Ġprix":9870,"Ġguan":9871,"Ġjalap":9872,"Ġpick":9873,"Ġcui":9874,"cappelletti":9875,"relogio":9876,"859":9877,"iliano":9878,"Ġmacban":9879,"Ġtentadora":9880,"Ġvazada":9881,"Ġcinta":9882,"Ġcinde":9883,"Ġbrasilidade":9884,"Ġhellmans":9885,"Ġlimonada":9886,"Ġleitbom":9887,"22410":9888,"Ġsensitiv":9889,"tablete":9890,"brigad":9891,"cravinho":9892,"passata":9893,"onnay":9894,"Ġrepelente":9895,"21444":9896,"Ġirwin":9897,"Ġsandwich":9898,"51364":9899,"Ġaquar":9900,"Ġmitsuwa":9901,"Ġtransparen":9902,"Ġmalagu":9903,"Ġcortar":9904,"Ġ2630724922":9905,"Ġsoleil":9906,"yakisoba":9907,"lasanheira":9908,"bronz":9909,"amolecedor":9910,"Ġsarja":9911,"Ġsiciliano":9912,"bozzano":9913,"Ġmaxilluring":9914,"339":9915,"410":9916,"bit":9917,"ccao":9918,"ere":9919,"fixa":9920,"menta":9921,"zan":9922,"Ġcmel":9923,"Ġspanto":9924,"ted":9925,"esia":9926,"Ġdir":9927,"Ġlet":9928,"mlp":9929,"Ġgema":9930,"Ġvei":9931,"504":9932,"rila":9933,"Ġreliqu":9934,"Ġcoton":9935,"Ġmaia":9936,"Ġuncle":9937,"pacott":9938,"Ġkizz":9939,"igas":9940,"grill":9941,"Ġdep":9942,"Ġdegra":9943,"Ġalb":9944,"Ġalhoc":9945,"Ġ998":9946,"guinha":9947,"pantenol":9948,"ceb":9949,"Ġrum":9950,"20320":9951,"Ġya":9952,"Ġ207":9953,"dermacyd":9954,"Ġbow":9955,"Ġminis":9956,"Ġpren":9957,"Ġnoir":9958,"Ġels":9959,"Ġelim":9960,"fruti":9961,"24729":9962,"Ġacuca":9963,"Ġacessor":9964,"Ġpegador":9965,"Ġdauc":9966,"bov":9967,"756":9968,"cort":9969,"foria":9970,"gelalcool":9971,"229":9972,"anthel":9973,"Ġpolir":9974,"Ġlarga":9975,"Ġaspar":9976,"Ġhibisco":9977,"radavel":9978,"Ġ179":9979,"Ġbolt":9980,"23376":9981,"Ġacopla":9982,"Ġfininha":9983,"Ġurug":9984,"Ġchefe":9985,"721746":9986,"Ġfriccao":9987,"whis":9988,"Ġdurat":9989,"Ġtorn":9990,"Ġcacaucereais":9991,"Ġcerdas":9992,"Ġrepos":9993,"Ġminty":9994,"Ġtarta":9995,"Ġtriktri":9996,"Ġrapida":9997,"Ġbolach":9998,"Ġgermen":9999,"desodex":10000,"Ġ41417":10001,"Ġmetalica":10002,"bug":10003,"Ġbacardi":10004,"22612":10005,"Ġ2630721746":10006,"20822":10007,"Ġmelanc":10008,"Ġestampada":10009,"21342":10010,"shoyu":10011,"Ġeuforia":10012,"iseptico":10013,"calcio":10014,"Ġninnoff":10015,"Ġchocolat":10016,"Ġladybug":10017,"Ġlaranjinha":10018,"Ġfirma":10019,"Ġnumeor":10020,"Ġcyber":10021,"Ġkuky":10022,"Ġ26139":10023,"finalizador":10024,"Ġcarbonell":10025,"Ġspiderman":10026,"waffer":10027,"Ġ231804":10028,"Ġbreat":10029,"Ġcacaua":10030,"23876":10031,"torrone":10032,"Ġbologna":10033,"Ġsmooth":10034,"Ġhotwheels":10035,"farinheiracucareir":10036,"Ġcaroco":10037,"Ġslog":10038,"Ġchardonnay":10039,"Ġxixi":10040,"Ġkitchen":10041,"Ġpolipropil":10042,"oderich":10043,"fritadeira":10044,"Ġgemada":10045,"Ġreliquia":10046,"pacottini":10047,"Ġalhoceb":10048,"Ġtriktrik":10049,"830":10050,"860":10051,"ciclo":10052,"fena":10053,"itivo":10054,"link":10055,"plo":10056,"plu":10057,"ster":10058,"Ġpush":10059,"Ġ189":10060,"Ġmemb":10061,"Ġssab":10062,"Ġbf":10063,"Ġbn":10064,"tebol":10065,"Ġdon":10066,"Ġdist":10067,"Ġfal":10068,"Ġtia":10069,"ond":10070,"Ġ348":10071,"rote":10072,"Ġ590":10073,"timate":10074,"Ġmatador":10075,"iador":10076,"Ġout":10077,"leave":10078,"osal":10079,"descol":10080,"Ġ645":10081,"lof":10082,"Ġjab":10083,"Ġjuli":10084,"Ġ4000":10085,"Ġesfr":10086,"ucco":10087,"ucrim":10088,"Ġmove":10089,"Ġbata":10090,"cris":10091,"Ġ307":10092,"809":10093,"Ġorloff":10094,"Ġsofa":10095,"joara":10096,"Ġ0000":10097,"Ġmarajoara":10098,"Ġinteira":10099,"Ġpasse":10100,"Ġmultialcool":10101,"colageno":10102,"gex":10103,"22153":10104,"talhar":10105,"Ġgracia":10106,"Ġpraf":10107,"Ġgama":10108,"brus":10109,"Ġflanela":10110,"Ġmicanga":10111,"Ġpanelas":10112,"Ġoli":10113,"wave":10114,"Ġcanf":10115,"Ġmaisena":10116,"656":10117,"Ġmatupi":10118,"Ġfaci":10119,"Ġtaref":10120,"Ġ193":10121,"Ġradical":10122,"Ġferrugem":10123,"Ġmrh":10124,"Ġoxigen":10125,"Ġmister":10126,"Ġbambo":10127,"Ġglicer":10128,"Ġmoranguinho":10129,"formers":10130,"Ġminhocas":10131,"Ġfutebol":10132,"Ġgerminex":10133,"Ġdoypack":10134,"bulos":10135,"Ġescovaplast":10136,"Ġtodecach":10137,"Ġsauvignon":10138,"nhoque":10139,"batedor":10140,"Ġyorgus":10141,"Ġshampcond":10142,"Ġpadrao":10143,"glut":10144,"Ġzorb":10145,"Ġfibratto":10146,"cremer":10147,"20757":10148,"Ġblong":10149,"Ġglobulos":10150,"terraba":10151,"Ġ7896237":10152,"Ġresolv":10153,"Ġinstantaneo":10154,"Ġcalec":10155,"icilina":10156,"Ġvolumes":10157,"Ġindigo":10158,"Ġocuis":10159,"Ġatrevidos":10160,"Ġfarfalle":10161,"Ġcapitao":10162,"Ġnumero":10163,"talharim":10164,"'s":10165,"076":10166,"434":10167,"511":10168,"965":10169,"iros":10170,"knorr":10171,"vis":10172,"Ġcent":10173,"Ġcpote":10174,"Ġmh":10175,"Ġsd":10176,"Ġls":10177,"Ġling":10178,"Ġfiamb":10179,"Ġflip":10180,"ont":10181,"iste":10182,"Ġ5230":10183,"Ġnr":10184,"unid":10185,"Ġgtl":10186,"Ġglass":10187,"iliss":10188,"Ġcovel":10189,"Ġinj":10190,"Ġcaj":10191,"legu":10192,"Ġroad":10193,"sabo":10194,"Ġjanda":10195,"Ġsext":10196,"Ġseven":10197,"Ġcoll":10198,"Ġsacar":10199,"Ġmovel":10200,"Ġtouch":10201,"Ġwess":10202,"Ġpac":10203,"Ġpam":10204,"2030":10205,"acker":10206,"Ġbrvd":10207,"Ġtrig":10208,"Ġtribo":10209,"sth":10210,"star":10211,"Ġbabo":10212,"Ġ090":10213,"farelo":10214,"Ġceto":10215,"Ġlotion":10216,"Ġbarcel":10217,"Ġdescafe":10218,"Ġantimancha":10219,"Ġgranul":10220,"cias":10221,"144":10222,"aptamil":10223,"896":10224,"116":10225,"1188":10226,"Ġdub":10227,"Ġgateau":10228,"Ġsugar":10229,"Ġpresu":10230,"Ġnutribase":10231,"ffl":10232,"Ġtanque":10233,"ells":10234,"hermo":10235,"Ġcraft":10236,"Ġaspirador":10237,"358":10238,"estri":10239,"Ġ2406":10240,"Ġultr":10241,"Ġabras":10242,"Ġbrothe":10243,"relux":10244,"ness":10245,"nesquik":10246,"balinha":10247,"Ġfunghi":10248,"cafet":10249,"Ġsimonetto":10250,"Ġeasypack":10251,"snacks":10252,"Ġpiquit":10253,"Ġcrescid":10254,"Ġestampado":10255,"Ġphilc":10256,"Ġousada":10257,"Ġondulado":10258,"Ġjohnnie":10259,"Ġtube":10260,"Ġnabisco":10261,"Ġnabisc":10262,"Ġanimad":10263,"Ġagulinha":10264,"Ġscoo":10265,"Ġ2512220764":10266,"esterol":10267,"Ġtriangulo":10268,"Ġhortel":10269,"Ġracing":10270,"Ġ26266247":10271,"Ġpurileve":10272,"Ġlipton":10273,"Ġreforcado":10274,"Ġ2575921188":10275,"bauducco":10276,"Ġcartoon":10277,"Ġursinhos":10278,"Ġmandioquinha":10279,"Ġnwd":10280,"Ġdiablo":10281,"Ġelastico":10282,"Ġdinossauro":10283,"Ġfdaq":10284,"Ġgarfield":10285,"Ġcinderela":10286,"Ġacessorios":10287,"anthelios":10288,"Ġcoveli":10289,"Ġpiquitucho":10290,"012":10291,"460":10292,"ble":10293,"line":10294,"sos":10295,"tran":10296,"trena":10297,"vil":10298,"Ġeros":10299,"Ġmito":10300,"Ġserv":10301,"Ġfeijo":10302,"Ġ575":10303,"Ġ565":10304,"Ġgb":10305,"Ġgiz":10306,"hael":10307,"501":10308,"50368":10309,"Ġ470":10310,"Ġcox":10311,"Ġcomari":10312,"Ġht":10313,"pacol":10314,"Ġ895":10315,"Ġkite":10316,"Ġkirin":10317,"Ġ620":10318,"Ġrome":10319,"Ġalpi":10320,"Ġ1264":10321,"Ġxyl":10322,"Ġcolcha":10323,"Ġmoinho":10324,"Ġmoura":10325,"Ġbaggio":10326,"Ġtomada":10327,"Ġneslte":10328,"1030":10329,"Ġchico":10330,"Ġpetr":10331,"1246":10332,"Ġqz":10333,"Ġrain":10334,"Ġrica":10335,"Ġ153":10336,"Ġacel":10337,"Ġcabe":10338,"Ġpeach":10339,"Ġmorfo":10340,"Ġmorlte":10341,"Ġmast":10342,"Ġmastro":10343,"Ġmassas":10344,"Ġfrutta":10345,"Ġpolia":10346,"Ġpolli":10347,"Ġfemina":10348,"Ġmaxprotect":10349,"lanterna":10350,"Ġsuco":10351,"Ġbascu":10352,"Ġespresso":10353,"Ġsilica":10354,"Ġbeza":10355,"timentos":10356,"Ġ171":10357,"Ġplaza":10358,"Ġ8000":10359,"Ġabnt":10360,"capri":10361,"Ġatc":10362,"Ġbelize":10363,"371":10364,"Ġaveiapassa":10365,"4871":10366,"Ġbrancas":10367,"dyo":10368,"Ġgrd":10369,"graxa":10370,"Ġdecker":10371,"Ġtenta":10372,"Ġ413316":10373,"giovanna":10374,"223339":10375,"Ġisolante":10376,"Ġ2566223339":10377,"Ġsust":10378,"Ġvinigas":10379,"Ġseios":10380,"Ġchandon":10381,"Ġsticks":10382,"bicarb":10383,"Ġvog":10384,"Ġrefogado":10385,"Ġshower":10386,"Ġspring":10387,"Ġisabel":10388,"skarlof":10389,"Ġdipir":10390,"Ġlambrus":10391,"folhas":10392,"Ġtassel":10393,"sobrec":10394,"Ġsinte":10395,"Ġdydyo":10396,"Ġoregano":10397,"Ġ789802439":10398,"Ġfrigideira":10399,"Ġmalzbier":10400,"Ġwhiska":10401,"Ġpouche":10402,"Ġprateada":10403,"Ġespumil":10404,"vrm":10405,"Ġgouter":10406,"Ġ789633600":10407,"Ġcacauavela":10408,"Ġbarcelona":10409,"Ġmitoka":10410,"022":10411,"7100":10412,"ah":10413,"fila":10414,"gp":10415,"hinho":10416,"jgo":10417,"morte":10418,"uxa":10419,"ralo":10420,"inol":10421,"Ġsante":10422,"anel":10423,"copos":10424,"Ġtime":10425,"Ġgos":10426,"hado":10427,"tima":10428,"Ġrei":10429,"Ġmaral":10430,"etini":10431,"sacos":10432,"Ġoq":10433,"Ġiris":10434,"descolorante":10435,"Ġ625":10436,"ome":10437,"Ġrost":10438,"Ġalvej":10439,"Ġjd":10440,"Ġjud":10441,"Ġjelly":10442,"Ġsereia":10443,"Ġmariz":10444,"Ġcoloni":10445,"pantol":10446,"Ġespo":10447,"Ġwil":10448,"Ġwok":10449,"Ġanita":10450,"Ġamox":10451,"Ġ304":10452,"Ġpers":10453,"Ġbry":10454,"sete":10455,"Ġinfa":10456,"Ġ040":10457,"Ġ030":10458,"Ġ070":10459,"istro":10460,"amori":10461,"uxo":10462,"quetao":10463,"Ġ158":10464,"Ġ1571":10465,"iru":10466,"Ġcastra":10467,"filo":10468,"Ġprisma":10469,"luz":10470,"chocola":10471,"Ġveda":10472,"Ġdesign":10473,"espinafre":10474,"botijao":10475,"Ġmorcer":10476,"ibon":10477,"Ġgalv":10478,"Ġspim":10479,"Ġpirass":10480,"Ġ6005":10481,"Ġcomporta":10482,"Ġcominho":10483,"manga":10484,"banh":10485,"Ġeno":10486,"Ġmolhado":10487,"Ġmedidor":10488,"vinhos":10489,"pices":10490,"ificante":10491,"Ġbee":10492,"Ġolit":10493,"Ġ178":10494,"Ġcamel":10495,"Ġcamido":10496,"Ġ287":10497,"Ġjapi":10498,"Ġcanas":10499,"Ġcanforado":10500,"Ġesfrelux":10501,"23223":10502,"Ġultimate":10503,"Ġgoiabada":10504,"Ġatol":10505,"guarda":10506,"Ġbello":10507,"Ġursa":10508,"lowtex":10509,"Ġpenha":10510,"Ġkelcat":10511,"Ġraphael":10512,"Ġlistras":10513,"protein":10514,"Ġfast":10515,"Ġalfab":10516,"Ġmosquetao":10517,"Ġempan":10518,"Ġmetallic":10519,"rolinho":10520,"Ġcgp":10521,"Ġsimpl":10522,"Ġdelloplast":10523,"Ġgeomet":10524,"Ġnovacor":10525,"Ġderma":10526,"Ġsumme":10527,"Ġescuretto":10528,"Ġlolita":10529,"Ġemocoes":10530,"Ġamanteigad":10531,"Ġcenbronz":10532,"Ġcriativa":10533,"assent":10534,"Ġcarbono":10535,"Ġnautique":10536,"00672":10537,"Ġaffa":10538,"Ġrocklets":10539,"Ġtemperado":10540,"Ġinsetos":10541,"Ġantissept":10542,"Ġbrspices":10543,"Ġlustro":10544,"etiqueta":10545,"Ġrefrescancia":10546,"rodabr":10547,"Ġsilvestres":10548,"ventosa":10549,"Ġadorable":10550,"Ġmalagueta":10551,"Ġpolipropileno":10552,"Ġjandainha":10553,"Ġwessel":10554,"Ġbezavel":10555,"mortein":10556,"Ġsantepel":10557,"Ġamoxicilina":10558,"8220":10559,"cres":10560,"cica":10561,"dd":10562,"fel":10563,"glu":10564,"jolo":10565,"nis":10566,"nic":10567,"ood":10568,"pran":10569,"rq":10570,"sq":10571,"tuchaua":10572,"vir":10573,"Ġmuca":10574,"Ġblan":10575,"oro":10576,"Ġlino":10577,"mlh":10578,"Ġfant":10579,"Ġtha":10580,"Ġtim":10581,"ong":10582,"cata":10583,"Ġabril":10584,"tag":10585,"rodinho":10586,"ener":10587,"Ġgp":10588,"ilizado":10589,"maxi":10590,"Ġvs":10591,"505":10592,"Ġcopos":10593,"Ġinje":10594,"Ġeur":10595,"Ġix":10596,"descas":10597,"Ġxd":10598,"panque":10599,"imann":10600,"Ġconfe":10601,"Ġconfei":10602,"urno":10603,"Ġbaiano":10604,"Ġplasb":10605,"Ġylan":10606,"Ġdentrat":10607,"Ġcheia":10608,"Ġ2010":10609,"603":10610,"Ġsoquete":10611,"colesterol":10612,"Ġtradi":10613,"Ġinfant":10614,"mbu":10615,"suqueira":10616,"701":10617,"Ġchocchoc":10618,"Ġelg":10619,"aditivo":10620,"Ġcaps":10621,"Ġcabide":10622,"Ġmormar":10623,"itador":10624,"221246":10625,"Ġrosani":10626,"Ġstilo":10627,"entes":10628,"Ġpalmito":10629,"Ġfruttare":10630,"Ġgrape":10631,"Ġ60040":10632,"arrozina":10633,"Ġamare":10634,"Ġsilvo":10635,"Ġlaminado":10636,"catch":10637,"catup":10638,"pick":10639,"Ġbethe":10640,"Ġfranca":10641,"Ġbrit":10642,"Ġfaxe":10643,"Ġbauny":10644,"clin":10645,"kova":10646,"ubim":10647,"23809":10648,"Ġcarel":10649,"Ġfaces":10650,"Ġtai":10651,"Ġfinish":10652,"Ġ1254":10653,"ilete":10654,"casca":10655,"Ġorganizadora":10656,"Ġkarit":10657,"Ġ41329":10658,"Ġtartar":10659,"688":10660,"Ġfluir":10661,"Ġfleischimann":10662,"Ġpime":10663,"brinorte":10664,"Ġmallo":10665,"Ġmoviment":10666,"Ġfusao":10667,"Ġ567":10668,"Ġamazongurt":10669,"hibisco":10670,"Ġ2512221246":10671,"teclado":10672,"glace":10673,"Ġbondu":10674,"Ġluzia":10675,"Ġnascid":10676,"22696":10677,"adesivo":10678,"Ġprincesa":10679,"Ġfeelclean":10680,"licerina":10681,"Ġ26265246":10682,"Ġphilips":10683,"Ġplatinado":10684,"Ġ2611320":10685,"Ġfondue":10686,"Ġ414026":10687,"Ġexpresso":10688,"claros":10689,"Ġcorujas":10690,"Ġvfm":10691,"Ġtijolo":10692,"Ġ2575922696":10693,"Ġintima":10694,"Ġmaizen":10695,"Ġ2512220829":10696,"Ġlixao":10697,"Ġ23713":10698,"Ġmaquina":10699,"Ġcotonetes":10700,"Ġjontex":10701,"Ġsafadao":10702,"Ġwool":10703,"powerade":10704,"cetamol":10705,"Ġdamm":10706,"tapio":10707,"Ġperlage":10708,"Ġhortencias":10709,"Ġedition":10710,"Ġdiplomata":10711,"apresunt":10712,"Ġhomemade":10713,"Ġjalapeno":10714,"fenaco":10715,"Ġmucambo":10716,"Ġinjetemp":10717,"050":10718,"5200":10719,"aid":10720,"bt":10721,"fum":10722,"gs":10723,"lil":10724,"peit":10725,"sm":10726,"zen":10727,"Ġcine":10728,"Ġpino":10729,"Ġpend":10730,"Ġpchant":10731,"ineira":10732,"Ġsinger":10733,"00901":10734,"Ġbod":10735,"Ġbur":10736,"terere":10737,"arisco":10738,"Ġ213":10739,"Ġdf":10740,"Ġdpg":10741,"Ġfur":10742,"oliv":10743,"Ġalas":10744,"hoyu":10745,"Ġ535":10746,"Ġglac":10747,"Ġglow":10748,"aby":10749,"Ġ4250":10750,"Ġhip":10751,"Ġhud":10752,"Ġep":10753,"dere":10754,"Ġimag":10755,"Ġ6100":10756,"Ġ1272":10757,"Ġsear":10758,"lirio":10759,"Ġtrata":10760,"gavete":10761,"Ġmotiv":10762,"Ġrv":10763,"Ġtoale":10764,"Ġcarnes":10765,"20729":10766,"Ġquei":10767,"Ġyupp":10768,"Ġtrim":10769,"Ġtripe":10770,"ami":10771,"Ġzl":10772,"Ġmultigrao":10773,"Ġpega":10774,"book":10775,"cula":10776,"Ġmormai":10777,"5000":10778,"Ġtermo":10779,"novo":10780,"Ġpramesa":10781,"Ġparacetamol":10782,"Ġcomfor":10783,"Ġapim":10784,"Ġgaucha":10785,"Ġredinha":10786,"Ġbrasso":10787,"deirao":10788,"328":10789,"Ġtange":10790,"lacto":10791,"ppes":10792,"Ġassept":10793,"Ġjato":10794,"177":10795,"Ġglx":10796,"Ġcromado":10797,"Ġpesse":10798,"Ġpican":10799,"Ġtramontin":10800,"Ġtamaz":10801,"Ġ273":10802,"ervilhamilho":10803,"ution":10804,"Ġsortid":10805,"Ġmika":10806,"Ġ657":10807,"399":10808,"Ġcatty":10809,"Ġoneway":10810,"Ġprince":10811,"22334":10812,"Ġkanec":10813,"Ġingleza":10814,"Ġqjos":10815,"blue":10816,"regador":10817,"Ġsgluten":10818,"Ġavelacacau":10819,"inoshoyu":10820,"Ġassadura":10821,"Ġ78960037":10822,"Ġzaz":10823,"Ġhidrotonico":10824,"Ġescuros":10825,"bbit":10826,"Ġdelicata":10827,"Ġfinosclaros":10828,"Ġrestaur":10829,"Ġ26265247":10830,"Ġplenus":10831,"Ġrolos":10832,"Ġsilicon":10833,"Ġ1118220":10834,"Ġstylo":10835,"Ġ762230099":10836,"Ġgulosos":10837,"magic":10838,"cuscuzeira":10839,"Ġaneis":10840,"Ġcyt":10841,"Ġsalsicha":10842,"Ġ789107900":10843,"Ġchuv":10844,"Ġcombinada":10845,"Ġtemperada":10846,"00673":10847,"Ġsobrepor":10848,"cessaria":10849,"Ġ2566223761":10850,"Ġfolhas":10851,"Ġ2599221":10852,"Ġ2599222":10853,"Ġ2800923":10854,"Ġvariedade":10855,"Ġpatchoul":10856,"Ġpicotado":10857,"puran":10858,"Ġmoment":10859,"Ġ78911500":10860,"Ġcompridos":10861,"Ġlaminados":10862,"Ġrevistas":10863,"Ġprimeiros":10864,"Ġteriyaki":10865,"Ġlinguine":10866,"Ġdaucy":10867,"Ġduratta":10868,"Ġscooby":10869,"Ġkitekat":10870,"Ġbasculante":10871,"Ġolitalia":10872,"Ġcanastra":10873,"Ġwoolite":10874,"Ġhudson":10875,"gaveteiro":10876,"Ġmotivus":10877,"Ġyuppie":10878,"Ġasseptgel":10879,"Ġtamazias":10880,"850":10881,"aca":10882,"cran":10883,"cino":10884,"fle":10885,"fib":10886,"iana":10887,"pta":10888,"utica":10889,"vick":10890,"Ġid":10891,"Ġent":10892,"Ġcmexedor":10893,"Ġpig":10894,"Ġppg":10895,"Ġpcalc":10896,"inela":10897,"cose":10898,"Ġbuz":10899,"Ġdtv":10900,"Ġfine":10901,"Ġfibra":10902,"Ġtree":10903,"ons":10904,"Ġador":10905,"Ġnt":10906,"hare":10907,"rit":10908,"Ġcof":10909,"Ġcombo":10910,"Ġcoast":10911,"Ġlat":10912,"Ġevo":10913,"quad":10914,"Ġpocal":10915,"Ġoe":10916,"Ġ795":10917,"cont":10918,"Ġalp":10919,"Ġjimo":10920,"inad":10921,"inaxpe":10922,"Ġsetim":10923,"404":10924,"Ġtras":10925,"eiteiro":10926,"Ġestampa":10927,"Ġarrab":10928,"Ġris":10929,"Ġbala":10930,"Ġbaco":10931,"Ġfrc":10932,"Ġproven":10933,"Ġpert":10934,"limpeza":10935,"101":10936,"Ġbris":10937,"Ġ202":10938,"colh":10939,"Ġ012":10940,"Ġ015":10941,"sual":10942,"derfrog":10943,"Ġnevado":10944,"chambinho":10945,"izante":10946,"Ġ1550":10947,"Ġsalted":10948,"Ġ4020":10949,"filt":10950,"Ġloko":10951,"Ġacz":10952,"Ġmontan":10953,"1500":10954,"Ġdescas":10955,"beber":10956,"cantil":10957,"Ġsolle":10958,"145":10959,"148":10960,"Ġvitamilho":10961,"Ġcominh":10962,"Ġcerea":10963,"Ġmacaxeira":10964,"brinha":10965,"cosul":10966,"Ġestre":10967,"Ġnutritiva":10968,"Ġsensual":10969,"Ġlami":10970,"Ġbeg":10971,"Ġsonhare":10972,"Ġ753":10973,"Ġfarelo":10974,"Ġjaderfrog":10975,"655":10976,"Ġconfeiteiro":10977,"Ġfofit":10978,"Ġcamomi":10979,"Ġhercosul":10980,"Ġamendoin":10981,"Ġfunc":10982,"cocada":10983,"Ġgarfo":10984,"salamitos":10985,"Ġvaidos":10986,"Ġpoderos":10987,"Ġfleischm":10988,"555":10989,"Ġlevorin":10990,"embor":10991,"Ġporce":10992,"Ġlunae":10993,"Ġsunga":10994,"Ġmoder":10995,"perfetti":10996,"Ġcheeto":10997,"Ġhidrofilo":10998,"Ġpinta":10999,"Ġitalian":11000,"Ġmboni":11001,"Ġinterna":11002,"flut":11003,"ntg":11004,"Ġcintron":11005,"Ġaguac":11006,"Ġkerococo":11007,"Ġbossa":11008,"Ġnossa":11009,"Ġqdelic":11010,"Ġpoliester":11011,"Ġ76223008":11012,"Ġschmid":11013,"Ġdesmaiado":11014,"Ġ7917":11015,"Ġhigienica":11016,"Ġ18560":11017,"chiken":11018,"Ġ41234":11019,"aromatizan":11020,"Ġbaldico":11021,"Ġsamblue":11022,"20354":11023,"Ġneutrali":11024,"Ġoptimum":11025,"Ġcross":11026,"Ġcasillero":11027,"Ġbifas":11028,"Ġclareador":11029,"Ġmediter":11030,"citrus":11031,"Ġlovely":11032,"Ġesfoliacao":11033,"03886":11034,"Ġromeu":11035,"Ġjudy":11036,"Ġaffair":11037,"rodabrisa":11038,"Ġconfeti":11039,"Ġylang":11040,"catupiry":11041,"pickles":11042,"Ġvaidosas":11043,"Ġschmidt":11044,"080":11045,"313":11046,"326":11047,"672":11048,"bet":11049,"cli":11050,"dona":11051,"fg":11052,"fus":11053,"fig":11054,"iba":11055,"metal":11056,"mdl":11057,"nica":11058,"ump":11059,"vital":11060,"xab":11061,"Ġppao":11062,"Ġpicole":11063,"Ġskova":11064,"Ġbli":11065,"tele":11066,"ariel":11067,"ercial":11068,"Ġderm":11069,"Ġdisquete":11070,"Ġfht":11071,"Ġ345":11072,"Ġ525":11073,"Ġnig":11074,"Ġgia":11075,"Ġgang":11076,"Ġ472":11077,"Ġrey":11078,"Ġread":11079,"Ġmaior":11080,"iata":11081,"quim":11082,"icho":11083,"sag":11084,"Ġ6500":11085,"Ġjub":11086,"Ġxl":11087,"Ġsedu":11088,"Ġcolheres":11089,"Ġdoces":11090,"Ġdocigoma":11091,"Ġconv":11092,"ucer":11093,"Ġmous":11094,"Ġcaroc":11095,"20688":11096,"Ġquat":11097,"Ġnatucrim":11098,"Ġanil":11099,"Ġ1012":11100,"Ġversa":11101,"Ġverona":11102,"Ġpetbril":11103,"Ġvie":11104,"703":11105,"Ġbob":11106,"Ġpalmo":11107,"polen":11108,"polenta":11109,"Ġ4048":11110,"Ġzinho":11111,"Ġnolac":11112,"Ġlog":11113,"Ġcampi":11114,"Ġcampes":11115,"adeira":11116,"Ġcables":11117,"Ġdescolo":11118,"Ġadi":11119,"Ġbanchoc":11120,"bombril":11121,"ibril":11122,"Ġbij":11123,"potes":11124,"Ġmass":11125,"Ġ6001":11126,"Ġmento":11127,"Ġprac":11128,"Ġcomercial":11129,"Ġapimenta":11130,"891":11131,"mantimentos":11132,"Ġbasi":11133,"Ġsilenc":11134,"Ġcondimento":11135,"Ġfortlon":11136,"Ġjasmi":11137,"Ġsosso":11138,"Ġbrie":11139,"Ġjam":11140,"Ġcaneta":11141,"Ġbebezinho":11142,"hex":11143,"Ġtanger":11144,"2378":11145,"452":11146,"radora":11147,"Ġ17570":11148,"mmusc":11149,"Ġherb":11150,"Ġcostazz":11151,"qjos":11152,"Ġmidea":11153,"Ġflc":11154,"Ġconser":11155,"Ġballan":11156,"Ġtutano":11157,"Ġfecha":11158,"Ġppgg":11159,"Ġcottonbb":11160,"Ġvitaminado":11161,"Ġmelao":11162,"Ġconfortsec":11163,"Ġgatinha":11164,"Ġ7896016":11165,"Ġtortinhas":11166,"Ġmassagem":11167,"revis":11168,"Ġoleosidade":11169,"Ġsimply":11170,"Ġpolenghinho":11171,"Ġmilkshake":11172,"Ġtiras":11173,"Ġlowcuc":11174,"Ġleblanc":11175,"maracuja":11176,"chiclets":11177,"Ġmelanina":11178,"Ġeduca":11179,"Ġdomus":11180,"Ġaguia":11181,"orizador":11182,"Ġauth":11183,"Ġhigiene":11184,"Ġvasco":11185,"Ġanato":11186,"Ġpacote":11187,"peitoral":11188,"sustagen":11189,"Ġrenov":11190,"Ġclock":11191,"51354":11192,"Ġ2575920688":11193,"Ġ8311":11194,"livr":11195,"livros":11196,"serve":11197,"Ġrisot":11198,"cartucho":11199,"Ġliberdade":11200,"Ġinseticida":11201,"embarac":11202,"Ġsalgadinho":11203,"Ġsementes":11204,"Ġantissep":11205,"Ġmems":11206,"Ġbubble":11207,"Ġfidelinho":11208,"23480":11209,"Ġrespira":11210,"Ġpromocionais":11211,"Ġplasduran":11212,"Ġmasculino":11213,"Ġfaleiro":11214,"Ġoxigenio":11215,"Ġcetoconazol":11216,"Ġdipirona":11217,"acai":11218,"480":11219,"ceno":11220,"dil":11221,"kinder":11222,"pon":11223,"piz":11224,"rrel":11225,"ypioca":11226,"Ġcmolho":11227,"Ġmante":11228,"Ġspel":11229,"Ġstemp":11230,"cole":11231,"Ġbm":11232,"Ġburguer":11233,"Ġbumb":11234,"aliv":11235,"Ġ211":11236,"Ġdeita":11237,"Ġlual":11238,"Ġfund":11239,"ony":11240,"Ġarau":11241,"Ġafiar":11242,"Ġapolo":11243,"Ġatenol":11244,"Ġ318":11245,"tacho":11246,"Ġgina":11247,"ilia":11248,"main":11249,"aspar":11250,"Ġlit":11251,"Ġliga":11252,"Ġcoado":11253,"Ġinoc":11254,"Ġhand":11255,"Ġhct":11256,"Ġcairu":11257,"sach":11258,"Ġ819":11259,"decor":11260,"ust":11261,"Ġipi":11262,"oster":11263,"Ġ643":11264,"Ġ925":11265,"guim":11266,"pompom":11267,"Ġconico":11268,"Ġespelho":11269,"Ġmocinha":11270,"Ġ30000":11271,"Ġwit":11272,"shs":11273,"acuca":11274,"Ġ1050":11275,"104":11276,"Ġorga":11277,"Ġsoq":11278,"Ġ4075":11279,"Ġnobil":11280,"frisco":11281,"Ġlimpador":11282,"Ġorigi":11283,"Ġorigine":11284,"Ġbonder":11285,"Ġpec":11286,"cant":11287,"Ġantica":11288,"Ġprotection":11289,"iban":11290,"poteacuc":11291,"Ġgranada":11292,"forever":11293,"Ġgrampo":11294,"Ġblc":11295,"adaptador":11296,"brilha":11297,"162":11298,"167":11299,"Ġenxa":11300,"Ġencosta":11301,"Ġprese":11302,"Ġnutrire":11303,"Ġnutrido":11304,"Ġcolavita":11305,"Ġcitty":11306,"Ġtanga":11307,"Ġasm":11308,"Ġbeets":11309,"Ġolimp":11310,"Ġhidrad":11311,"178":11312,"Ġtabua":11313,"spr":11314,"tropic":11315,"Ġradcau":11316,"Ġmdgd":11317,"Ġuru":11318,"Ġboxe":11319,"Ġcupim":11320,"balsa":11321,"Ġmaeter":11322,"Ġgermain":11323,"pimentao":11324,"Ġvegas":11325,"856":11326,"Ġajinom":11327,"Ġmacio":11328,"hidra":11329,"Ġdisc":11330,"ticidas":11331,"Ġcapricho":11332,"Ġquimic":11333,"Ġ133":11334,"Ġborg":11335,"Ġpelucia":11336,"Ġlistrado":11337,"Ġeletrico":11338,"Ġkalass":11339,"ratadina":11340,"224754":11341,"Ġmetalizada":11342,"Ġkerat":11343,"conser":11344,"Ġhidroca":11345,"Ġpinguim":11346,"Ġintern":11347,"Ġsusten":11348,"Ġrendado":11349,"Ġcury":11350,"Ġgarrafapoteacuc":11351,"Ġdivert":11352,"Ġmuito":11353,"Ġguarany":11354,"Ġkeraform":11355,"Ġcerejlavanda":11356,"Ġcollect":11357,"Ġ25924247":11358,"Ġexcelencia":11359,"Ġmiramar":11360,"colomba":11361,"Ġtyrrel":11362,"inseticidas":11363,"Ġfirme":11364,"Ġlyso":11365,"Ġsegredos":11366,"Ġwickb":11367,"clara":11368,"Ġmitto":11369,"Ġathus":11370,"tortinha":11371,"tortilha":11372,"Ġcaramelizada":11373,"Ġinsta":11374,"Ġrelaxante":11375,"Ġcacaucer":11376,"00681":11377,"Ġhollywood":11378,"Ġalternativo":11379,"Ġafter":11380,"benja":11381,"churrasqueira":11382,"preservati":11383,"Ġ411554":11384,"campos":11385,"chimarrao":11386,"Ġ2618224754":11387,"bobina":11388,"Ġ232724":11389,"Ġparboilizado":11390,"Ġsalsaretti":11391,"Ġopereta":11392,"Ġozli":11393,"Ġinglesa":11394,"Ġjulieta":11395,"Ġtarefa":11396,"Ġcoxinha":11397,"capricche":11398,"Ġcinema":11399,"emborrachado":11400,"colecao":11401,"Ġatenolol":11402,"acucareiro":11403,"Ġnobilis":11404,"Ġkalassi":11405,"Ġtyrrells":11406,"720":11407,"epa":11408,"fura":11409,"gy":11410,"gina":11411,"ku":11412,"rinhas":11413,"trig":11414,"tone":11415,"xia":11416,"Ġcic":11417,"Ġcim":11418,"Ġcunha":11419,"Ġpun":11420,"Ġpne":11421,"Ġmestri":11422,"lat":11423,"Ġbrado":11424,"Ġbens":11425,"oria":11426,"Ġfes":11427,"olders":11428,"Ġafri":11429,"Ġgg":11430,"toq":11431,"Ġvh":11432,"Ġvta":11433,"Ġvda":11434,"chiban":11435,"Ġlite":11436,"Ġcoo":11437,"ranga":11438,"Ġecol":11439,"Ġpoc":11440,"utcho":11441,"usp":11442,"Ġkdl":11443,"Ġokos":11444,"Ġichiban":11445,"Ġ611":11446,"Ġalla":11447,"resis":11448,"guabi":11449,"guicho":11450,"Ġjet":11451,"Ġ1282":11452,"Ġsete":11453,"Ġconto":11454,"Ġmount":11455,"Ġtoal":11456,"Ġwi":11457,"Ġcaribe":11458,"embal":11459,"Ġquar":11460,"Ġaman":11461,"mousse":11462,"colcha":11463,"sequilhos":11464,"Ġsholders":11465,"Ġvieira":11466,"mby":11467,"7024":11468,"chamyto":11469,"Ġbotox":11470,"Ġ003":11471,"Ġsalto":11472,"gele":11473,"Ġnivela":11474,"sorren":11475,"90280":11476,"Ġbranque":11477,"Ġsolei":11478,"Ġsoltos":11479,"Ġcaldinho":11480,"Ġgelcampos":11481,"cartela":11482,"Ġvitacapili":11483,"Ġ147":11484,"Ġapli":11485,"Ġgave":11486,"Ġ23098":11487,"Ġenc":11488,"Ġpresunt":11489,"Ġcolav":11490,"Ġsilk":11491,"Ġmicel":11492,"passe":11493,"646":11494,"Ġ7893500":11495,"Ġcanina":11496,"Ġbrilhol":11497,"Ġtagl":11498,"Ġbelive":11499,"Ġurba":11500,"Ġbisna":11501,"285":11502,"Ġtutto":11503,"Ġnuk":11504,"Ġautomo":11505,"Ġ41370":11506,"coloracao":11507,"pimcominho":11508,"Ġborgon":11509,"penne":11510,"Ġcoresab":11511,"Ġmadri":11512,"Ġnewlink":11513,"220729":11514,"Ġavemel":11515,"Ġkaritebaunilha":11516,"0294":11517,"5290":11518,"cappuc":11519,"Ġhambur":11520,"Ġbandei":11521,"Ġculin":11522,"05703":11523,"Ġromanc":11524,"Ġstik":11525,"Ġpapaiz":11526,"tizad":11527,"Ġ25924236":11528,"Ġcriad":11529,"Ġnestogen":11530,"Ġdesamarel":11531,"Ġ7912":11532,"Ġmelamine":11533,"Ġleopol":11534,"Ġregeneracao":11535,"Ġskinny":11536,"Ġcborr":11537,"Ġblond":11538,"Ġautos":11539,"parafina":11540,"Ġfrontera":11541,"Ġcicatri":11542,"Ġturbinado":11543,"risoto":11544,"Ġtourinho":11545,"laranja":11546,"Ġ2618220729":11547,"afiador":11548,"Ġgabriele":11549,"Ġcranberry":11550,"Ġprocomfor":11551,"Ġbrazilian":11552,"Ġindicator":11553,"colchon":11554,"Ġplasticos":11555,"Ġperiquita":11556,"Ġchimichurri":11557,"Ġameix":11558,"fixador":11559,"Ġtornado":11560,"Ġsacarina":11561,"Ġimagine":11562,"Ġbradoc":11563,"Ġokoshi":11564,"760":11565,"]\"":11566,"cc":11567,"ciste":11568,"eador":11569,"liso":11570,"mus":11571,"ming":11572,"ots":11573,"uv":11574,"utens":11575,"zel":11576,"Ġena":11577,"Ġcdo":11578,"Ġput":11579,"Ġporte":11580,"Ġpizz":11581,"raticida":11582,"rapy":11583,"Ġmaleta":11584,"Ġsma":11585,"Ġsent":11586,"Ġsys":11587,"Ġsign":11588,"rezz":11589,"rets":11590,"lana":11591,"lamina":11592,"Ġbilho":11593,"Ġbcp":11594,"Ġbitufo":11595,"estoma":11596,"esguicho":11597,"Ġdri":11598,"Ġdiclo":11599,"Ġthermo":11600,"capel":11601,"cavela":11602,"Ġniv":11603,"unile":11604,"unzel":11605,"Ġginga":11606,"iln":11607,"mad":11608,"tofu":11609,"Ġved":11610,"Ġvisco":11611,"507":11612,"Ġ432":11613,"Ġlir":11614,"Ġladr":11615,"itar":11616,"bisna":11617,"ulho":11618,"utri":11619,"sapatilha":11620,"Ġkb":11621,"Ġ690":11622,"Ġ666":11623,"Ġdedo":11624,"Ġalv":11625,"bata":11626,"Ġjup":11627,"Ġsecos":11628,"Ġsapatilha":11629,"Ġdown":11630,"Ġconfeito":11631,"odori":11632,"Ġfrg":11633,"Ġpaju":11634,"Ġamonia":11635,"Ġ306":11636,"moran":11637,"Ġorval":11638,"Ġsanre":11639,"colgate":11640,"Ġnev":11641,"Ġnex":11642,"Ġpalinete":11643,"mario":11644,"martelo":11645,"Ġchocavela":11646,"chocott":11647,"Ġacida":11648,"Ġaccess":11649,"2577":11650,"Ġveu":11651,"caldeirao":11652,"Ġitamar":11653,"Ġcolori":11654,"Ġleva":11655,"Ġbonit":11656,"Ġ246":11657,"Ġleiteaveia":11658,"Ġdelval":11659,"cure":11660,"cular":11661,"Ġprotet":11662,"Ġprotetor":11663,"Ġproteinas":11664,"bomboni":11665,"Ġmorg":11666,"Ġbiona":11667,"Ġgranja":11668,"farin":11669,"Ġpalmer":11670,"Ġdanos":11671,"Ġ352":11672,"Ġ353":11673,"Ġmenos":11674,"cerea":11675,"Ġcomu":11676,"Ġjoaninha":11677,"Ġapis":11678,"mans":11679,"Ġnutrit":11680,"Ġnutrimental":11681,"Ġconcreto":11682,"Ġneutrogena":11683,"447":11684,"Ġactivi":11685,"Ġshop":11686,"Ġ789859":11687,"Ġyokitos":11688,"Ġminiform":11689,"Ġvalor":11690,"boldo":11691,"Ġguela":11692,"Ġjava":11693,"Ġcostel":11694,"Ġcrok":11695,"Ġ2270":11696,"Ġfloresfrutas":11697,"2390":11698,"Ġcarmi":11699,"Ġabx":11700,"Ġatrezz":11701,"Ġbananacacau":11702,"946":11703,"Ġultrag":11704,"20746":11705,"Ġtoro":11706,"Ġondu":11707,"Ġvegano":11708,"Ġ1180":11709,"Ġargi":11710,"tylen":11711,"Ġartesan":11712,"Ġalkiln":11713,"Ġsteps":11714,"Ġgiov":11715,"Ġpassat":11716,"Ġ413700":11717,"Ġ13896":11718,"Ġbatista":11719,"Ġrecei":11720,"Ġrapunzel":11721,"Ġmalt":11722,"Ġnormais":11723,"Ġtost":11724,"coxas":11725,"Ġtransformers":11726,"Ġruffl":11727,"Ġlinda":11728,"agulha":11729,"Ġlanol":11730,"Ġdelicad":11731,"Ġkiarroz":11732,"Ġcglit":11733,"Ġ1121":11734,"Ġcidre":11735,"coqueteleira":11736,"Ġcompact":11737,"Ġamaciante":11738,"danette":11739,"Ġdengo":11740,"Ġmocoquinha":11741,"Ġvassoura":11742,"Ġcrims":11743,"Ġnuggets":11744,"Ġrefresh":11745,"Ġ414044":11746,"vari":11747,"Ġlrj":11748,"Ġrelaxe":11749,"ajinoshoyu":11750,"Ġnaturale":11751,"Ġamiga":11752,"Ġmandacar":11753,"Ġlipid":11754,"Ġgengibre":11755,"Ġ108080":11756,"Ġ2575922577":11757,"00687":11758,"chocosoy":11759,"Ġbanaaveia":11760,"Ġsensecare":11761,"levoid":11762,"Ġamantei":11763,"Ġvillamar":11764,"Ġequilibrio":11765,"Ġtrufas":11766,"Ġacetil":11767,"Ġnenem":11768,"noites":11769,"Ġbichinho":11770,"Ġencorpado":11771,"silic":11772,"Ġnorton":11773,"Ġrodasol":11774,"Ġpiracanjub":11775,"Ġpeneirado":11776,"Ġdelikets":11777,"enxaguante":11778,"brigadeiro":11779,"Ġspantooo":11780,"Ġbrvdpink":11781,"Ġcareliss":11782,"Ġpatchouly":11783,"Ġmoments":11784,"Ġporcelana":11785,"telef":11786,"Ġnigro":11787,"polenguinho":11788,"Ġinocense":11789,"balsamo":11790,"Ġsystem":11791,"Ġbcpto":11792,"Ġdiclofenaco":11793,"unileven":11794,"Ġpajucara":11795,"chocottone":11796,"Ġdelvalle":11797,"bomboniere":11798,"Ġatrezzo":11799,"#*":11800,"730":11801,"bd":11802,"hero":11803,"kani":11804,"plas":11805,"pista":11806,"sinha":11807,"wich":11808,"Ġcventosa":11809,"Ġpcao":11810,"rapad":11811,"inch":11812,"Ġ138":11813,"Ġmund":11814,"retivo":11815,"lata":11816,"corega":11817,"Ġbei":11818,"tere":11819,"esf":11820,"Ġdx":11821,"Ġdisa":11822,"Ġdpack":11823,"Ġfana":11824,"Ġfcl":11825,"Ġfuros":11826,"Ġfsaq":11827,"casa":11828,"Ġatom":11829,"tarantela":11830,"Ġ513":11831,"maqu":11832,"Ġvamp":11833,"Ġ426":11834,"Ġlila":11835,"Ġretor":11836,"Ġrever":11837,"Ġmaman":11838,"Ġmacarr":11839,"Ġmagrin":11840,"Ġuniag":11841,"Ġino":11842,"Ġhondas":11843,"etta":11844,"Ġcaix":11845,"Ġcaval":11846,"Ġlaje":11847,"Ġefe":11848,"Ġeps":11849,"queros":11850,"sapa":11851,"dera":11852,"Ġom":11853,"destac":11854,"Ġroda":11855,"Ġalco":11856,"Ġ918":11857,"Ġseptico":11858,"Ġmarina":11859,"imal":11860,"Ġdoo":11861,"Ġcontra":11862,"Ġarga":11863,"Ġarbo":11864,"urra":11865,"Ġmoedor":11866,"nezil":11867,"Ġbaquel":11868,"Ġpaete":11869,"Ġpague":11870,"Ġanel":11871,"acerola":11872,"Ġperme":11873,"uador":11874,"1245":11875,"desodoriza":11876,"salmao":11877,"Ġ010":11878,"Ġflococo":11879,"Ġracer":11880,"ipse":11881,"sandwich":11882,"Ġcepacol":11883,"Ġnoig":11884,"Ġcasp":11885,"Ġ2600":11886,"Ġ26117":11887,"Ġlow":11888,"Ġsupor":11889,"Ġmanh":11890,"Ġaciz":11891,"Ġbarber":11892,"2532":11893,"Ġitap":11894,"Ġcaba":11895,"Ġbonne":11896,"Ġ2454":11897,"902":11898,"Ġleitechoc":11899,"master":11900,"Ġdaka":11901,"Ġ2312":11902,"Ġstrog":11903,"ferv":11904,"ganca":11905,"Ġbombom":11906,"Ġcali":11907,"Ġwhisky":11908,"cardo":11909,"Ġblind":11910,"Ġimport":11911,"Ġvitamassa":11912,"Ġvitarel":11913,"Ġcls":11914,"Ġener":11915,"Ġmelita":11916,"Ġtango":11917,"Ġtannat":11918,"lacre":11919,"Ġpanetini":11920,"Ġcrackers":11921,"Ġguibon":11922,"Ġcanjao":11923,"Ġpalmoli":11924,"Ġsemorin":11925,"Ġgoiabinha":11926,"Ġpredi":11927,"verde":11928,"trin":11929,"Ġbraganca":11930,"Ġgris":11931,"Ġtrinch":11932,"288":11933,"Ġultrafino":11934,"Ġvision":11935,"Ġamarula":11936,"floc":11937,"Ġesfreg":11938,"Ġbeau":11939,"Ġsurpr":11940,"hidr":11941,"hidrashock":11942,"Ġgarf":11943,"Ġ41378":11944,"nutricao":11945,"Ġcopacab":11946,"comfort":11947,"554":11948,"tines":11949,"Ġtapetinho":11950,"Ġtoddyn":11951,"Ġlevar":11952,"Ġlevit":11953,"Ġtherapy":11954,"Ġfuesia":11955,"Ġnorsal":11956,"563":11957,"Ġgroselha":11958,"Ġkaiar":11959,"Ġyoi":11960,"Ġperfumada":11961,"flam":11962,"Ġprestige":11963,"Ġalisante":11964,"5800":11965,"Ġpipper":11966,"Ġmarmori":11967,"Ġondula":11968,"Ġselec":11969,"Ġoriente":11970,"Ġlolli":11971,"Ġsedut":11972,"Ġtqc":11973,"Ġigual":11974,"realcador":11975,"Ġevolu":11976,"Ġflanex":11977,"alimao":11978,"Ġfibr":11979,"vermelho":11980,"Ġativad":11981,"Ġativax":11982,"Ġdentad":11983,"Ġ4123":11984,"Ġnylo":11985,"Ġpurpura":11986,"Ġbiscrok":11987,"Ġsurpreend":11988,"Ġfronteira":11989,"skala":11990,"Ġsemidesn":11991,"Ġdesidratada":11992,"Ġ2800924":11993,"Ġvibrante":11994,"Ġespaguetinho":11995,"Ġrecupe":11996,"Ġferramentas":11997,"glicose":11998,"Ġpatati":11999,"pacoquita":12000,"Ġspontex":12001,"Ġtripacao":12002,"Ġpulverizad":12003,"Ġiara":12004,"Ġagridoce":12005,"Ġpaletes":12006,"Ġpresidente":12007,"Ġpnk":12008,"Ġdanonin":12009,"caramelo":12010,"Ġcantina":12011,"Ġsintetica":12012,"quadro":12013,"Ġpocalipse":12014,"Ġarrabiata":12015,"flutuador":12016,"Ġseducao":12017,"benjamin":12018,"Ġvtaki":12019,"tylenol":12020,"Ġmandacaru":12021,"heroi":12022,"Ġmacarronete":12023,"Ġuniagro":12024,"Ġhondashi":12025,"querosene":12026,"Ġpermegiana":12027,"Ġ4137889":12028,"Ġkaiary":12029,"029":12030,"189":12031,"275":12032,"4900":12033,"940":12034,"bana":12035,"beij":12036,"iqu":12037,"kest":12038,"lista":12039,"lend":12040,"mint":12041,"nn":12042,"oreo":12043,"pri":12044,"qc":12045,"rxo":12046,"rucu":12047,"tnt":12048,"zero":12049,"Ġpbanh":12050,"Ġmcachos":12051,"Ġscho":12052,"Ġsket":12053,"Ġslow":12054,"001":12055,"reno":12056,"late":12057,"Ġbros":12058,"Ġbene":12059,"Ġblowtex":12060,"alz":12061,"arne":12062,"argan":12063,"Ġdinal":12064,"Ġlom":12065,"Ġleste":12066,"mlpg":12067,"Ġ523":12068,"Ġnk":12069,"too":12070,"total":12071,"toprazol":12072,"Ġvc":12073,"rida":12074,"damasco":12075,"tial":12076,"tice":12077,"Ġlipex":12078,"Ġretrato":12079,"Ġcoelho":12080,"Ġincont":12081,"etone":12082,"etria":12083,"pac":12084,"ules":12085,"Ġ810":12086,"Ġ678":12087,"Ġaly":12088,"Ġalub":12089,"Ġaletria":12090,"Ġjs":12091,"401":12092,"Ġmario":12093,"Ġdoub":12094,"Ġbact":12095,"Ġbatida":12096,"Ġtomat":12097,"Ġpag":12098,"aclar":12099,"Ġcrony":12100,"Ġ1035":12101,"fecula":12102,"morado":12103,"605":12104,"Ġvito":12105,"Ġvibr":12106,"Ġqe":12107,"sukest":12108,"Ġflop":12109,"Ġfloranda":12110,"Ġnega":12111,"Ġboys":12112,"Ġbocas":12113,"Ġbocardo":12114,"faixa":12115,"Ġ00010":12116,"queadeira":12117,"Ġ15642":12118,"Ġcass":12119,"Ġregul":12120,"frc":12121,"rasqueadeira":12122,"Ġgoia":12123,"addera":12124,"cald":12125,"Ġitaiqu":12126,"Ġperfu":12127,"entao":12128,"90777":12129,"mastig":12130,"Ġadipo":12131,"espu":12132,"Ġdacol":12133,"boom":12134,"Ġbanco":12135,"corte":12136,"arola":12137,"Ġemili":12138,"Ġdiva":12139,"Ġdiete":12140,"itake":12141,"Ġgranatus":12142,"Ġrosquin":12143,"Ġ9004":12144,"Ġgrecin":12145,"898":12146,"Ġscaro":12147,"ffaclar":12148,"Ġnakau":12149,"Ġnamorado":12150,"Ġpantoprazol":12151,"Ġsonh":12152,"Ġ7895800":12153,"Ġ1765":12154,"Ġbebida":12155,"Ġ2404":12156,"tenda":12157,"Ġpesado":12158,"455":12159,"Ġtrancada":12160,"Ġbelg":12161,"Ġfof":12162,"Ġ398":12163,"484":12164,"Ġ9600":12165,"iera":12166,"Ġroscado":12167,"4290":12168,"Ġgeladinho":12169,"Ġreport":12170,"Ġalkin":12171,"Ġ41369":12172,"Ġlongos":12173,"Ġfire":12174,"Ġessential":12175,"Ġamazonian":12176,"piranha":12177,"weppes":12178,"Ġmodal":12179,"Ġantibacter":12180,"Ġ5412":12181,"Ġultgrip":12182,"Ġfelic":12183,"Ġtucuma":12184,"Ġrestau":12185,"Ġpippos":12186,"Ġmarroq":12187,"Ġcanoa":12188,"Ġbutui":12189,"Ġluar":12190,"Ġpooh":12191,"Ġceleb":12192,"Ġcelebra":12193,"Ġiluminador":12194,"Ġfinalizadora":12195,"ipanema":12196,"Ġevolution":12197,"Ġbeaty":12198,"Ġlycra":12199,"Ġcloy":12200,"Ġoils":12201,"redox":12202,"Ġapache":12203,"Ġ26266241":12204,"Ġcylin":12205,"Ġisol":12206,"Ġmmusc":12207,"Ġskiny":12208,"Ġsamito":12209,"21513":12210,"Ġ41158":12211,"yakissoba":12212,"Ġninotela":12213,"Ġvibes":12214,"campari":12215,"Ġazapa":12216,"Ġ413519":12217,"rapido":12218,"Ġmassageadora":12219,"Ġsquezze":12220,"Ġintelbras":12221,"Ġ413035":12222,"Ġ2186":12223,"24782":12224,"jardim":12225,"grampos":12226,"Ġlavagens":12227,"Ġweizen":12228,"Ġguanab":12229,"Ġxylitol":12230,"Ġlambrusco":12231,"cicatri":12232,"Ġixb":12233,"panquequeira":12234,"Ġipiranga":12235,"Ġgaveta":12236,"Ġstiksy":12237,"Ġsmash":12238,"Ġladrilhos":12239,"Ġshopk":12240,"Ġfanatico":12241,"Ġbenef":12242,"Ġdinalle":12243,"Ġalubia":12244,"Ġitaiquara":12245,"Ġadipower":12246,"Ġemiliana":12247,"030":12248,"312":12249,"btus":12250,"eg":12251,"eu":12252,"giz":12253,"ire":12254,"mente":12255,"mida":12256,"our":12257,"sti":12258,"sfera":12259,"tudo":12260,"xclor":12261,"ray":12262,"Ġmut":12263,"Ġstic":12264,"Ġscolesterol":12265,"Ġberry":12266,"teria":12267,"armario":12268,"Ġ212":12269,"mlml":12270,"Ġful":12271,"Ġfbr":12272,"Ġator":12273,"engate":12274,"Ġnana":12275,"Ġnprotein":12276,"Ġgsb":12277,"Ġgxg":12278,"ilh":12279,"elete":12280,"Ġvil":12281,"Ġvinga":12282,"Ġvlr":12283,"Ġ495":12284,"Ġ4119":12285,"tid":12286,"tivos":12287,"Ġreinos":12288,"iado":12289,"iagem":12290,"Ġhdr":12291,"Ġlame":12292,"Ġeferv":12293,"depos":12294,"Ġkas":12295,"Ġot":12296,"Ġivete":12297,"Ġ7500":12298,"Ġ6120":12299,"confort":12300,"omelete":12301,"Ġdexclor":12302,"Ġseren":12303,"Ġcoluna":12304,"imed":12305,"Ġesfo":12306,"Ġestella":12307,"urinha":12308,"Ġmoo":12309,"Ġwc":12310,"Ġpapara":12311,"Ġqud":12312,"Ġquebra":12313,"Ġ504":12314,"chinh":12315,"acend":12316,"Ġ256":12317,"Ġtriump":12318,"Ġcher":12319,"Ġchul":12320,"Ġ9020":12321,"Ġshcol":12322,"1275":12323,"aze":12324,"mbl":12325,"Ġraf":12326,"Ġlavlo":12327,"Ġbobo":12328,"faello":12329,"Ġ0090":12330,"Ġtpk":12331,"Ġzz":12332,"Ġsuperman":12333,"242":12334,"Ġformas":12335,"Ġacrim":12336,"Ġacendedor":12337,"Ġ6030":12338,"cane":12339,"booster":12340,"Ġ238":12341,"Ġ2384":12342,"Ġdelux":12343,"Ġdijon":12344,"1378":12345,"Ġ7056":12346,"Ġmastig":12347,"antiseptico":12348,"Ġ1600":12349,"Ġcalend":12350,"apliq":12351,"Ġpedicure":12352,"Ġimpe":12353,"Ġsuperled":12354,"Ġjota":12355,"Ġexta":12356,"Ġdueto":12357,"manjer":12358,"trava":12359,"banan":12360,"Ġfrutau":12361,"444":12362,"Ġprieto":12363,"Ġ454":12364,"Ġfortlar":12365,"Ġfrance":12366,"Ġmultcolor":12367,"Ġcane":12368,"1717":12369,"Ġ2282":12370,"Ġ22950":12371,"Ġpescada":12372,"23168":12373,"Ġitambezinho":12374,"Ġ198":12375,"Ġabelha":12376,"granado":12377,"Ġbelle":12378,"Ġcastmel":12379,"Ġfofinho":12380,"Ġresgate":12381,"Ġ321":12382,"Ġsecchi":12383,"versor":12384,"Ġfrit":12385,"Ġprimaver":12386,"Ġferr":12387,"camisa":12388,"whit":12389,"Ġ2710":12390,"Ġacaj":12391,"Ġfraca":12392,"floral":12393,"429":12394,"Ġantis":12395,"6000":12396,"oks":12397,"Ġhavaiana":12398,"Ġstev":12399,"hidrata":12400,"Ġpelados":12401,"Ġespecialidades":12402,"colore":12403,"Ġqjotom":12404,"piment":12405,"Ġdivino":12406,"Ġinspiracao":12407,"Ġdourad":12408,"Ġadap":12409,"Ġhelt":12410,"Ġtwis":12411,"secante":12412,"registro":12413,"Ġamerican":12414,"Ġortodon":12415,"weet":12416,"276":12417,"Ġbright":12418,"babysec":12419,"Ġrecheados":12420,"Ġwomem":12421,"Ġmamae":12422,"Ġalmofadado":12423,"antily":12424,"Ġutili":12425,"Ġutilidades":12426,"charming":12427,"696":12428,"Ġabsolu":12429,"Ġdomini":12430,"prego":12431,"Ġsaturno":12432,"cgl":12433,"croc":12434,"Ġcitric":12435,"Ġdragon":12436,"Ġfolhagem":12437,"Ġpicadinho":12438,"Ġ762221058":12439,"Ġ497":12440,"Ġdiscos":12441,"Ġfreix":12442,"Ġ25951245":12443,"headset":12444,"umidificante":12445,"Ġ410335":12446,"peix":12447,"Ġapaga":12448,"Ġatifrizz":12449,"Ġcortez":12450,"Ġlambeu":12451,"Ġenrique":12452,"Ġ2575921717":12453,"Ġralad":12454,"Ġmesh":12455,"Ġ13920":12456,"Ġminamel":12457,"Ġwalker":12458,"Ġessent":12459,"90533":12460,"20974":12461,"Ġauror":12462,"Ġ413510":12463,"Ġaquarela":12464,"Ġlosartana":12465,"Ġdigital":12466,"Ġtripac":12467,"Ġagraplast":12468,"Ġriviera":12469,"Ġ414149":12470,"Ġumedecidos":12471,"Ġcauim":12472,"Ġantivaz":12473,"Ġreequil":12474,"Ġestate":12475,"Ġrufles":12476,"Ġfortificado":12477,"Ġcotonela":12478,"Ġdepila":12479,"Ġ5909":12480,"Ġjabutica":12481,"Ġtanqueray":12482,"Ġondulados":12483,"transp":12484,"Ġesporao":12485,"Ġcomportados":12486,"tapioqueira":12487,"Ġreymar":12488,"Ġpractice":12489,"Ġcostazzurra":12490,"Ġarauco":12491,"embalixo":12492,"sorrentino":12493,"Ġborgonha":12494,"Ġleopoldina":12495,"Ġputz":12496,"Ġsentinela":12497,"Ġnexcare":12498,"Ġondulada":12499,"Ġtrinchante":12500,"Ġlollipop":12501,"Ġ413693500":12502,"omeleteira":12503,"Ġdexclorfen":12504,"Ġpaparazzi":12505,"Ġtriumph":12506,"218":12507,"426":12508,"7200":12509,"91056":12510,"black":12511,"dure":12512,"fresc":12513,"gill":12514,"hct":12515,"imao":12516,"mit":12517,"miss":12518,"prol":12519,"ring":12520,"sin":12521,"seira":12522,"vich":12523,"Ġccenoura":12524,"Ġccgl":12525,"Ġpiz":12526,"Ġmk":12527,"Ġsita":12528,"comin":12529,"alos":12530,"alerg":12531,"Ġ2227":12532,"Ġ2229":12533,"essao":12534,"Ġdur":12535,"Ġdad":12536,"Ġdren":12537,"org":12538,"Ġlcd":12539,"Ġlcro":12540,"Ġfan":12541,"Ġgil":12542,"ilos":12543,"maos":12544,"Ġvab":12545,"Ġvfa":12546,"508":12547,"doh":12548,"Ġcorac":12549,"iato":12550,"Ġhol":12551,"paca":12552,"Ġezo":12553,"ques":12554,"Ġpola":12555,"itan":12556,"bisn":12557,"ult":12558,"Ġoit":12559,"desif":12560,"kgpg":12561,"Ġ642":12562,"Ġ646":12563,"Ġ6168":12564,"Ġ6399":12565,"conh":12566,"Ġ960":12567,"Ġjanela":12568,"Ġ1280":12569,"Ġ1292":12570,"Ġxplo":12571,"Ġ100240":12572,"Ġsexy":12573,"Ġmarinha":12574,"Ġmarbel":12575,"ummis":12576,"peti":12577,"Ġconfor":12578,"Ġconfo":12579,"Ġesto":12580,"Ġarredon":12581,"Ġarnica":12582,"urinho":12583,"Ġmobil":12584,"Ġplasu":12585,"Ġwind":12586,"Ġpays":12587,"3062":12588,"oleos":12589,"Ġamet":12590,"acil":12591,"ctor":12592,"Ġtrivari":12593,"onado":12594,"soquete":12595,"8015":12596,"Ġ902":12597,"Ġorfeu":12598,"Ġvibe":12599,"Ġbabado":12600,"Ġ0851":12601,"icam":12602,"urada":12603,"Ġ002":12604,"Ġ005":12605,"kika":12606,"Ġmino":12607,"ionario":12608,"Ġcasc":12609,"Ġcasei":12610,"Ġmaracu":12611,"Ġlimpesa":12612,"Ġsadilar":12613,"Ġorigin":12614,"Ġvegan":12615,"Ġnik":12616,"Ġnive":12617,"Ġ6019":12618,"Ġmond":12619,"Ġdess":12620,"Ġdestino":12621,"Ġ2455":12622,"Ġadp":12623,"balan":12624,"Ġ233":12625,"Ġ2326":12626,"Ġ2328":12627,"Ġ2362":12628,"Ġbcos":12629,"Ġbanmaca":12630,"Ġclau":12631,"idora":12632,"Ġemerg":12633,"Ġ7055":12634,"Ġ1672":12635,"141":12636,"nova":12637,"alhao":12638,"Ġperdi":12639,"Ġbiofresh":12640,"trado":12641,"Ġsuis":12642,"Ġsufre":12643,"Ġsufle":12644,"169":12645,"Ġestrel":12646,"Ġenr":12647,"Ġenvol":12648,"1800":12649,"Ġmedic":12650,"Ġmedidora":12651,"ladora":12652,"Ġmagicos":12653,"Ġ456":12654,"Ġactimel":12655,"Ġfortl":12656,"Ġhaus":12657,"Ġhik":12658,"passas":12659,"641":12660,"Ġturmix":12661,"escovao":12662,"Ġsoftlot":12663,"Ġfae":12664,"Ġjamel":12665,"extra":12666,"Ġ2290":12667,"Ġ2232":12668,"Ġ2284":12669,"Ġmcca":12670,"Ġ2405":12671,"Ġcarmel":12672,"Ġcutia":12673,"Ġ361":12674,"Ġmandi":12675,"ileu":12676,"Ġresf":12677,"Ġsecrets":12678,"queijos":12679,"Ġ277":12680,"Ġmaeterra":12681,"Ġ1152":12682,"Ġavent":12683,"Ġfunda":12684,"Ġtorra":12685,"Ġveget":12686,"Ġmacboy":12687,"Ġbals":12688,"bepantol":12689,"Ġkarina":12690,"Ġkarpex":12691,"Ġdardos":12692,"Ġsandalos":12693,"Ġcaipir":12694,"Ġpiment":12695,"Ġpulgas":12696,"Ġ292":12697,"Ġduleite":12698,"Ġcopaiba":12699,"amarelo":12700,"Ġchocowaffer":12701,"Ġlevitta":12702,"Ġoliveira":12703,"Ġagtal":12704,"Ġ414185":12705,"mixer":12706,"Ġpodendo":12707,"Ġperfumadas":12708,"Ġsensiti":12709,"Ġpurina":12710,"Ġalmaco":12711,"Ġ0114":12712,"Ġfpb":12713,"Ġnasc":12714,"Ġ1124":12715,"churr":12716,"Ġjunio":12717,"Ġairon":12718,"Ġcharminho":12719,"Ġheroinas":12720,"empada":12721,"Ġumect":12722,"Ġ2255":12723,"Ġcitrica":12724,"Ġspagu":12725,"888":12726,"Ġcremosiss":12727,"Ġpequen":12728,"Ġballet":12729,"Ġpoliet":12730,"glos":12731,"Ġlrv":12732,"Ġclipa":12733,"Ġaparelho":12734,"Ġcarrinho":12735,"Ġsiena":12736,"cooktop":12737,"Ġ26131":12738,"Ġpeixes":12739,"serra":12740,"Ġbreton":12741,"Ġmestico":12742,"Ġtetracolor":12743,"Ġmacarico":12744,"Ġguardanapo":12745,"Ġdesidratado":12746,"Ġsafadona":12747,"Ġchocooky":12748,"Ġgardenia":12749,"Ġrigatone":12750,"antissep":12751,"Ġfrisante":12752,"Ġstylish":12753,"Ġazedinha":12754,"calab":12755,"Ġ4139412":12756,"Ġdkasa":12757,"Ġyaki":12758,"plugue":12759,"Ġbaboom":12760,"Ġdublado":12761,"Ġpetroleo":12762,"Ġtentacao":12763,"chocolatto":12764,"Ġcamelinho":12765,"Ġalaska":12766,"Ġtermolar":12767,"lactose":12768,"cranberry":12769,"Ġmontanha":12770,"Ġaguacrim":12771,"chikenitos":12772,"Ġready":12773,"Ġjubileu":12774,"Ġ789601660":12775,"Ġeducativo":12776,"Ġlysoclin":12777,"Ġpneus":12778,"Ġbranqueador":12779,"Ġorvalho":12780,"Ġartesanal":12781,"Ġbaquelite":12782,"Ġcabare":12783,"Ġrecuperacao":12784,"cicatricure":12785,"Ġfull":12786,"Ġqjotommanj":12787,"Ġcortezano":12788,"durepoxi":12789,"missiato":12790,"vichy":12791,"Ġlcrock":12792,"Ġxplode":12793,"Ġarredond":12794,"Ġtrivarietal":12795,"kikakau":12796,"0100":12797,"0263":12798,"290":12799,"4130":12800,"890":12801,"aa":12802,"aw":12803,"bj":12804,"cre":12805,"dente":12806,"gno":12807,"ijao":12808,"of":12809,"ssa":12810,"the":12811,"uos":12812,"ws":12813,"Ġrana":12814,"Ġervilha":12815,"Ġces":12816,"Ġcig":12817,"Ġcir":12818,"Ġccap":12819,"Ġccalc":12820,"Ġctapioca":12821,"Ġccatupiry":12822,"Ġpfac":12823,"Ġpbeber":12824,"Ġmn":12825,"Ġsom":12826,"Ġssup":12827,"tevia":12828,"alum":12829,"algod":12830,"Ġ2228":12831,"Ġdud":12832,"Ġlct":12833,"Ġfgol":12834,"Ġtid":12835,"onina":12836,"Ġaten":12837,"Ġ3263":12838,"uni":12839,"Ġgc":12840,"hate":12841,"Ġvento":12842,"Ġvodka":12843,"abeto":12844,"rimas":12845,"tite":12846,"time":12847,"vette":12848,"Ġrepe":12849,"Ġcouro":12850,"Ġcapel":12851,"Ġcaqui":12852,"Ġcaupi":12853,"Ġlapq":12854,"quid":12855,"gotas":12856,"sapato":12857,"Ġ894":12858,"usta":12859,"Ġkeita":12860,"Ġion":12861,"lev":12862,"Ġ785":12863,"Ġroya":12864,"resist":12865,"Ġ9397":12866,"gui":12867,"Ġjarra":12868,"Ġ12000":12869,"Ġsela":12870,"Ġseparador":12871,"Ġ4005":12872,"pot":12873,"poradora":12874,"pep":12875,"Ġconte":12876,"Ġconde":12877,"Ġconcava":12878,"Ġconsev":12879,"uck":12880,"urinol":12881,"Ġmotiva":12882,"Ġmodela":12883,"Ġmorena":12884,"neo":12885,"Ġrisco":12886,"Ġbad":12887,"Ġbavette":12888,"term":12889,"Ġcartom":12890,"Ġcarnozes":12891,"Ġ505":12892,"edredo":12893,"Ġ25211":12894,"Ġ25209":12895,"Ġtrico":12896,"Ġchilli":12897,"Ġ90540":12898,"Ġ080":12899,"Ġ0891":12900,"Ġlavcam":12901,"7080":12902,"chapa":12903,"chaira":12904,"Ġries":12905,"Ġrice":12906,"Ġ0032":12907,"Ġ0037":12908,"Ġ4050":12909,"Ġcep":12910,"Ġcasco":12911,"marilan":12912,"Ġ2616":12913,"Ġ2669":12914,"Ġloacker":12915,"Ġacnezil":12916,"Ġnieto":12917,"Ġ6047":12918,"156":12919,"Ġdaiti":12920,"Ġantit":12921,"Ġantigo":12922,"Ġ2383":12923,"Ġbanaveia":12924,"Ġfresimp":12925,"Ġnatubom":12926,"itai":12927,"Ġbife":12928,"Ġgalmacleg":12929,"1390":12930,"Ġ17038":12931,"Ġ7033":12932,"olls":12933,"Ġfrutfla":12934,"Ġpirarucu":12935,"Ġpolidor":12936,"Ġ3598":12937,"Ġcalcas":12938,"Ġ6004":12939,"Ġapito":12940,"Ġappia":12941,"Ġmaxiliss":12942,"Ġchata":12943,"Ġmacabanana":12944,"Ġdurex":12945,"trad":12946,"lanche":12947,"1600":12948,"Ġpresqj":12949,"Ġpresqjo":12950,"Ġsensor":12951,"Ġsenhor":12952,"34513":12953,"Ġesplend":12954,"Ġsilred":12955,"Ġsalonline":12956,"Ġmilhoerv":12957,"Ġextrato":12958,"Ġabacax":12959,"Ġactifibra":12960,"rent":12961,"Ġhaitai":12962,"Ġbey":12963,"Ġbetania":12964,"Ġ7897080":12965,"Ġfrangobacon":12966,"Ġ2885":12967,"Ġvals":12968,"Ġbauducc":12969,"171":12970,"Ġvermelh":12971,"Ġ228":12972,"Ġ2231":12973,"Ġorgulho":12974,"Ġltemel":12975,"Ġ110250":12976,"Ġ110249":12977,"Ġmilvde":12978,"Ġcubo":12979,"Ġeconomic":12980,"Ġ1252":12981,"374":12982,"Ġcastchoc":12983,"valv":12984,"Ġ393062":12985,"Ġcebsal":12986,"Ġ96189":12987,"728":12988,"Ġpilse":12989,"Ġquality":12990,"Ġcolobri":12991,"Ġcreamy":12992,"Ġtrolls":12993,"Ġ5582":12994,"ervilhacenoura":12995,"Ġpopular":12996,"Ġflei":12997,"Ġtorc":12998,"Ġonion":12999,"Ġretard":13000,"Ġpomelo":13001,"Ġconserv":13002,"Ġsvi":13003,"Ġpenn":13004,"Ġbath":13005,"sonho":13006,"Ġ662":13007,"Ġpiaklin":13008,"Ġpimen":13009,"Ġbarril":13010,"Ġecobras":13011,"barbe":13012,"Ġqjveg":13013,"Ġgalao":13014,"Ġmalicia":13015,"Ġintensif":13016,"Ġfiijao":13017,"jerry":13018,"Ġcalabrez":13019,"927":13020,"Ġlavagem":13021,"Ġporo":13022,"Ġshould":13023,"Ġtroptime":13024,"991":13025,"Ġmadei":13026,"Ġalec":13027,"Ġalegra":13028,"Ġmetalico":13029,"table":13030,"conserv":13031,"Ġlanolina":13032,"Ġlanonina":13033,"Ġpinca":13034,"Ġcgt":13035,"evaporadora":13036,"Ġkaritebaun":13037,"Ġmamadoro":13038,"Ġmbp":13039,"Ġ5419":13040,"brite":13041,"Ġexpre":13042,"Ġexport":13043,"Ġ7865":13044,"Ġ7896013100":13045,"Ġraniti":13046,"Ġescovacrem":13047,"Ġaera":13048,"Ġaerado":13049,"cracker":13050,"Ġdunort":13051,"Ġfluorcalcio":13052,"Ġvintage":13053,"Ġvingadores":13054,"Ġ6977":13055,"Ġcontol":13056,"Ġioad":13057,"Ġ2257":13058,"Ġ98006":13059,"Ġkatu":13060,"pomodori":13061,"Ġdrag":13062,"Ġdraft":13063,"Ġplatino":13064,"Ġmamaolar":13065,"Ġalegrim":13066,"Ġgamer":13067,"Ġguaranaroma":13068,"Ġvelho":13069,"Ġcrepe":13070,"Ġcfacil":13071,"Ġpredilec":13072,"Ġlenco":13073,"Ġlencos":13074,"achocolata":13075,"Ġcriat":13076,"Ġsaboneteira":13077,"Ġacrilico":13078,"Ġ12505":13079,"Ġchocolhate":13080,"21430":13081,"claro":13082,"Ġ16844":13083,"Ġmorbanmaca":13084,"Ġparmeg":13085,"Ġlagrimas":13086,"Ġ0862":13087,"Ġ97571":13088,"rubi":13089,"Ġmfp":13090,"Ġcapacho":13091,"Ġ13900":13092,"Ġhomeplay":13093,"Ġ20594":13094,"Ġmaquiagem":13095,"Ġcartog":13096,"Ġcuticulas":13097,"Ġnwm":13098,"laranj":13099,"Ġ2242":13100,"Ġanjinhos":13101,"feme":13102,"Ġfidelinha":13103,"Ġencorpados":13104,"Ġicebo":13105,"ropole":13106,"Ġaromatizante":13107,"Ġ713326":13108,"Ġregula":13109,"Ġrendinha":13110,"20534":13111,"Ġletrinhas":13112,"Ġbolachitas":13113,"Ġtiativo":13114,"Ġ789623790":13115,"iroska":13116,"02216":13117,"Ġ15831":13118,"Ġalfababeto":13119,"descascador":13120,"Ġconfeitado":13121,"Ġmentolado":13122,"Ġ789859145":13123,"Ġcaixinha":13124,"Ġcavalo":13125,"Ġdietetico":13126,"Ġfofitos":13127,"canecao":13128,"manjerona":13129,"Ġfreixen":13130,"gillette":13131,"Ġvabene":13132,"Ġpolaca":13133,"Ġwindsor":13134,"Ġametista":13135,"Ġfgolimao":13136,"Ġtidy":13137,"Ġmodelad":13138,"Ġriscossa":13139,"edredom":13140,"Ġfresimpac":13141,"Ġfrutflamby":13142,"345136":13143,"Ġranitidina":13144,"Ġcfacilitador":13145,"6100":13146,"770":13147,"948":13148,"aka":13149,"effaclar":13150,"kinha":13151,"kim":13152,"sim":13153,"silhouette":13154,"tle":13155,"uicao":13156,"yoki":13157,"Ġut":13158,"Ġccera":13159,"Ġceno":13160,"Ġcbico":13161,"Ġcumb":13162,"Ġcmanj":13163,"Ġpj":13164,"Ġpista":13165,"Ġpcab":13166,"Ġpgelo":13167,"Ġsj":13168,"Ġsing":13169,"Ġbw":13170,"Ġbit":13171,"arma":13172,"Ġ294":13173,"Ġ2226":13174,"Ġ2248":13175,"ervo":13176,"Ġdino":13177,"Ġdcar":13178,"Ġdeixa":13179,"Ġava":13180,"Ġacer":13181,"Ġavel":13182,"iscas":13183,"isqueiro":13184,"rom":13185,"Ġ546":13186,"Ġ51000":13187,"Ġgaby":13188,"ilte":13189,"elina":13190,"Ġves":13191,"Ġvho":13192,"50219":13193,"rito":13194,"Ġrem":13195,"Ġreto":13196,"Ġreke":13197,"Ġcoquinho":13198,"Ġunion":13199,"Ġhfrc":13200,"etro":13201,"Ġea":13202,"Ġeda":13203,"Ġetico":13204,"quino":13205,"quinhos":13206,"Ġpomada":13207,"saude":13208,"Ġ8384":13209,"usinho":13210,"Ġkest":13211,"Ġkama":13212,"Ġ7727":13213,"Ġ7656":13214,"vagem":13215,"Ġ675":13216,"conut":13217,"confei":13218,"Ġroca":13219,"Ġrota":13220,"Ġroth":13221,"gumel":13222,"Ġjustica":13223,"Ġ1241":13224,"upass":13225,"Ġsea":13226,"Ġsegu":13227,"Ġmars":13228,"Ġmargado":13229,"ralho":13230,"cebo":13231,"Ġsah":13232,"Ġconchinh":13233,"odorizador":13234,"Ġestam":13235,"ucula":13236,"Ġmoon":13237,"Ġmozz":13238,"neve":13239,"Ġfrt":13240,"terr":13241,"Ġ2502":13242,"Ġprov":13243,"Ġtown":13244,"Ġpaona":13245,"Ġpareia":13246,"Ġcarna":13247,"Ġqui":13248,"Ġamarra":13249,"acarne":13250,"Ġ1040":13251,"Ġ25210":13252,"Ġ25212":13253,"109":13254,"sout":13255,"Ġ9054":13256,"Ġ90408":13257,"Ġ90550":13258,"Ġ90554":13259,"Ġ204":13260,"Ġ209":13261,"Ġ2068":13262,"Ġshb":13263,"Ġvivo":13264,"Ġqt":13265,"Ġqbrilho":13266,"Ġlavlirio":13267,"Ġcocoalgod":13268,"Ġteek":13269,"marrom":13270,"fruc":13271,"Ġprisc":13272,"udinho":13273,"ratis":13274,"Ġbart":13275,"257":13276,"25122":13277,"Ġ6018":13278,"Ġcapuccino":13279,"Ġ12016":13280,"Ġdest":13281,"903":13282,"Ġpeace":13283,"Ġ80227":13284,"Ġ2330":13285,"Ġ2323":13286,"Ġ2345":13287,"Ġ2331":13288,"Ġ2361":13289,"navel":13290,"Ġbiela":13291,"ilhao":13292,"Ġ3730":13293,"kake":13294,"2200":13295,"1334":13296,"Ġrosc":13297,"antin":13298,"talheres":13299,"Ġ169":13300,"Ġ16360":13301,"Ġpolv":13302,"novos":13303,"Ġ6006":13304,"carnovos":13305,"Ġimporta":13306,"Ġclos":13307,"Ġjoia":13308,"Ġrefri":13309,"Ġexter":13310,"118":13311,"Ġflorfresc":13312,"brd":13313,"164":13314,"Ġstag":13315,"Ġdrum":13316,"Ġenxo":13317,"Ġamarel":13318,"ffle":13319,"Ġfrutado":13320,"Ġmelcen":13321,"Ġsilves":13322,"Ġpritt":13323,"Ġhue":13324,"Ġhealt":13325,"Ġkitut":13326,"382":13327,"Ġtotalp":13328,"Ġhamor":13329,"Ġalumini":13330,"wafe":13331,"Ġvall":13332,"close":13333,"pedig":13334,"Ġtangled":13335,"Ġflorest":13336,"Ġestrelado":13337,"23100":13338,"2334":13339,"Ġmatina":13340,"Ġcuervo":13341,"Ġ2607":13342,"Ġcristalizada":13343,"Ġ17537":13344,"Ġ17587":13345,"Ġbeli":13346,"Ġperdiga":13347,"Ġfoguete":13348,"alhos":13349,"Ġdefense":13350,"Ġdefriz":13351,"queij":13352,"Ġ2696":13353,"Ġoderic":13354,"Ġacailte":13355,"prom":13356,"20770":13357,"Ġsportfan":13358,"flogo":13359,"Ġparafusinho":13360,"Ġ3420":13361,"eirinho":13362,"Ġcott":13363,"Ġ41108":13364,"Ġlemom":13365,"Ġnoodle":13366,"Ġdisq":13367,"patex":13368,"Ġvitalle":13369,"Ġcottonb":13370,"barr":13371,"Ġisoton":13372,"Ġinvisi":13373,"Ġformato":13374,"Ġaloeoliva":13375,"amaranto":13376,"Ġtapi":13377,"Ġlimit":13378,"Ġlegcarnovos":13379,"Ġ681":13380,"Ġagm":13381,"pires":13382,"Ġsimeti":13383,"22478":13384,"Ġ41439":13385,"Ġgirasol":13386,"Ġpurissi":13387,"Ġmassag":13388,"medidor":13389,"Ġdelicaderm":13390,"Ġelectric":13391,"Ġkibom":13392,"Ġglitz":13393,"Ġcglicerina":13394,"brownie":13395,"Ġ7862":13396,"Ġutilis":13397,"Ġflower":13398,"Ġspeed":13399,"Ġrolon":13400,"Ġ98008":13401,"croissant":13402,"gii":13403,"Ġandre":13404,"Ġ15615":13405,"Ġ15616":13406,"Ġcelular":13407,"Ġbrancura":13408,"Ġgeriamax":13409,"Ġsensat":13410,"4929":13411,"Ġluminosas":13412,"Ġ12503":13413,"Ġ1177":13414,"Ġturmalin":13415,"cuscuzeiro":13416,"Ġspringer":13417,"Ġ8629":13418,"Ġapaix":13419,"quinua":13420,"Ġpurpur":13421,"Ġsamba":13422,"lrb":13423,"Ġrisovita":13424,"Ġ12494":13425,"Ġcarfgocer":13426,"Ġcarrer":13427,"Ġ87095":13428,"Ġ87093":13429,"Ġargolao":13430,"Ġnhoque":13431,"Ġrodox":13432,"Ġmimosal":13433,"Ġcarnlegmac":13434,"popcorn":13435,"Ġgabriela":13436,"Ġcomposta":13437,"Ġ23273":13438,"Ġboate":13439,"Ġmurupi":13440,"antissept":13441,"uscous":13442,"Ġsolapa":13443,"Ġccanf":13444,"Ġremov":13445,"Ġmargarida":13446,"Ġmanjeric":13447,"Ġ16351":13448,"Ġlunar":13449,"rechead":13450,"tingitex":13451,"Ġprenda":13452,"Ġaspart":13453,"Ġrepositor":13454,"Ġprafest":13455,"Ġocuisi":13456,"Ġcajupass":13457,"Ġtaiff":13458,"Ġbuzios":13459,"Ġ79556":13460,"embaracante":13461,"Ġajinomot":13462,"Ġhidrocaut":13463,"Ġpresuntinho":13464,"Ġautomotiva":13465,"Ġdrive":13466,"Ġpalmeron":13467,"Ġcrimson":13468,"Ġretornavel":13469,"Ġreverso":13470,"Ġefeto":13471,"Ġitapua":13472,"Ġreequilib":13473,"Ġdepilatorio":13474,"Ġnikko":13475,"balanca":13476,"Ġaventura":13477,"Ġselagem":13478,"Ġ266925122":13479,"Ġdcarm":13480,"Ġrothmans":13481,"gumelos":13482,"Ġpaonach":13483,"Ġcarnauba":13484,"Ġ90541":13485,"Ġpriscila":13486,"Ġhamornia":13487,"Ġsimeticon":13488,"064":13489,"195":13490,"413":13491,"875":13492,"aco":13493,"best":13494,"blow":13495,"busco":13496,"betame":13497,"egr":13498,"eter":13499,"epis":13500,"hello":13501,"jucar":13502,"km":13503,"mn":13504,"nq":13505,"nar":13506,"ofil":13507,"pped":13508,"paleta":13509,"rv":13510,"som":13511,"tti":13512,"zip":13513,"Ġcqj":13514,"Ġccanudo":13515,"Ġccab":13516,"Ġccaroco":13517,"Ġcvida":13518,"Ġppp":13519,"inte":13520,"Ġ1100":13521,"repo":13522,"anis":13523,"anne":13524,"coz":13525,"Ġbjo":13526,"Ġbion":13527,"Ġbetame":13528,"tek":13529,"tequeira":13530,"Ġ2249":13531,"ery":13532,"olino":13533,"Ġataca":13534,"tapa":13535,"enix":13536,"Ġ524":13537,"Ġnidi":13538,"Ġgaz":13539,"maggi":13540,"tomilho":13541,"Ġ4248":13542,"tito":13543,"Ġliban":13544,"Ġliofil":13545,"Ġrebu":13546,"Ġrenew":13547,"Ġcogumelos":13548,"Ġmaco":13549,"Ġinveja":13550,"Ġeff":13551,"Ġpox":13552,"ioc":13553,"Ġ839":13554,"Ġkin":13555,"Ġkom":13556,"iggi":13557,"Ġikit":13558,"desin":13559,"Ġ730":13560,"Ġ7243":13561,"Ġ7756":13562,"conv":13563,"Ġroots":13564,"Ġalpo":13565,"Ġ911":13566,"baw":13567,"Ġxil":13568,"Ġserena":13569,"Ġmarsh":13570,"Ġmaringa":13571,"Ġmarchand":13572,"panetone":13573,"Ġdoutor":13574,"Ġcontro":13575,"Ġespan":13576,"ucci":13577,"Ġargos":13578,"Ġmoct":13579,"Ġrist":13580,"Ġrxo":13581,"erogra":13582,"Ġpai":13583,"Ġpazze":13584,"Ġpajucar":13585,"2019":13586,"Ġquik":13587,"Ġ504929":13588,"condensado":13589,"Ġanjos":13590,"accu":13591,"Ġazei":13592,"Ġbrk":13593,"ebond":13594,"Ġchipo":13595,"Ġchbc":13596,"Ġ90455":13597,"Ġ90413":13598,"Ġ15016":13599,"Ġpetal":13600,"Ġ2018":13601,"Ġshco":13602,"12504":13603,"Ġnegr":13604,"Ġpalla":13605,"Ġteflon":13606,"Ġ1558":13607,"Ġ1551":13608,"Ġ4046":13609,"Ġceper":13610,"Ġelite":13611,"Ġloop":13612,"Ġlimpo":13613,"Ġsups":13614,"Ġintex":13615,"Ġsadi":13616,"sorriso":13617,"157":13618,"Ġcoloridas":13619,"Ġleon":13620,"Ġlevin":13621,"Ġ2495":13622,"Ġ2418":13623,"Ġcorilon":13624,"Ġlimaoglace":13625,"Ġdafr":13626,"Ġ8012":13627,"Ġ2360":13628,"Ġ2325":13629,"Ġ23270":13630,"Ġbrilhex":13631,"Ġbandeja":13632,"Ġbicolor":13633,"1312":13634,"1356":13635,"urikake":13636,"Ġmek":13637,"Ġhops":13638,"Ġcliss":13639,"Ġ1420":13640,"Ġ14888":13641,"esponj":13642,"Ġbios":13643,"Ġlights":13644,"Ġmacaban":13645,"manns":13646,"Ġflorm":13647,"azeiton":13648,"163":13649,"Ġbrastemp":13650,"Ġenrol":13651,"Ġsenad":13652,"Ġ1852":13653,"Ġnav":13654,"Ġpariggi":13655,"Ġtrese":13656,"Ġinver":13657,"Ġcravo":13658,"ific":13659,"Ġ1700":13660,"Ġ17148":13661,"Ġ174130":13662,"Ġ7550":13663,"Ġbaunch":13664,"Ġjara":13665,"Ġmusical":13666,"vinh":13667,"Ġ2298":13668,"Ġ2296":13669,"Ġarrozcald":13670,"viagem":13671,"Ġvanis":13672,"Ġcaesar":13673,"Ġtamara":13674,"Ġsensive":13675,"Ġblusa":13676,"Ġ384":13677,"199":13678,"Ġfora":13679,"Ġharry":13680,"Ġ96191":13681,"Ġ2805":13682,"Ġ2785":13683,"Ġtruck":13684,"Ġtrofeu":13685,"Ġfantasia":13686,"Ġfrac":13687,"floco":13688,"Ġtorcedor":13689,"3900":13690,"Ġcerami":13691,"tivado":13692,"tasona":13693,"Ġsaopl":13694,"8412":13695,"Ġtenis":13696,"Ġ7002":13697,"Ġcaprilat":13698,"Ġautoklin":13699,"Ġbule":13700,"Ġfleisc":13701,"Ġkelbit":13702,"Ġlonguete":13703,"gond":13704,"Ġdocura":13705,"Ġ7621":13706,"Ġindicat":13707,"Ġptao":13708,"Ġmamita":13709,"Ġtortini":13710,"Ġgust":13711,"Ġbarbec":13712,"Ġcarnmacleg":13713,"Ġsungao":13714,"Ġalegr":13715,"Ġrecheada":13716,"Ġmosmann":13717,"Ġcolorau":13718,"Ġzapt":13719,"Ġfiatlux":13720,"Ġtippy":13721,"Ġmerl":13722,"Ġcaboclo":13723,"Ġmetropole":13724,"Ġ5413":13725,"denitos":13726,"Ġultg":13727,"Ġritter":13728,"Ġhamburg":13729,"Ġcamadas":13730,"Ġsss":13731,"Ġportug":13732,"Ġ697":13733,"pirac":13734,"pomarola":13735,"Ġftasmel":13736,"Ġ5939":13737,"Ġ15614":13738,"Ġdivertida":13739,"Ġluminoso":13740,"Ġqueenb":13741,"Ġamendoacacau":13742,"Ġkeramax":13743,"confianca":13744,"Ġschweppes":13745,"func":13746,"Ġbeath":13747,"Ġgranolamel":13748,"Ġirresis":13749,"Ġreservado":13750,"Ġ40000160":13751,"Ġbonec":13752,"Ġpossessao":13753,"Ġbianc":13754,"Ġ41415860":13755,"Ġ14921":13756,"Ġmoldura":13757,"Ġdesfiado":13758,"Ġcriativo":13759,"Ġnordestino":13760,"recip":13761,"marmitex":13762,"Ġpotter":13763,"Ġplaydoh":13764,"Ġhdmi":13765,"Ġsuperacao":13766,"Ġgolde":13767,"richester":13768,"Ġenergey":13769,"Ġpampeanobranco":13770,"Ġlanchester":13771,"Ġdefumado":13772,"Ġdimel":13773,"Ġdiari":13774,"Ġ8405":13775,"cidreira":13776,"discos":13777,"mochilete":13778,"Ġ1342":13779,"Ġtigela":13780,"Ġ14958":13781,"Ġetn":13782,"06015":13783,"vigor":13784,"Ġ2268":13785,"Ġ413030":13786,"Ġfrescatino":13787,"desengordurante":13788,"Ġ8982":13789,"Ġtarapaca":13790,"Ġbowls":13791,"Ġalhocebola":13792,"Ġdistrac":13793,"roteador":13794,"Ġtodecachinhos":13795,"Ġdescafeinado":13796,"feltro":13797,"Ġcintronela":13798,"Ġversatil":13799,"Ġaditivado":13800,"Ġballantines":13801,"Ġ81935":13802,"Ġpreseunto":13803,"Ġkeratin":13804,"eparema":13805,"Ġmicellar":13806,"Ġtaglia":13807,"estomazil":13808,"trincha":13809,"beijinho":13810,"Ġshopkins":13811,"Ġ160080":13812,"Ġcalendula":13813,"theoto":13814,"Ġmotivad":13815,"Ġsaboneteiraporta":13816,"Ġfreixenet":13817,"Ġteekanne":13818,"Ġreequilibrio":13819,"episol":13820,"Ġikituri":13821,"Ġmoctuti":13822,"condensadora":13823,"Ġchipotle":13824,"Ġsaoplio":13825,"Ġkelbits":13826,"475":13827,"avel":13828,"bs":13829,"dra":13830,"dio":13831,"feno":13832,"hia":13833,"hyd":13834,"kz":13835,"kao":13836,"los":13837,"lpg":13838,"mgo":13839,"oph":13840,"otimo":13841,"perola":13842,"pregador":13843,"rx":13844,"tqt":13845,"vim":13846,"yte":13847,"zom":13848,"zeit":13849,"Ġcdepos":13850,"Ġpk":13851,"Ġpesc":13852,"Ġpcabelo":13853,"Ġpunhas":13854,"Ġ1150":13855,"Ġmimo":13856,"Ġsaro":13857,"cog":13858,"Ġby":13859,"teir":13860,"alfaz":13861,"aros":13862,"esto":13863,"Ġdett":13864,"orio":13865,"orinho":13866,"orqui":13867,"Ġfrent":13868,"Ġtic":13869,"caip":13870,"campo":13871,"Ġaber":13872,"isao":13873,"roga":13874,"roxo":13875,"ropolis":13876,"Ġ538":13877,"Ġ531":13878,"Ġ583":13879,"uniao":13880,"Ġgarraf":13881,"Ġgratis":13882,"ilico":13883,"ilton":13884,"mati":13885,"toya":13886,"mpanos":13887,"elx":13888,"Ġveste":13889,"asb":13890,"Ġ5002":13891,"dada":13892,"tivel":13893,"Ġlix":13894,"Ġrecar":13895,"Ġrebbit":13896,"dou":13897,"Ġcoqu":13898,"Ġmamb":13899,"Ġmatic":13900,"ranca":13901,"Ġinb":13902,"Ġhth":13903,"Ġlamp":13904,"Ġlarac":13905,"itario":13906,"sapeka":13907,"decon":13908,"Ġoca":13909,"Ġorem":13910,"Ġiphone":13911,"Ġdeto":13912,"Ġalvo":13913,"Ġalmond":13914,"Ġ910":13915,"Ġ1215":13916,"Ġ1216":13917,"upro":13918,"lie":13919,"Ġtratada":13920,"gaz":13921,"gara":13922,"Ġ400005":13923,"pea":13924,"cete":13925,"Ġsamy":13926,"Ġdois":13927,"Ġaru":13928,"Ġmot":13929,"Ġplaszom":13930,"Ġprosaude":13931,"Ġtozan":13932,"Ġneslac":13933,"Ġcarret":13934,"Ġameno":13935,"Ġdentro":13936,"Ġcrchoc":13937,"Ġcrista":13938,"Ġ252":13939,"Ġpergol":13940,"Ġbrush":13941,"Ġtric":13942,"Ġ15015":13943,"dorflex":13944,"6013":13945,"1210":13946,"Ġ0994":13947,"mbole":13948,"Ġralo":13949,"Ġravital":13950,"Ġrita":13951,"Ġrical":13952,"Ġrigate":13953,"Ġteam":13954,"Ġteix":13955,"Ġteka":13956,"Ġ402":13957,"Ġ40900":13958,"Ġzen":13959,"Ġprecio":13960,"Ġnofus":13961,"Ġcasta":13962,"Ġelsev":13963,"Ġwafe":13964,"Ġsuprem":13965,"Ġmanic":13966,"luza":13967,"Ġchobco":13968,"Ġforr":13969,"Ġcamping":13970,"Ġacin":13971,"259":13972,"Ġveram":13973,"Ġlacbom":13974,"Ġbonacarne":13975,"entado":13976,"Ġleitecereais":13977,"Ġadren":13978,"espar":13979,"Ġfgoqjo":13980,"Ġantipul":13981,"boavistense":13982,"Ġ2324":13983,"Ġ2315":13984,"Ġ2322":13985,"Ġ23198":13986,"Ġverdecranberry":13987,"ibol":13988,"itaka":13989,"Ġdanix":13990,"Ġ3510":13991,"Ġpratico":13992,"carn":13993,"Ġblist":13994,"Ġclia":13995,"Ġgrey":13996,"Ġ14946":13997,"Ġapren":13998,"Ġaperi":13999,"montilla":14000,"Ġexec":14001,"Ġfemme":14002,"Ġneutral":14003,"895":14004,"trac":14005,"161":14006,"Ġestilos":14007,"relax":14008,"Ġamasa":14009,"ffin":14010,"Ġ1853":14011,"Ġsiles":14012,"446":14013,"Ġmagnes":14014,"Ġinvi":14015,"Ġactio":14016,"endas":14017,"Ġasas":14018,"Ġpanco":14019,"Ġhiperplus":14020,"Ġ176":14021,"Ġcamuf":14022,"Ġ2837":14023,"Ġadesiv":14024,"Ġvalv":14025,"clic":14026,"Ġaoc":14027,"phil":14028,"tencao":14029,"Ġtramonti":14030,"Ġtripl":14031,"Ġadulta":14032,"Ġmillen":14033,"Ġ3623":14034,"363":14035,"367":14036,"Ġcperf":14037,"Ġcpropolis":14038,"Ġeucali":14039,"Ġdefum":14040,"troninho":14041,"Ġ278":14042,"Ġ2766":14043,"lubrif":14044,"Ġorgani":14045,"Ġsuavid":14046,"Ġmiasb":14047,"Ġlisteri":14048,"Ġfrag":14049,"inhalimao":14050,"Ġ22010":14051,"396":14052,"bond":14053,"Ġajusta":14054,"Ġrepet":14055,"beterraba":14056,"849":14057,"Ġgarr":14058,"Ġgarcia":14059,"calcado":14060,"sonhos":14061,"Ġcaipi":14062,"Ġkolyn":14063,"22326":14064,"Ġ447":14065,"Ġ4438":14066,"Ġ4439":14067,"Ġhellmann":14068,"Ġmantcacau":14069,"3360":14070,"Ġgrossa":14071,"Ġcatupir":14072,"Ġfasano":14073,"Ġvolcano":14074,"Ġseletta":14075,"279":14076,"Ġ41413":14077,"Ġlintea":14078,"Ġavebov":14079,"Ġ9336":14080,"Ġhalit":14081,"Ġ3114":14082,"Ġgaspea":14083,"Ġseries":14084,"Ġ1058":14085,"Ġcgerg":14086,"Ġmerluza":14087,"Ġmartimpanos":14088,"legmac":14089,"casting":14090,"Ġinterroga":14091,"5415":14092,"champig":14093,"Ġpisc":14094,"Ġ7896013104":14095,"Ġspeci":14096,"empan":14097,"Ġderby":14098,"Ġ2251":14099,"Ġeiriflon":14100,"risole":14101,"Ġschincar":14102,"Ġ15638":14103,"Ġtranquila":14104,"Ġdarkness":14105,"trigolar":14106,"Ġinfanc":14107,"Ġvaso":14108,"Ġsensac":14109,"Ġitalia":14110,"softcolor":14111,"Ġmaritima":14112,"Ġrevitaliz":14113,"Ġrenova":14114,"Ġ61348":14115,"Ġequilibri":14116,"Ġbenitaka":14117,"Ġbeijar":14118,"Ġrcell":14119,"Ġ14980":14120,"Ġ14931":14121,"Ġchokko":14122,"Ġxtracool":14123,"Ġ10860":14124,"Ġintegrale":14125,"pmenta":14126,"Ġalteres":14127,"Ġ23180484":14128,"Ġrouge":14129,"Ġmartch":14130,"imeji":14131,"Ġlambr":14132,"Ġ23183440":14133,"Ġ23183480":14134,"neutro":14135,"Ġmfm":14136,"Ġsalame":14137,"Ġngtqt":14138,"Ġfantastic":14139,"Ġ23182400":14140,"Ġ23182440":14141,"Ġoptimix":14142,"Ġautomatico":14143,"Ġgalinhlegmac":14144,"Ġplutonita":14145,"Ġ00000000000000":14146,"Ġduck":14147,"chimichurri":14148,"Ġtourin":14149,"Ġ78960449":14150,"Ġ6709":14151,"Ġ14955":14152,"Ġtattoo":14153,"Ġchenson":14154,"Ġprofission":14155,"Ġcarminh":14156,"centrum":14157,"Ġpetiscao":14158,"Ġmunich":14159,"Ġveicular":14160,"Ġacoplad":14161,"Ġfirmador":14162,"Ġfirmadora":14163,"Ġ23180424":14164,"Ġ23180414":14165,"Ġmembrana":14166,"crisp":14167,"legumes":14168,"Ġricaeli":14169,"Ġaceler":14170,"Ġ61003":14171,"Ġpesseg":14172,"fibras":14173,"figado":14174,"Ġrespiravel":14175,"Ġwitbier":14176,"Ġwickbold":14177,"Ġalladin":14178,"batat":14179,"Ġcostelinhalimao":14180,"Ġcglitt":14181,"Ġacetilciste":14182,"sapatenis":14183,"Ġflopito":14184,"Ġcelebration":14185,"mittos":14186,"Ġpaysan":14187,"Ġminora":14188,"Ġ167215":14189,"Ġsufrech":14190,"Ġmccain":14191,"Ġspaguetti":14192,"Ġduduxo":14193,"Ġvalsartana":14194,"Ġseguranca":14195,"Ġbartolo":14196,"Ġnikkoh":14197,"Ġsssf":14198,"Ġirresistivel":14199,"alfazema":14200,"estopa":14201,"Ġdettol":14202,"orquidea":14203,"Ġaberta":14204,"Ġlaracerola":14205,"Ġoremus":14206,"Ġalvorada":14207,"Ġcarretilha":14208,"Ġbrushing":14209,"Ġravitaly":14210,"Ġteixeira":14211,"Ġveramenta":14212,"Ġcamuflada":14213,"Ġkolynos":14214,"Ġinterrogacao":14215,"040":14216,"015":14217,"033":14218,"4300":14219,"530":14220,"714":14221,"beta":14222,"dant":14223,"dena":14224,"dwhite":14225,"dvd":14226,"easy":14227,"gh":14228,"giza":14229,"hy":14230,"hell":14231,"hill":14232,"lj":14233,"ler":14234,"mir":14235,"nx":14236,"nte":14237,"nity":14238,"odo":14239,"piso":14240,"qclor":14241,"rse":14242,"tur":14243,"xantin":14244,"zina":14245,"Ġeri":14246,"Ġcesprem":14247,"Ġciclo":14248,"Ġpole":14249,"Ġpeit":14250,"Ġpman":14251,"Ġpviagem":14252,"raio":14253,"Ġsqueez":14254,"rey":14255,"lab":14256,"anan":14257,"cores":14258,"Ġbent":14259,"Ġ272":14260,"Ġ2245":14261,"erno":14262,"Ġdina":14263,"Ġlco":14264,"Ġlcos":14265,"Ġfx":14266,"Ġfras":14267,"Ġfsb":14268,"Ġtn":14269,"Ġtfaca":14270,"cac":14271,"Ġax":14272,"Ġaga":14273,"Ġage":14274,"Ġadere":14275,"Ġ542":14276,"hama":14277,"Ġvint":14278,"tir":14279,"Ġcop":14280,"Ġcou":14281,"Ġmaio":14282,"Ġmachao":14283,"ranja":14284,"Ġhoney":14285,"Ġcamb":14286,"pau":14287,"paixao":14288,"quilho":14289,"Ġpoes":14290,"saque":14291,"sako":14292,"Ġ814":14293,"Ġoat":14294,"Ġogc":14295,"Ġovinhos":14296,"Ġiws":14297,"lemento":14298,"Ġ7106":14299,"Ġ7276":14300,"Ġ614":14301,"Ġrojos":14302,"Ġjubes":14303,"Ġmarchi":14304,"Ġtrava":14305,"Ġsailum":14306,"Ġsaquinho":14307,"Ġconj":14308,"Ġesmal":14309,"Ġeskibon":14310,"Ġarmar":14311,"necessaria":14312,"Ġbaf":14313,"Ġbarat":14314,"Ġfrsb":14315,"Ġproupa":14316,"Ġwd":14317,"Ġwester":14318,"Ġcarga":14319,"Ġqualim":14320,"Ġ508":14321,"Ġantad":14322,"acanela":14323,"Ġ3010":14324,"Ġ2500":14325,"Ġverdes":14326,"sof":14327,"sop":14328,"Ġ15017":14329,"Ġ15048":14330,"Ġorbi":14331,"Ġ2020":14332,"Ġ2019":14333,"separador":14334,"Ġshitake":14335,"Ġinflav":14336,"Ġuira":14337,"icoco":14338,"Ġbotijao":14339,"Ġpali":14340,"Ġpalim":14341,"Ġ0064":14342,"Ġ15700":14343,"Ġ15701":14344,"Ġ15696":14345,"Ġsalerno":14346,"Ġ4099":14347,"Ġzn":14348,"marron":14349,"Ġmaras":14350,"Ġmaratito":14351,"Ġelena":14352,"Ġmanu":14353,"chow":14354,"Ġformg":14355,"Ġcampe":14356,"Ġcampari":14357,"adidas":14358,"Ġacele":14359,"Ġmoniz":14360,"Ġlacbac":14361,"Ġdesa":14362,"Ġdesg":14363,"Ġbonbon":14364,"Ġcoronita":14365,"Ġadva":14366,"Ġadst":14367,"Ġplua":14368,"Ġpleno":14369,"Ġdagran":14370,"Ġantiq":14371,"Ġ8038":14372,"Ġ2337":14373,"Ġ2369":14374,"cuma":14375,"Ġclari":14376,"corta":14377,"Ġ3727":14378,"Ġgrandes":14379,"133":14380,"Ġ17070":14381,"Ġpalmiza":14382,"Ġgramp":14383,"Ġpolibril":14384,"Ġ3520":14385,"Ġ6003":14386,"apti":14387,"Ġprada":14388,"etao":14389,"Ġparaggi":14390,"Ġcomfo":14391,"Ġ14903":14392,"Ġexterna":14393,"Ġmaximo":14394,"1115":14395,"Ġdure":14396,"Ġpremie":14397,"Ġseninha":14398,"Ġmoldada":14399,"Ġmedalha":14400,"Ġsildena":14401,"Ġlaminas":14402,"Ġmilhofgo":14403,"ptus":14404,"Ġvitoria":14405,"catupi":14406,"Ġnaturalmente":14407,"Ġassu":14408,"Ġbeterraba":14409,"Ġdiaraio":14410,"351":14411,"waffe":14412,"Ġ1305":14413,"Ġjasmcoco":14414,"Ġ17325":14415,"Ġbebby":14416,"1724":14417,"illus":14418,"Ġ2250":14419,"Ġbolitas":14420,"ubs":14421,"663":14422,"Ġcaesgatos":14423,"Ġ11035":14424,"antimofo":14425,"sport":14426,"Ġ17591":14427,"Ġradia":14428,"Ġprednis":14429,"192":14430,"Ġpronl":14431,"trol":14432,"Ġpeitoral":14433,"Ġwafers":14434,"Ġacaboom":14435,"cotubs":14436,"Ġmik":14437,"Ġmiks":14438,"barraca":14439,"Ġsportfresh":14440,"Ġfreedom":14441,"assarapido":14442,"Ġmisang":14443,"Ġgarc":14444,"Ġgarfos":14445,"goiaba":14446,"297":14447,"Ġ13177":14448,"Ġpoderosos":14449,"Ġqjoreg":14450,"Ġbordado":14451,"Ġproaut":14452,"Ġpeles":14453,"787":14454,"Ġinspiradora":14455,"Ġeletrica":14456,"Ġfigo":14457,"Ġheliar":14458,"Ġsulfite":14459,"Ġtheebond":14460,"abobora":14461,"abobrinha":14462,"Ġkopatex":14463,"Ġ562":14464,
[...]
